{
  "version": "1.0",
  "truncation": null,
  "padding": null,
  "added_tokens": [
    {
      "id": 0,
      "content": "<pad>",
      "single_word": false,
      "lstrip": false,
      "rstrip": false,
      "normalized": false,
      "special": true
    },
    {
      "id": 1,
      "content": "<unk>",
      "single_word": false,
      "lstrip": false,
      "rstrip": false,
      "normalized": false,
      "special": true
    },
    {
      "id": 2,
      "content": "<s>",
      "single_word": false,
      "lstrip": false,
      "rstrip": false,
      "normalized": false,
      "special": true
    },
    {
      "id": 3,
      "content": "</s>",
      "single_word": false,
      "lstrip": false,
      "rstrip": false,
      "normalized": false,
      "special": true
    }
  ],
  "normalizer": {
    "type": "Sequence",
    "normalizers": [
      {
        "type": "NFKC"
      }
    ]
  },
  "pre_tokenizer": {
    "type": "Sequence",
    "pretokenizers": [
      {
        "type": "Whitespace"
      },
      {
        "type": "Punctuation",
        "behavior": "Isolated"
      }
    ]
  },
  "post_processor": {
    "type": "TemplateProcessing",
    "single": [
      {
        "SpecialToken": {
          "id": "<s>",
          "type_id": 0
        }
      },
      {
        "Sequence": {
          "id": "A",
          "type_id": 0
        }
      },
      {
        "SpecialToken": {
          "id": "</s>",
          "type_id": 0
        }
      }
    ],
    "pair": [
      {
        "SpecialToken": {
          "id": "<s>",
          "type_id": 0
        }
      },
      {
        "Sequence": {
          "id": "A",
          "type_id": 0
        }
      },
      {
        "SpecialToken": {
          "id": "</s>",
          "type_id": 0
        }
      },
      {
        "SpecialToken": {
          "id": "</s>",
          "type_id": 0
        }
      },
      {
        "Sequence": {
          "id": "B",
          "type_id": 0
        }
      },
      {
        "SpecialToken": {
          "id": "</s>",
          "type_id": 0
        }
      }
    ],
    "special_tokens": {
      "</s>": {
        "id": "</s>",
        "ids": [
          3
        ],
        "tokens": [
          "</s>"
        ]
      },
      "<s>": {
        "id": "<s>",
        "ids": [
          2
        ],
        "tokens": [
          "<s>"
        ]
      }
    }
  },
  "decoder": null,
  "model": {
    "type": "BPE",
    "dropout": null,
    "unk_token": null,
    "continuing_subword_prefix": null,
    "end_of_word_suffix": null,
    "fuse_unk": false,
    "byte_fallback": false,
    "ignore_merges": false,
    "vocab": {
      "<pad>": 0,
      "<unk>": 1,
      "<s>": 2,
      "</s>": 3,
      "\u0002": 4,
      "\u0003": 5,
      "\u0004": 6,
      "\b": 7,
      "\u0010": 8,
      "\u001a": 9,
      "\u001b": 10,
      "!": 11,
      "\"": 12,
      "#": 13,
      "$": 14,
      "%": 15,
      "&": 16,
      "'": 17,
      "(": 18,
      ")": 19,
      "*": 20,
      "+": 21,
      ",": 22,
      "-": 23,
      ".": 24,
      "/": 25,
      "0": 26,
      "1": 27,
      "2": 28,
      "3": 29,
      "4": 30,
      "5": 31,
      "6": 32,
      "7": 33,
      "8": 34,
      "9": 35,
      ":": 36,
      ";": 37,
      "<": 38,
      "=": 39,
      ">": 40,
      "?": 41,
      "@": 42,
      "A": 43,
      "B": 44,
      "C": 45,
      "D": 46,
      "E": 47,
      "F": 48,
      "G": 49,
      "H": 50,
      "I": 51,
      "J": 52,
      "K": 53,
      "L": 54,
      "M": 55,
      "N": 56,
      "O": 57,
      "P": 58,
      "Q": 59,
      "R": 60,
      "S": 61,
      "T": 62,
      "U": 63,
      "V": 64,
      "W": 65,
      "X": 66,
      "Y": 67,
      "Z": 68,
      "[": 69,
      "\\": 70,
      "]": 71,
      "^": 72,
      "_": 73,
      "`": 74,
      "a": 75,
      "b": 76,
      "c": 77,
      "d": 78,
      "e": 79,
      "f": 80,
      "g": 81,
      "h": 82,
      "i": 83,
      "j": 84,
      "k": 85,
      "l": 86,
      "m": 87,
      "n": 88,
      "o": 89,
      "p": 90,
      "q": 91,
      "r": 92,
      "s": 93,
      "t": 94,
      "u": 95,
      "v": 96,
      "w": 97,
      "x": 98,
      "y": 99,
      "z": 100,
      "{": 101,
      "|": 102,
      "}": 103,
      "~": 104,
      "": 105,
      "": 106,
      "": 107,
      "": 108,
      "": 109,
      "": 110,
      "": 111,
      "": 112,
      "": 113,
      "": 114,
      "": 115,
      "": 116,
      "": 117,
      "": 118,
      "": 119,
      "": 120,
      "¡": 121,
      "¢": 122,
      "£": 123,
      "¥": 124,
      "¦": 125,
      "§": 126,
      "©": 127,
      "«": 128,
      "¬": 129,
      "­": 130,
      "®": 131,
      "°": 132,
      "±": 133,
      "¶": 134,
      "·": 135,
      "»": 136,
      "¿": 137,
      "À": 138,
      "Á": 139,
      "Â": 140,
      "Ã": 141,
      "Ä": 142,
      "Å": 143,
      "Æ": 144,
      "Ç": 145,
      "È": 146,
      "É": 147,
      "Ê": 148,
      "Ì": 149,
      "Í": 150,
      "Î": 151,
      "Ï": 152,
      "Ð": 153,
      "Ñ": 154,
      "Ò": 155,
      "Ó": 156,
      "Ô": 157,
      "Õ": 158,
      "Ö": 159,
      "×": 160,
      "Ø": 161,
      "Ù": 162,
      "Û": 163,
      "Ü": 164,
      "Ý": 165,
      "Þ": 166,
      "ß": 167,
      "à": 168,
      "á": 169,
      "â": 170,
      "ã": 171,
      "ä": 172,
      "å": 173,
      "æ": 174,
      "ç": 175,
      "è": 176,
      "é": 177,
      "ê": 178,
      "ë": 179,
      "ì": 180,
      "í": 181,
      "î": 182,
      "ï": 183,
      "ð": 184,
      "ñ": 185,
      "ò": 186,
      "ó": 187,
      "ô": 188,
      "õ": 189,
      "ö": 190,
      "÷": 191,
      "ø": 192,
      "ù": 193,
      "ú": 194,
      "û": 195,
      "ü": 196,
      "ý": 197,
      "þ": 198,
      "ÿ": 199,
      "ă": 200,
      "ą": 201,
      "ć": 202,
      "ď": 203,
      "ē": 204,
      "ę": 205,
      "ģ": 206,
      "İ": 207,
      "ı": 208,
      "ĺ": 209,
      "ł": 210,
      "Ń": 211,
      "ń": 212,
      "ň": 213,
      "ō": 214,
      "ś": 215,
      "Š": 216,
      "š": 217,
      "ū": 218,
      "ų": 219,
      "ż": 220,
      "ž": 221,
      "ƒ": 222,
      "ơ": 223,
      "Ǿ": 224,
      "ə": 225,
      "ɪ": 226,
      "ʊ": 227,
      "ʻ": 228,
      "ˈ": 229,
      "ˌ": 230,
      "ː": 231,
      "́": 232,
      "̄": 233,
      "̈": 234,
      "̊": 235,
      "̋": 236,
      "̤": 237,
      "̧": 238,
      "̪": 239,
      "Φ": 240,
      "Ω": 241,
      "α": 242,
      "β": 243,
      "ε": 244,
      "μ": 245,
      "π": 246,
      "φ": 247,
      "ψ": 248,
      "А": 249,
      "В": 250,
      "Н": 251,
      "П": 252,
      "Р": 253,
      "С": 254,
      "Ч": 255,
      "Ш": 256,
      "Э": 257,
      "Ю": 258,
      "Я": 259,
      "а": 260,
      "б": 261,
      "в": 262,
      "г": 263,
      "д": 264,
      "е": 265,
      "ж": 266,
      "з": 267,
      "и": 268,
      "й": 269,
      "к": 270,
      "л": 271,
      "м": 272,
      "н": 273,
      "о": 274,
      "п": 275,
      "р": 276,
      "с": 277,
      "т": 278,
      "у": 279,
      "ф": 280,
      "х": 281,
      "ч": 282,
      "ш": 283,
      "щ": 284,
      "ы": 285,
      "ь": 286,
      "э": 287,
      "ю": 288,
      "я": 289,
      "Ԁ": 290,
      "א": 291,
      "ב": 292,
      "ד": 293,
      "ה": 294,
      "ו": 295,
      "ט": 296,
      "י": 297,
      "כ": 298,
      "ל": 299,
      "מ": 300,
      "ן": 301,
      "נ": 302,
      "ע": 303,
      "פ": 304,
      "ר": 305,
      "ש": 306,
      "ת": 307,
      "،": 308,
      "؟": 309,
      "ء": 310,
      "أ": 311,
      "ؤ": 312,
      "إ": 313,
      "ئ": 314,
      "ا": 315,
      "ب": 316,
      "ة": 317,
      "ت": 318,
      "ث": 319,
      "ج": 320,
      "ح": 321,
      "خ": 322,
      "د": 323,
      "ذ": 324,
      "ر": 325,
      "ز": 326,
      "س": 327,
      "ش": 328,
      "ص": 329,
      "ض": 330,
      "ط": 331,
      "ظ": 332,
      "ع": 333,
      "غ": 334,
      "ف": 335,
      "ق": 336,
      "ك": 337,
      "ل": 338,
      "م": 339,
      "ن": 340,
      "ه": 341,
      "و": 342,
      "ى": 343,
      "ي": 344,
      "ً": 345,
      "ِ": 346,
      "ค": 347,
      "ง": 348,
      "ต": 349,
      "ท": 350,
      "ม": 351,
      "ล": 352,
      "ส": 353,
      "า": 354,
      "ี": 355,
      "็": 356,
      "่": 357,
      "้": 358,
      "ღ": 359,
      "ḧ": 360,
      "ḯ": 361,
      "Ṳ": 362,
      "ẅ": 363,
      "ẗ": 364,
      "ẹ": 365,
      "​": 366,
      "‌": 367,
      "‍": 368,
      "‎": 369,
      "‐": 370,
      "–": 371,
      "—": 372,
      "―": 373,
      "‘": 374,
      "’": 375,
      "‚": 376,
      "“": 377,
      "”": 378,
      "„": 379,
      "†": 380,
      "‡": 381,
      "•": 382,
      "‰": 383,
      "′": 384,
      "‹": 385,
      "›": 386,
      "※": 387,
      "⁄": 388,
      "€": 389,
      "↑": 390,
      "→": 391,
      "↓": 392,
      "∂": 393,
      "∏": 394,
      "−": 395,
      "∞": 396,
      "∨": 397,
      "∩": 398,
      "∼": 399,
      "≈": 400,
      "≤": 401,
      "≥": 402,
      "⊂": 403,
      "█": 404,
      "■": 405,
      "▪": 406,
      "▶": 407,
      "►": 408,
      "▼": 409,
      "◆": 410,
      "◊": 411,
      "○": 412,
      "●": 413,
      "◦": 414,
      "◾": 415,
      "★": 416,
      "☆": 417,
      "☕": 418,
      "☝": 419,
      "☺": 420,
      "☼": 421,
      "♏": 422,
      "♡": 423,
      "♤": 424,
      "♥": 425,
      "♫": 426,
      "✆": 427,
      "✌": 428,
      "✽": 429,
      "❤": 430,
      "➕": 431,
      "➜": 432,
      "➟": 433,
      "➰": 434,
      "⬆": 435,
      "⭐": 436,
      "、": 437,
      "。": 438,
      "〈": 439,
      "《": 440,
      "》": 441,
      "「": 442,
      "」": 443,
      "【": 444,
      "】": 445,
      "す": 446,
      "に": 447,
      "の": 448,
      "る": 449,
      "ク": 450,
      "ゲ": 451,
      "セ": 452,
      "ッ": 453,
      "ト": 454,
      "ド": 455,
      "ヘ": 456,
      "ム": 457,
      "ロ": 458,
      "・": 459,
      "ー": 460,
      "上": 461,
      "中": 462,
      "仄": 463,
      "伝": 464,
      "信": 465,
      "全": 466,
      "内": 467,
      "出": 468,
      "合": 469,
      "品": 470,
      "国": 471,
      "地": 472,
      "失": 473,
      "子": 474,
      "安": 475,
      "家": 476,
      "平": 477,
      "幸": 478,
      "度": 479,
      "微": 480,
      "憾": 481,
      "报": 482,
      "文": 483,
      "断": 484,
      "日": 485,
      "时": 486,
      "星": 487,
      "最": 488,
      "期": 489,
      "杞": 490,
      "枸": 491,
      "株": 492,
      "正": 493,
      "沙": 494,
      "獣": 495,
      "理": 496,
      "用": 497,
      "电": 498,
      "纬": 499,
      "经": 500,
      "聚": 501,
      "药": 502,
      "規": 503,
      "警": 504,
      "认": 505,
      "证": 506,
      "说": 507,
      "败": 508,
      "超": 509,
      "逓": 510,
      "速": 511,
      "逸": 512,
      "運": 513,
      "遺": 514,
      "醒": 515,
      "间": 516,
      "高": 517,
      "나": 518,
      "": 519,
      "": 520,
      "": 521,
      "": 522,
      "️": 523,
      "﻿": 524,
      "￼": 525,
      "�": 526,
      "👋": 527,
      "😁": 528,
      "😉": 529,
      "😊": 530,
      "😞": 531,
      "😡": 532,
      "🙂": 533,
      "th": 534,
      "er": 535,
      "in": 536,
      "an": 537,
      "the": 538,
      "on": 539,
      "re": 540,
      "ou": 541,
      "or": 542,
      "it": 543,
      "at": 544,
      "is": 545,
      "en": 546,
      "es": 547,
      "to": 548,
      "ed": 549,
      "ll": 550,
      "as": 551,
      "ing": 552,
      "and": 553,
      "ar": 554,
      "le": 555,
      "ch": 556,
      "st": 557,
      "se": 558,
      "wi": 559,
      "ro": 560,
      "you": 561,
      "ve": 562,
      "for": 563,
      "al": 564,
      "of": 565,
      "ti": 566,
      "me": 567,
      "be": 568,
      "ha": 569,
      "no": 570,
      "he": 571,
      "de": 572,
      "ac": 573,
      "this": 574,
      "ic": 575,
      "ld": 576,
      "co": 577,
      "ut": 578,
      "with": 579,
      "un": 580,
      "all": 581,
      "ow": 582,
      "ter": 583,
      "ig": 584,
      "ver": 585,
      "ly": 586,
      "so": 587,
      "ge": 588,
      "ab": 589,
      "have": 590,
      "us": 591,
      "are": 592,
      "ad": 593,
      "ne": 594,
      "pro": 595,
      "ay": 596,
      "ke": 597,
      "wh": 598,
      "do": 599,
      "su": 600,
      "ould": 601,
      "that": 602,
      "si": 603,
      "ent": 604,
      "am": 605,
      "ur": 606,
      "li": 607,
      "lo": 608,
      "not": 609,
      "one": 610,
      "if": 611,
      "ht": 612,
      "ct": 613,
      "ce": 614,
      "mo": 615,
      "out": 616,
      "te": 617,
      "can": 618,
      "we": 619,
      "ion": 620,
      "but": 621,
      "wor": 622,
      "ther": 623,
      "con": 624,
      "pl": 625,
      "ap": 626,
      "my": 627,
      "com": 628,
      "ma": 629,
      "il": 630,
      "The": 631,
      "pe": 632,
      "work": 633,
      "di": 634,
      "use": 635,
      "tion": 636,
      "tr": 637,
      "oo": 638,
      "up": 639,
      "ir": 640,
      "will": 641,
      "ight": 642,
      "ation": 643,
      "der": 644,
      "your": 645,
      "sh": 646,
      "Th": 647,
      "ase": 648,
      "ard": 649,
      "any": 650,
      "would": 651,
      "It": 652,
      "ta": 653,
      "ine": 654,
      "bo": 655,
      "ate": 656,
      "ess": 657,
      "ust": 658,
      "oun": 659,
      "qu": 660,
      "able": 661,
      "um": 662,
      "ble": 663,
      "ri": 664,
      "per": 665,
      "ts": 666,
      "fe": 667,
      "ack": 668,
      "ex": 669,
      "po": 670,
      "does": 671,
      "ere": 672,
      "ho": 673,
      "est": 674,
      "oug": 675,
      "ple": 676,
      "em": 677,
      "vi": 678,
      "du": 679,
      "ck": 680,
      "fit": 681,
      "end": 682,
      "00": 683,
      "ill": 684,
      "res": 685,
      "ally": 686,
      "rom": 687,
      "was": 688,
      "ting": 689,
      "they": 690,
      "just": 691,
      "ind": 692,
      "now": 693,
      "from": 694,
      "need": 695,
      "ul": 696,
      "ant": 697,
      "ame": 698,
      "lu": 699,
      "id": 700,
      "ank": 701,
      "ich": 702,
      "go": 703,
      "has": 704,
      "por": 705,
      "ung": 706,
      "Do": 707,
      "get": 708,
      "very": 709,
      "gr": 710,
      "like": 711,
      "ze": 712,
      "ment": 713,
      "hel": 714,
      "ice": 715,
      "Wh": 716,
      "ist": 717,
      "our": 718,
      "ps": 719,
      "ag": 720,
      "ure": 721,
      "how": 722,
      "ie": 723,
      "ok": 724,
      "ood": 725,
      "act": 726,
      "about": 727,
      "form": 728,
      "ound": 729,
      "ink": 730,
      "what": 731,
      "know": 732,
      "tw": 733,
      "ass": 734,
      "fer": 735,
      "don": 736,
      "ough": 737,
      "ity": 738,
      "put": 739,
      "ong": 740,
      "im": 741,
      "them": 742,
      "produ": 743,
      "blem": 744,
      "ite": 745,
      "port": 746,
      "au": 747,
      "ers": 748,
      "other": 749,
      "there": 750,
      "tic": 751,
      "age": 752,
      "some": 753,
      "bu": 754,
      "sure": 755,
      "these": 756,
      "Is": 757,
      "op": 758,
      "used": 759,
      "el": 760,
      "ph": 761,
      "art": 762,
      "product": 763,
      "pre": 764,
      "If": 765,
      "ber": 766,
      "thing": 767,
      "Does": 768,
      "pr": 769,
      "atter": 770,
      "only": 771,
      "fo": 772,
      "set": 773,
      "cre": 774,
      "et": 775,
      "when": 776,
      "gre": 777,
      "too": 778,
      "more": 779,
      "dat": 780,
      "size": 781,
      "We": 782,
      "ten": 783,
      "ca": 784,
      "had": 785,
      "inst": 786,
      "ction": 787,
      "Can": 788,
      "spe": 789,
      "look": 790,
      "No": 791,
      "issu": 792,
      "des": 793,
      "dis": 794,
      "cor": 795,
      "ven": 796,
      "ear": 797,
      "ance": 798,
      "ry": 799,
      "top": 800,
      "own": 801,
      "ick": 802,
      "How": 803,
      "back": 804,
      "side": 805,
      "ater": 806,
      "ies": 807,
      "way": 808,
      "ach": 809,
      "by": 810,
      "You": 811,
      "day": 812,
      "In": 813,
      "time": 814,
      "ra": 815,
      "sion": 816,
      "please": 817,
      "Yes": 818,
      "ser": 819,
      "An": 820,
      "und": 821,
      "tom": 822,
      "What": 823,
      "light": 824,
      "This": 825,
      "ans": 826,
      "which": 827,
      "dif": 828,
      "20": 829,
      "ty": 830,
      "pur": 831,
      "comp": 832,
      "problem": 833,
      "che": 834,
      "should": 835,
      "ace": 836,
      "br": 837,
      "ak": 838,
      "bet": 839,
      "well": 840,
      "bl": 841,
      "pp": 842,
      "long": 843,
      "10": 844,
      "off": 845,
      "good": 846,
      "Pro": 847,
      "say": 848,
      "cess": 849,
      "zu": 850,
      "cont": 851,
      "char": 852,
      "av": 853,
      "think": 854,
      "phone": 855,
      "conne": 856,
      "could": 857,
      "ep": 858,
      "batter": 859,
      "man": 860,
      "ower": 861,
      "want": 862,
      "cur": 863,
      "than": 864,
      "yst": 865,
      "sm": 866,
      "its": 867,
      "purch": 868,
      "did": 869,
      "af": 870,
      "great": 871,
      "also": 872,
      "inch": 873,
      "ast": 874,
      "add": 875,
      "over": 876,
      "urn": 877,
      "car": 878,
      "vide": 879,
      "reg": 880,
      "ain": 881,
      "ug": 882,
      "Will": 883,
      "using": 884,
      "ought": 885,
      "then": 886,
      "Thank": 887,
      "buy": 888,
      "fl": 889,
      "ci": 890,
      "igh": 891,
      "help": 892,
      "into": 893,
      "inter": 894,
      "differ": 895,
      "same": 896,
      "ger": 897,
      "del": 898,
      "air": 899,
      "om": 900,
      "cause": 901,
      "ystem": 902,
      "fr": 903,
      "ens": 904,
      "issue": 905,
      "cam": 906,
      "ive": 907,
      "tle": 908,
      "ence": 909,
      "die": 910,
      "small": 911,
      "come": 912,
      "stand": 913,
      "read": 914,
      "two": 915,
      "sof": 916,
      "wer": 917,
      "less": 918,
      "ire": 919,
      "mon": 920,
      "make": 921,
      "pos": 922,
      "mu": 923,
      "see": 924,
      "ign": 925,
      "ile": 926,
      "Re": 927,
      "hr": 928,
      "My": 929,
      "les": 930,
      "cle": 931,
      "vice": 932,
      "str": 933,
      "bs": 934,
      "works": 935,
      "ition": 936,
      "ren": 937,
      "water": 938,
      "ated": 939,
      "sa": 940,
      "zon": 941,
      "ased": 942,
      "down": 943,
      "requ": 944,
      "order": 945,
      "much": 946,
      "may": 947,
      "ull": 948,
      "play": 949,
      "scre": 950,
      "men": 951,
      "gu": 952,
      "sp": 953,
      "bought": 954,
      "bot": 955,
      "inc": 956,
      "year": 957,
      "box": 958,
      "hand": 959,
      "tim": 960,
      "case": 961,
      "ount": 962,
      "min": 963,
      "lar": 964,
      "formation": 965,
      "ever": 966,
      "tail": 967,
      "ook": 968,
      "num": 969,
      "old": 970,
      "really": 971,
      "model": 972,
      "turn": 973,
      "under": 974,
      "dri": 975,
      "ail": 976,
      "comm": 977,
      "ree": 978,
      "connect": 979,
      "eas": 980,
      "chan": 981,
      "pic": 982,
      "ved": 983,
      "because": 984,
      "ol": 985,
      "tu": 986,
      "battery": 987,
      "tware": 988,
      "They": 989,
      "ves": 990,
      "lit": 991,
      "ls": 992,
      "system": 993,
      "new": 994,
      "install": 995,
      "sup": 996,
      "med": 997,
      "ell": 998,
      "made": 999,
      "ards": 1000,
      "data": 1001,
      "ress": 1002,
      "12": 1003,
      "where": 1004,
      "ving": 1005,
      "mine": 1006,
      "estion": 1007,
      "ru": 1008,
      "thank": 1009,
      "find": 1010,
      "cus": 1011,
      "helps": 1012,
      "ati": 1013,
      "remo": 1014,
      "enc": 1015,
      "par": 1016,
      "hold": 1017,
      "let": 1018,
      "iz": 1019,
      "mit": 1020,
      "plug": 1021,
      "cord": 1022,
      "still": 1023,
      "50": 1024,
      "ew": 1025,
      "Ho": 1026,
      "power": 1027,
      "been": 1028,
      "camer": 1029,
      "call": 1030,
      "ors": 1031,
      "after": 1032,
      "high": 1033,
      "rect": 1034,
      "head": 1035,
      "provide": 1036,
      "cover": 1037,
      "better": 1038,
      "tri": 1039,
      "repl": 1040,
      "take": 1041,
      "US": 1042,
      "ier": 1043,
      "unit": 1044,
      "fect": 1045,
      "right": 1046,
      "fir": 1047,
      "tig": 1048,
      "inclu": 1049,
      "ish": 1050,
      "ft": 1051,
      "most": 1052,
      "So": 1053,
      "ww": 1054,
      "ave": 1055,
      "rece": 1056,
      "Mo": 1057,
      "mp": 1058,
      "inches": 1059,
      "software": 1060,
      "int": 1061,
      "row": 1062,
      "little": 1063,
      "question": 1064,
      "eng": 1065,
      "run": 1066,
      "ben": 1067,
      "amp": 1068,
      "ip": 1069,
      "commend": 1070,
      "table": 1071,
      "ket": 1072,
      "best": 1073,
      "lease": 1074,
      "ows": 1075,
      "information": 1076,
      "There": 1077,
      "fine": 1078,
      "den": 1079,
      "Sie": 1080,
      "ste": 1081,
      "recommend": 1082,
      "different": 1083,
      "view": 1084,
      "fü": 1085,
      "clo": 1086,
      "col": 1087,
      "try": 1088,
      "ous": 1089,
      "rough": 1090,
      "king": 1091,
      "hard": 1092,
      "sto": 1093,
      "camera": 1094,
      "line": 1095,
      "detail": 1096,
      "pack": 1097,
      "assist": 1098,
      "board": 1099,
      "ise": 1100,
      "date": 1101,
      "tain": 1102,
      "je": 1103,
      "purchased": 1104,
      "tegr": 1105,
      "sol": 1106,
      "mar": 1107,
      "both": 1108,
      "fil": 1109,
      "doesn": 1110,
      "tach": 1111,
      "bit": 1112,
      "red": 1113,
      "Hope": 1114,
      "got": 1115,
      "ually": 1116,
      "ations": 1117,
      "might": 1118,
      "atch": 1119,
      "low": 1120,
      "spec": 1121,
      "net": 1122,
      "astic": 1123,
      "ific": 1124,
      "fin": 1125,
      "comes": 1126,
      "fore": 1127,
      "ones": 1128,
      "tal": 1129,
      "full": 1130,
      "Please": 1131,
      "enough": 1132,
      "meas": 1133,
      "uf": 1134,
      "itch": 1135,
      "ash": 1136,
      "mm": 1137,
      "war": 1138,
      "through": 1139,
      "son": 1140,
      "sch": 1141,
      "Thanks": 1142,
      "ical": 1143,
      "anyone": 1144,
      "ont": 1145,
      "But": 1146,
      "ital": 1147,
      "attach": 1148,
      "ix": 1149,
      "ular": 1150,
      "200": 1151,
      "item": 1152,
      "cer": 1153,
      "even": 1154,
      "lie": 1155,
      "every": 1156,
      "though": 1157,
      "ating": 1158,
      "ein": 1159,
      "many": 1160,
      "ual": 1161,
      "Ih": 1162,
      "Un": 1163,
      "without": 1164,
      "big": 1165,
      "Ama": 1166,
      "ning": 1167,
      "card": 1168,
      "Amazon": 1169,
      "support": 1170,
      "check": 1171,
      "open": 1172,
      "access": 1173,
      "gen": 1174,
      "aly": 1175,
      "ful": 1176,
      "30": 1177,
      "kind": 1178,
      "ungen": 1179,
      "key": 1180,
      "ges": 1181,
      "Ver": 1182,
      "part": 1183,
      "ton": 1184,
      "15": 1185,
      "lich": 1186,
      "tell": 1187,
      "gl": 1188,
      "bab": 1189,
      "cl": 1190,
      "rip": 1191,
      "conf": 1192,
      "yes": 1193,
      "ments": 1194,
      "sions": 1195,
      "cable": 1196,
      "bar": 1197,
      "were": 1198,
      "around": 1199,
      "hi": 1200,
      "cr": 1201,
      "Sup": 1202,
      "sha": 1203,
      "Al": 1204,
      "gg": 1205,
      "lock": 1206,
      "ture": 1207,
      "answer": 1208,
      "Problem": 1209,
      "seem": 1210,
      "she": 1211,
      "cent": 1212,
      "bottom": 1213,
      "ror": 1214,
      "kes": 1215,
      "dy": 1216,
      "ince": 1217,
      "their": 1218,
      "wall": 1219,
      "each": 1220,
      "sel": 1221,
      "pan": 1222,
      "100": 1223,
      "keep": 1224,
      "ween": 1225,
      "ctions": 1226,
      "won": 1227,
      "ds": 1228,
      "wr": 1229,
      "plastic": 1230,
      "says": 1231,
      "between": 1232,
      "ory": 1233,
      "ily": 1234,
      "app": 1235,
      "load": 1236,
      "bag": 1237,
      "compati": 1238,
      "lue": 1239,
      "ade": 1240,
      "ide": 1241,
      "recei": 1242,
      "lot": 1243,
      "peri": 1244,
      "weight": 1245,
      "ss": 1246,
      "adap": 1247,
      "screen": 1248,
      "room": 1249,
      "month": 1250,
      "nen": 1251,
      "mount": 1252,
      "ded": 1253,
      "cap": 1254,
      "fits": 1255,
      "while": 1256,
      "dep": 1257,
      "her": 1258,
      "ices": 1259,
      "orry": 1260,
      "lt": 1261,
      "sound": 1262,
      "ary": 1263,
      "review": 1264,
      "ial": 1265,
      "speak": 1266,
      "ose": 1267,
      "sw": 1268,
      "charge": 1269,
      "comput": 1270,
      "large": 1271,
      "before": 1272,
      "device": 1273,
      "bre": 1274,
      "Hi": 1275,
      "tomer": 1276,
      "love": 1277,
      "ush": 1278,
      "14": 1279,
      "Support": 1280,
      "issues": 1281,
      "replac": 1282,
      "possi": 1283,
      "avail": 1284,
      "mem": 1285,
      "Se": 1286,
      "never": 1287,
      "integr": 1288,
      "ality": 1289,
      "tried": 1290,
      "belie": 1291,
      "purchase": 1292,
      "Dat": 1293,
      "ef": 1294,
      "To": 1295,
      "lect": 1296,
      "dig": 1297,
      "clean": 1298,
      "ang": 1299,
      "Not": 1300,
      "ces": 1301,
      "att": 1302,
      "start": 1303,
      "ject": 1304,
      "roll": 1305,
      "tions": 1306,
      "first": 1307,
      "pie": 1308,
      "adjust": 1309,
      "last": 1310,
      "bed": 1311,
      "details": 1312,
      "such": 1313,
      "believe": 1314,
      "color": 1315,
      "auf": 1316,
      "require": 1317,
      "13": 1318,
      "ility": 1319,
      "looking": 1320,
      "cut": 1321,
      "free": 1322,
      "inside": 1323,
      "wire": 1324,
      "resol": 1325,
      "iP": 1326,
      "error": 1327,
      "16": 1328,
      "happ": 1329,
      "number": 1330,
      "easy": 1331,
      "tty": 1332,
      "fic": 1333,
      "seat": 1334,
      "ents": 1335,
      "exp": 1336,
      "wir": 1337,
      "lens": 1338,
      "who": 1339,
      "self": 1340,
      "specific": 1341,
      "tive": 1342,
      "analy": 1343,
      "für": 1344,
      "TV": 1345,
      "ged": 1346,
      "since": 1347,
      "far": 1348,
      "sung": 1349,
      "htt": 1350,
      "available": 1351,
      "perfect": 1352,
      "la": 1353,
      "ese": 1354,
      "setting": 1355,
      "computer": 1356,
      "ue": 1357,
      "ks": 1358,
      "rent": 1359,
      "ures": 1360,
      "bably": 1361,
      "price": 1362,
      "ding": 1363,
      "another": 1364,
      "Are": 1365,
      "whe": 1366,
      "For": 1367,
      "front": 1368,
      "vest": 1369,
      "mail": 1370,
      "filter": 1371,
      "measure": 1372,
      "pretty": 1373,
      "solu": 1374,
      "adapter": 1375,
      "ately": 1376,
      "updat": 1377,
      "type": 1378,
      "prote": 1379,
      "list": 1380,
      "brand": 1381,
      "times": 1382,
      "11": 1383,
      "vo": 1384,
      "ob": 1385,
      "ware": 1386,
      "hope": 1387,
      "problems": 1388,
      "USB": 1389,
      "40": 1390,
      "ted": 1391,
      "fur": 1392,
      "version": 1393,
      "Te": 1394,
      "preci": 1395,
      "appro": 1396,
      "HD": 1397,
      "dimen": 1398,
      "sim": 1399,
      "years": 1400,
      "regards": 1401,
      "cal": 1402,
      "ner": 1403,
      "tra": 1404,
      "screw": 1405,
      "place": 1406,
      "mach": 1407,
      "didn": 1408,
      "ready": 1409,
      "As": 1410,
      "http": 1411,
      "found": 1412,
      "contact": 1413,
      "something": 1414,
      "ax": 1415,
      "correct": 1416,
      "pm": 1417,
      "door": 1418,
      "quality": 1419,
      "sell": 1420,
      "appreci": 1421,
      "ön": 1422,
      "thanks": 1423,
      "vices": 1424,
      "sur": 1425,
      "picture": 1426,
      "crip": 1427,
      "lap": 1428,
      "possible": 1429,
      "change": 1430,
      "Could": 1431,
      "curity": 1432,
      "compatible": 1433,
      "video": 1434,
      "gs": 1435,
      "fun": 1436,
      "dur": 1437,
      "due": 1438,
      "mic": 1439,
      "current": 1440,
      "going": 1441,
      "few": 1442,
      "De": 1443,
      "flo": 1444,
      "ange": 1445,
      "shi": 1446,
      "On": 1447,
      "pon": 1448,
      "hal": 1449,
      "needed": 1450,
      "medi": 1451,
      "ken": 1452,
      "batteries": 1453,
      "ates": 1454,
      "switch": 1455,
      "probably": 1456,
      "60": 1457,
      "18": 1458,
      "plan": 1459,
      "tz": 1460,
      "star": 1461,
      "ask": 1462,
      "enti": 1463,
      "od": 1464,
      "And": 1465,
      "Any": 1466,
      "ends": 1467,
      "Read": 1468,
      "digital": 1469,
      "More": 1470,
      "www": 1471,
      "name": 1472,
      "25": 1473,
      "trans": 1474,
      "button": 1475,
      "came": 1476,
      "uns": 1477,
      "gi": 1478,
      "aper": 1479,
      "ort": 1480,
      "drive": 1481,
      "sho": 1482,
      "experi": 1483,
      "ins": 1484,
      "val": 1485,
      "wide": 1486,
      "indows": 1487,
      "ason": 1488,
      "oot": 1489,
      "cli": 1490,
      "ama": 1491,
      "bes": 1492,
      "ext": 1493,
      "bi": 1494,
      "That": 1495,
      "further": 1496,
      "user": 1497,
      "ouse": 1498,
      "ither": 1499,
      "face": 1500,
      "ari": 1501,
      "mer": 1502,
      "vol": 1503,
      "das": 1504,
      "difference": 1505,
      "standard": 1506,
      "black": 1507,
      "exact": 1508,
      "pres": 1509,
      "anything": 1510,
      "hl": 1511,
      "wee": 1512,
      "here": 1513,
      "bsite": 1514,
      "cription": 1515,
      "wear": 1516,
      "sk": 1517,
      "nice": 1518,
      "dimensions": 1519,
      "sli": 1520,
      "Also": 1521,
      "tor": 1522,
      "Would": 1523,
      "charger": 1524,
      "base": 1525,
      "Show": 1526,
      "eine": 1527,
      "working": 1528,
      "direct": 1529,
      "Just": 1530,
      "Less": 1531,
      "pect": 1532,
      "ring": 1533,
      "acc": 1534,
      "clear": 1535,
      "config": 1536,
      "agement": 1537,
      "Ich": 1538,
      "pping": 1539,
      "ength": 1540,
      "However": 1541,
      "handle": 1542,
      "arch": 1543,
      "sing": 1544,
      "regular": 1545,
      "discus": 1546,
      "mis": 1547,
      "security": 1548,
      "When": 1549,
      "tel": 1550,
      "give": 1551,
      "spr": 1552,
      "assistance": 1553,
      "ward": 1554,
      "ging": 1555,
      "stick": 1556,
      "tics": 1557,
      "ement": 1558,
      "project": 1559,
      "machine": 1560,
      "glass": 1561,
      "months": 1562,
      "vers": 1563,
      "bul": 1564,
      "ways": 1565,
      "hair": 1566,
      "hell": 1567,
      "website": 1568,
      "process": 1569,
      "design": 1570,
      "actually": 1571,
      "being": 1572,
      "ours": 1573,
      "addition": 1574,
      "dio": 1575,
      "sen": 1576,
      "looks": 1577,
      "Be": 1578,
      "why": 1579,
      "19": 1580,
      "book": 1581,
      "sub": 1582,
      "solution": 1583,
      "ric": 1584,
      "fri": 1585,
      "appreciate": 1586,
      "thick": 1587,
      "matter": 1588,
      "pa": 1589,
      "laptop": 1590,
      "length": 1591,
      "Good": 1592,
      "return": 1593,
      "contro": 1594,
      "sugg": 1595,
      "xt": 1596,
      "cond": 1597,
      "ature": 1598,
      "siz": 1599,
      "ufact": 1600,
      "enter": 1601,
      "respon": 1602,
      "cial": 1603,
      "vis": 1604,
      "seems": 1605,
      "tools": 1606,
      "vent": 1607,
      "dry": 1608,
      "Pl": 1609,
      "hello": 1610,
      "gram": 1611,
      "etc": 1612,
      "either": 1613,
      "luck": 1614,
      "products": 1615,
      "igin": 1616,
      "tiv": 1617,
      "plic": 1618,
      "hot": 1619,
      "having": 1620,
      "sent": 1621,
      "ild": 1622,
      "fi": 1623,
      "lid": 1624,
      "Cus": 1625,
      "worked": 1626,
      "24": 1627,
      "ref": 1628,
      "sit": 1629,
      "mess": 1630,
      "left": 1631,
      "oc": 1632,
      "St": 1633,
      "care": 1634,
      "ello": 1635,
      "ordered": 1636,
      "already": 1637,
      "ump": 1638,
      "hoto": 1639,
      "veral": 1640,
      "Ch": 1641,
      "instru": 1642,
      "arm": 1643,
      "ouch": 1644,
      "wood": 1645,
      "Hello": 1646,
      "als": 1647,
      "rant": 1648,
      "manufact": 1649,
      "safe": 1650,
      "service": 1651,
      "pair": 1652,
      "getting": 1653,
      "installed": 1654,
      "itor": 1655,
      "nor": 1656,
      "offer": 1657,
      "80": 1658,
      "origin": 1659,
      "height": 1660,
      "perform": 1661,
      "Customer": 1662,
      "dra": 1663,
      "enn": 1664,
      "sign": 1665,
      "action": 1666,
      "white": 1667,
      "included": 1668,
      "ator": 1669,
      "recent": 1670,
      "cannot": 1671,
      "ranty": 1672,
      "vestment": 1673,
      "avy": 1674,
      "kön": 1675,
      "configur": 1676,
      "comple": 1677,
      "pad": 1678,
      "update": 1679,
      "wheel": 1680,
      "sive": 1681,
      "hook": 1682,
      "pri": 1683,
      "days": 1684,
      "mag": 1685,
      "ateg": 1686,
      "tern": 1687,
      "person": 1688,
      "uses": 1689,
      "replacement": 1690,
      "pot": 1691,
      "Ihre": 1692,
      "vel": 1693,
      "main": 1694,
      "feel": 1695,
      "discuss": 1696,
      "Or": 1697,
      "extra": 1698,
      "cab": 1699,
      "tight": 1700,
      "said": 1701,
      "cell": 1702,
      "keting": 1703,
      "easily": 1704,
      "Sorry": 1705,
      "however": 1706,
      "conven": 1707,
      "store": 1708,
      "contain": 1709,
      "received": 1710,
      "piece": 1711,
      "link": 1712,
      "point": 1713,
      "several": 1714,
      "Ihnen": 1715,
      "NO": 1716,
      "remove": 1717,
      "metal": 1718,
      "lin": 1719,
      "tem": 1720,
      "Daten": 1721,
      "heat": 1722,
      "cup": 1723,
      "phones": 1724,
      "bro": 1725,
      "fre": 1726,
      "elect": 1727,
      "kit": 1728,
      "bei": 1729,
      "fen": 1730,
      "ulti": 1731,
      "ctive": 1732,
      "happy": 1733,
      "esday": 1734,
      "once": 1735,
      "comfor": 1736,
      "von": 1737,
      "additional": 1738,
      "AT": 1739,
      "understand": 1740,
      "those": 1741,
      "replace": 1742,
      "remote": 1743,
      "zur": 1744,
      "outside": 1745,
      "blue": 1746,
      "He": 1747,
      "wash": 1748,
      "warranty": 1749,
      "conveni": 1750,
      "fall": 1751,
      "io": 1752,
      "again": 1753,
      "band": 1754,
      "description": 1755,
      "home": 1756,
      "photo": 1757,
      "rel": 1758,
      "temp": 1759,
      "separ": 1760,
      "reach": 1761,
      "dies": 1762,
      "search": 1763,
      "ages": 1764,
      "mal": 1765,
      "heavy": 1766,
      "fix": 1767,
      "fold": 1768,
      "floor": 1769,
      "haven": 1770,
      "wouldn": 1771,
      "lbs": 1772,
      "fully": 1773,
      "pass": 1774,
      "email": 1775,
      "ars": 1776,
      "log": 1777,
      "record": 1778,
      "tall": 1779,
      "llow": 1780,
      "soft": 1781,
      "led": 1782,
      "These": 1783,
      "ness": 1784,
      "pull": 1785,
      "Wir": 1786,
      "else": 1787,
      "ports": 1788,
      "feet": 1789,
      "pt": 1790,
      "wa": 1791,
      "sens": 1792,
      "da": 1793,
      "cook": 1794,
      "protect": 1795,
      "mean": 1796,
      "ats": 1797,
      "bottle": 1798,
      "close": 1799,
      "lle": 1800,
      "body": 1801,
      "fact": 1802,
      "longer": 1803,
      "Wi": 1804,
      "amazon": 1805,
      "site": 1806,
      "integration": 1807,
      "bas": 1808,
      "ult": 1809,
      "über": 1810,
      "ped": 1811,
      "attached": 1812,
      "needs": 1813,
      "tooth": 1814,
      "ested": 1815,
      "optim": 1816,
      "uck": 1817,
      "gee": 1818,
      "oper": 1819,
      "17": 1820,
      "ool": 1821,
      "til": 1822,
      "sis": 1823,
      "real": 1824,
      "stay": 1825,
      "applic": 1826,
      "ross": 1827,
      "manual": 1828,
      "ople": 1829,
      "dar": 1830,
      "dro": 1831,
      "connection": 1832,
      "always": 1833,
      "Ad": 1834,
      "pen": 1835,
      "oil": 1836,
      "LE": 1837,
      "ameter": 1838,
      "oney": 1839,
      "Sa": 1840,
      "DV": 1841,
      "instructions": 1842,
      "Unter": 1843,
      "firm": 1844,
      "kon": 1845,
      "ungs": 1846,
      "mater": 1847,
      "gether": 1848,
      "ounter": 1849,
      "original": 1850,
      "smaller": 1851,
      "mö": 1852,
      "ouble": 1853,
      "resolve": 1854,
      "Mac": 1855,
      "together": 1856,
      "yet": 1857,
      "Fe": 1858,
      "chen": 1859,
      "amsung": 1860,
      "tech": 1861,
      "program": 1862,
      "ute": 1863,
      "monitor": 1864,
      "ot": 1865,
      "away": 1866,
      "gener": 1867,
      "speakers": 1868,
      "settings": 1869,
      "member": 1870,
      "arding": 1871,
      "allow": 1872,
      "forward": 1873,
      "ability": 1874,
      "supp": 1875,
      "people": 1876,
      "control": 1877,
      "ia": 1878,
      "weit": 1879,
      "glich": 1880,
      "three": 1881,
      "atform": 1882,
      "ather": 1883,
      "fill": 1884,
      "updates": 1885,
      "pain": 1886,
      "makes": 1887,
      "cas": 1888,
      "sn": 1889,
      "guess": 1890,
      "medical": 1891,
      "range": 1892,
      "sy": 1893,
      "investment": 1894,
      "Mine": 1895,
      "frame": 1896,
      "cost": 1897,
      "show": 1898,
      "ath": 1899,
      "lights": 1900,
      "chair": 1901,
      "provi": 1902,
      "steps": 1903,
      "complete": 1904,
      "cou": 1905,
      "Team": 1906,
      "wonder": 1907,
      "area": 1908,
      "configuration": 1909,
      "hone": 1910,
      "ütz": 1911,
      "keyboard": 1912,
      "ize": 1913,
      "Ser": 1914,
      "flat": 1915,
      "PS": 1916,
      "next": 1917,
      "stre": 1918,
      "lic": 1919,
      "sle": 1920,
      "aug": 1921,
      "material": 1922,
      "company": 1923,
      "70": 1924,
      "hours": 1925,
      "shipping": 1926,
      "32": 1927,
      "ER": 1928,
      "tun": 1929,
      "house": 1930,
      "quite": 1931,
      "analytics": 1932,
      "itte": 1933,
      "shel": 1934,
      "Mar": 1935,
      "ron": 1936,
      "System": 1937,
      "send": 1938,
      "tage": 1939,
      "Windows": 1940,
      "quick": 1941,
      "sem": 1942,
      "hear": 1943,
      "wid": 1944,
      "short": 1945,
      "sider": 1946,
      "cket": 1947,
      "cy": 1948,
      "devices": 1949,
      "AC": 1950,
      "En": 1951,
      "someone": 1952,
      "ended": 1953,
      "perfectly": 1954,
      "appe": 1955,
      "soon": 1956,
      "All": 1957,
      "tool": 1958,
      "diameter": 1959,
      "ings": 1960,
      "larger": 1961,
      "dated": 1962,
      "press": 1963,
      "strateg": 1964,
      "loc": 1965,
      "pped": 1966,
      "PC": 1967,
      "jo": 1968,
      "leave": 1969,
      "Che": 1970,
      "Com": 1971,
      "rad": 1972,
      "attress": 1973,
      "ilt": 1974,
      "management": 1975,
      "ically": 1976,
      "One": 1977,
      "least": 1978,
      "strap": 1979,
      "rub": 1980,
      "move": 1981,
      "kets": 1982,
      "fac": 1983,
      "proper": 1984,
      "space": 1985,
      "SD": 1986,
      "adv": 1987,
      "must": 1988,
      "reason": 1989,
      "wind": 1990,
      "expect": 1991,
      "fan": 1992,
      "Dear": 1993,
      "defin": 1994,
      "speed": 1995,
      "directly": 1996,
      "ster": 1997,
      "hter": 1998,
      "money": 1999,
      "function": 2000,
      "Information": 2001,
      "ball": 2002,
      "ics": 2003,
      "ative": 2004,
      "cure": 2005,
      "mattress": 2006,
      "mir": 2007,
      "aren": 2008,
      "address": 2009,
      "his": 2010,
      "worth": 2011,
      "mus": 2012,
      "consider": 2013,
      "platform": 2014,
      "running": 2015,
      "lts": 2016,
      "request": 2017,
      "90": 2018,
      "outdated": 2019,
      "paper": 2020,
      "sorry": 2021,
      "ah": 2022,
      "000": 2023,
      "goes": 2024,
      "nten": 2025,
      "Has": 2026,
      "Ex": 2027,
      "stütz": 2028,
      "cern": 2029,
      "moun": 2030,
      "stra": 2031,
      "IT": 2032,
      "wireless": 2033,
      "ground": 2034,
      "unter": 2035,
      "manufactur": 2036,
      "ced": 2037,
      "input": 2038,
      "parts": 2039,
      "resu": 2040,
      "Lö": 2041,
      "MI": 2042,
      "follow": 2043,
      "contin": 2044,
      "isn": 2045,
      "multi": 2046,
      "dr": 2047,
      "ove": 2048,
      "22": 2049,
      "upgr": 2050,
      "stop": 2051,
      "uff": 2052,
      "stor": 2053,
      "audio": 2054,
      "regarding": 2055,
      "bility": 2056,
      "mix": 2057,
      "hole": 2058,
      "OS": 2059,
      "flash": 2060,
      "grow": 2061,
      "ization": 2062,
      "bad": 2063,
      "impro": 2064,
      "aughter": 2065,
      "week": 2066,
      "erhe": 2067,
      "bike": 2068,
      "outer": 2069,
      "strong": 2070,
      "enh": 2071,
      "pump": 2072,
      "aw": 2073,
      "post": 2074,
      "geehr": 2075,
      "holes": 2076,
      "oth": 2077,
      "cool": 2078,
      "suggest": 2079,
      "tv": 2080,
      "break": 2081,
      "suit": 2082,
      "micro": 2083,
      "ys": 2084,
      "fee": 2085,
      "until": 2086,
      "network": 2087,
      "via": 2088,
      "Our": 2089,
      "ub": 2090,
      "trying": 2091,
      "foot": 2092,
      "width": 2093,
      "Wor": 2094,
      "aS": 2095,
      "dog": 2096,
      "daughter": 2097,
      "smo": 2098,
      "ized": 2099,
      "necess": 2100,
      "ency": 2101,
      "almost": 2102,
      "team": 2103,
      "Sh": 2104,
      "itive": 2105,
      "engine": 2106,
      "printer": 2107,
      "itself": 2108,
      "hang": 2109,
      "carry": 2110,
      "couple": 2111,
      "charging": 2112,
      "print": 2113,
      "depend": 2114,
      "gle": 2115,
      "done": 2116,
      "night": 2117,
      "gan": 2118,
      "second": 2119,
      "memory": 2120,
      "during": 2121,
      "maybe": 2122,
      "ilar": 2123,
      "CD": 2124,
      "fire": 2125,
      "vestig": 2126,
      "everything": 2127,
      "ship": 2128,
      "package": 2129,
      "including": 2130,
      "output": 2131,
      "hen": 2132,
      "speaker": 2133,
      "center": 2134,
      "SaaS": 2135,
      "itely": 2136,
      "experience": 2137,
      "roller": 2138,
      "ago": 2139,
      "remember": 2140,
      "buying": 2141,
      "max": 2142,
      "Sehr": 2143,
      "dem": 2144,
      "assem": 2145,
      "yl": 2146,
      "pound": 2147,
      "75": 2148,
      "pod": 2149,
      "test": 2150,
      "hler": 2151,
      "Samsung": 2152,
      "push": 2153,
      "iron": 2154,
      "que": 2155,
      "ina": 2156,
      "player": 2157,
      "ior": 2158,
      "marketing": 2159,
      "secure": 2160,
      "connected": 2161,
      "wed": 2162,
      "GB": 2163,
      "round": 2164,
      "tablet": 2165,
      "non": 2166,
      "touch": 2167,
      "built": 2168,
      "systems": 2169,
      "cum": 2170,
      "plac": 2171,
      "medium": 2172,
      "affect": 2173,
      "iPhone": 2174,
      "display": 2175,
      "things": 2176,
      "similar": 2177,
      "option": 2178,
      "pay": 2179,
      "tical": 2180,
      "esh": 2181,
      "limit": 2182,
      "customer": 2183,
      "atures": 2184,
      "deep": 2185,
      "AN": 2186,
      "investig": 2187,
      "include": 2188,
      "ju": 2189,
      "greatly": 2190,
      "gar": 2191,
      "import": 2192,
      "Ac": 2193,
      "nich": 2194,
      "35": 2195,
      "stützung": 2196,
      "questions": 2197,
      "ters": 2198,
      "performance": 2199,
      "designed": 2200,
      "required": 2201,
      "inform": 2202,
      "download": 2203,
      "ms": 2204,
      "ima": 2205,
      "Unterstützung": 2206,
      "wo": 2207,
      "gri": 2208,
      "watch": 2209,
      "usually": 2210,
      "Informationen": 2211,
      "NOT": 2212,
      "fective": 2213,
      "tap": 2214,
      "zer": 2215,
      "reviews": 2216,
      "guid": 2217,
      "utes": 2218,
      "wä": 2219,
      "isting": 2220,
      "bow": 2221,
      "pati": 2222,
      "tures": 2223,
      "concern": 2224,
      "code": 2225,
      "life": 2226,
      "thin": 2227,
      "exactly": 2228,
      "Con": 2229,
      "rest": 2230,
      "boo": 2231,
      "within": 2232,
      "stur": 2233,
      "half": 2234,
      "IS": 2235,
      "Lösung": 2236,
      "diffic": 2237,
      "ellen": 2238,
      "sich": 2239,
      "bly": 2240,
      "Integr": 2241,
      "listed": 2242,
      "rack": 2243,
      "haben": 2244,
      "online": 2245,
      "ON": 2246,
      "300": 2247,
      "sco": 2248,
      "noti": 2249,
      "dam": 2250,
      "cards": 2251,
      "lead": 2252,
      "lower": 2253,
      "Sch": 2254,
      "pical": 2255,
      "dec": 2256,
      "attemp": 2257,
      "ake": 2258,
      "kt": 2259,
      "stain": 2260,
      "ead": 2261,
      "mber": 2262,
      "necessary": 2263,
      "ify": 2264,
      "ann": 2265,
      "Des": 2266,
      "fig": 2267,
      "takes": 2268,
      "ently": 2269,
      "minutes": 2270,
      "comfortable": 2271,
      "Son": 2272,
      "offee": 2273,
      "ids": 2274,
      "oud": 2275,
      "AM": 2276,
      "fail": 2277,
      "normal": 2278,
      "report": 2279,
      "iting": 2280,
      "IN": 2281,
      "keit": 2282,
      "cho": 2283,
      "slight": 2284,
      "depends": 2285,
      "Ty": 2286,
      "pi": 2287,
      "partic": 2288,
      "ilit": 2289,
      "istance": 2290,
      "lear": 2291,
      "urs": 2292,
      "Blue": 2293,
      "posed": 2294,
      "poten": 2295,
      "99": 2296,
      "music": 2297,
      "tank": 2298,
      "len": 2299,
      "Some": 2300,
      "TH": 2301,
      "ker": 2302,
      "sides": 2303,
      "spray": 2304,
      "aster": 2305,
      "seen": 2306,
      "Canon": 2307,
      "food": 2308,
      "making": 2309,
      "Your": 2310,
      "idea": 2311,
      "AP": 2312,
      "Co": 2313,
      "instead": 2314,
      "note": 2315,
      "Ap": 2316,
      "live": 2317,
      "identi": 2318,
      "Bitte": 2319,
      "compare": 2320,
      "HDMI": 2321,
      "brush": 2322,
      "ES": 2323,
      "manufacturer": 2324,
      "45": 2325,
      "burn": 2326,
      "jack": 2327,
      "axy": 2328,
      "fter": 2329,
      "sme": 2330,
      "Sof": 2331,
      "definitely": 2332,
      "response": 2333,
      "sed": 2334,
      "assu": 2335,
      "DVD": 2336,
      "pick": 2337,
      "starting": 2338,
      "pose": 2339,
      "certain": 2340,
      "seal": 2341,
      "alaxy": 2342,
      "position": 2343,
      "sturdy": 2344,
      "Don": 2345,
      "account": 2346,
      "match": 2347,
      "started": 2348,
      "equ": 2349,
      "autom": 2350,
      "tes": 2351,
      "gets": 2352,
      "aver": 2353,
      "mich": 2354,
      "blade": 2355,
      "conver": 2356,
      "tial": 2357,
      "receiver": 2358,
      "strategies": 2359,
      "oz": 2360,
      "level": 2361,
      "ium": 2362,
      "duct": 2363,
      "guidance": 2364,
      "wise": 2365,
      "info": 2366,
      "wie": 2367,
      "surface": 2368,
      "cks": 2369,
      "saw": 2370,
      "Sich": 2371,
      "coffee": 2372,
      "ye": 2373,
      "ensure": 2374,
      "radio": 2375,
      "volu": 2376,
      "motor": 2377,
      "wal": 2378,
      "rear": 2379,
      "plain": 2380,
      "pictures": 2381,
      "experienc": 2382,
      "oogle": 2383,
      "mid": 2384,
      "desk": 2385,
      "bel": 2386,
      "rubber": 2387,
      "proof": 2388,
      "expen": 2389,
      "measures": 2390,
      "pes": 2391,
      "screws": 2392,
      "plate": 2393,
      "ption": 2394,
      "pieces": 2395,
      "storage": 2396,
      "bulb": 2397,
      "After": 2398,
      "below": 2399,
      "brow": 2400,
      "steel": 2401,
      "took": 2402,
      "vac": 2403,
      "Le": 2404,
      "sizes": 2405,
      "tab": 2406,
      "Check": 2407,
      "across": 2408,
      "iPad": 2409,
      "mini": 2410,
      "feed": 2411,
      "cu": 2412,
      "rit": 2413,
      "tube": 2414,
      "skin": 2415,
      "isier": 2416,
      "plugged": 2417,
      "fli": 2418,
      "nothing": 2419,
      "helpful": 2420,
      "imp": 2421,
      "taken": 2422,
      "improve": 2423,
      "bile": 2424,
      "deal": 2425,
      "stock": 2426,
      "unless": 2427,
      "actual": 2428,
      "went": 2429,
      "pill": 2430,
      "single": 2431,
      "acting": 2432,
      "file": 2433,
      "redi": 2434,
      "With": 2435,
      "cording": 2436,
      "sold": 2437,
      "vious": 2438,
      "hardware": 2439,
      "55": 2440,
      "models": 2441,
      "features": 2442,
      "Sony": 2443,
      "reat": 2444,
      "oubl": 2445,
      "Fehler": 2446,
      "whole": 2447,
      "hose": 2448,
      "detailed": 2449,
      "server": 2450,
      "files": 2451,
      "ingredi": 2452,
      "RE": 2453,
      "cept": 2454,
      "36": 2455,
      "currently": 2456,
      "refer": 2457,
      "Why": 2458,
      "supply": 2459,
      "seller": 2460,
      "ternal": 2461,
      "meld": 2462,
      "above": 2463,
      "einen": 2464,
      "dass": 2465,
      "older": 2466,
      "intern": 2467,
      "warm": 2468,
      "sour": 2469,
      "stuff": 2470,
      "volume": 2471,
      "sched": 2472,
      "kn": 2473,
      "plement": 2474,
      "hin": 2475,
      "dont": 2476,
      "child": 2477,
      "thought": 2478,
      "bere": 2479,
      "shows": 2480,
      "vari": 2481,
      "separate": 2482,
      "lack": 2483,
      "unden": 2484,
      "aging": 2485,
      "exten": 2486,
      "Med": 2487,
      "dition": 2488,
      "bin": 2489,
      "mode": 2490,
      "smell": 2491,
      "others": 2492,
      "page": 2493,
      "incre": 2494,
      "wrong": 2495,
      "convenience": 2496,
      "flow": 2497,
      "setup": 2498,
      "Software": 2499,
      "Up": 2500,
      "ling": 2501,
      "weigh": 2502,
      "bess": 2503,
      "multiple": 2504,
      "onto": 2505,
      "cheap": 2506,
      "Cl": 2507,
      "Best": 2508,
      "items": 2509,
      "shelf": 2510,
      "og": 2511,
      "application": 2512,
      "notic": 2513,
      "ff": 2514,
      "Ni": 2515,
      "acket": 2516,
      "mounted": 2517,
      "cir": 2518,
      "LED": 2519,
      "encounter": 2520,
      "amount": 2521,
      "bal": 2522,
      "os": 2523,
      "Where": 2524,
      "500": 2525,
      "track": 2526,
      "pressure": 2527,
      "dish": 2528,
      "enhance": 2529,
      "atur": 2530,
      "message": 2531,
      "mention": 2532,
      "prevent": 2533,
      "doing": 2534,
      "Au": 2535,
      "thread": 2536,
      "Mic": 2537,
      "trid": 2538,
      "receive": 2539,
      "prefer": 2540,
      "finish": 2541,
      "services": 2542,
      "besser": 2543,
      "options": 2544,
      "AS": 2545,
      "feature": 2546,
      "ping": 2547,
      "ule": 2548,
      "opening": 2549,
      "particular": 2550,
      "können": 2551,
      "Vari": 2552,
      "squ": 2553,
      "120": 2554,
      "ift": 2555,
      "drill": 2556,
      "added": 2557,
      "cold": 2558,
      "mounting": 2559,
      "panel": 2560,
      "hic": 2561,
      "pet": 2562,
      "fortun": 2563,
      "ames": 2564,
      "ield": 2565,
      "temper": 2566,
      "internet": 2567,
      "web": 2568,
      "upgrade": 2569,
      "ious": 2570,
      "lay": 2571,
      "loves": 2572,
      "wanted": 2573,
      "windows": 2574,
      "accur": 2575,
      "Dank": 2576,
      "fast": 2577,
      "cat": 2578,
      "tuesday": 2579,
      "ooting": 2580,
      "Data": 2581,
      "sist": 2582,
      "thor": 2583,
      "unk": 2584,
      "job": 2585,
      "router": 2586,
      "click": 2587,
      "Look": 2588,
      "scan": 2589,
      "bitte": 2590,
      "ür": 2591,
      "electric": 2592,
      "coll": 2593,
      "lex": 2594,
      "inser": 2595,
      "Ze": 2596,
      "noticed": 2597,
      "pin": 2598,
      "dear": 2599,
      "gas": 2600,
      "bers": 2601,
      "emp": 2602,
      "bigger": 2603,
      "him": 2604,
      "automat": 2605,
      "nut": 2606,
      "belt": 2607,
      "completely": 2608,
      "Typical": 2609,
      "tract": 2610,
      "syn": 2611,
      "cartrid": 2612,
      "indic": 2613,
      "nesday": 2614,
      "rup": 2615,
      "mat": 2616,
      "campa": 2617,
      "campaign": 2618,
      "Vie": 2619,
      "coun": 2620,
      "geben": 2621,
      "external": 2622,
      "draw": 2623,
      "Sicherhe": 2624,
      "troubl": 2625,
      "cri": 2626,
      "dle": 2627,
      "clip": 2628,
      "Variant": 2629,
      "straight": 2630,
      "pite": 2631,
      "likely": 2632,
      "legs": 2633,
      "green": 2634,
      "properly": 2635,
      "word": 2636,
      "zeit": 2637,
      "Detail": 2638,
      "äch": 2639,
      "adjustable": 2640,
      "alth": 2641,
      "wednesday": 2642,
      "pounds": 2643,
      "share": 2644,
      "sty": 2645,
      "At": 2646,
      "total": 2647,
      "sal": 2648,
      "cables": 2649,
      "Have": 2650,
      "fortunately": 2651,
      "approx": 2652,
      "shar": 2653,
      "fied": 2654,
      "Its": 2655,
      "custom": 2656,
      "Spe": 2657,
      "degre": 2658,
      "Gr": 2659,
      "sets": 2660,
      "results": 2661,
      "unser": 2662,
      "promp": 2663,
      "cop": 2664,
      "lb": 2665,
      "28": 2666,
      "based": 2667,
      "dire": 2668,
      "May": 2669,
      "roid": 2670,
      "four": 2671,
      "continu": 2672,
      "iff": 2673,
      "fab": 2674,
      "110": 2675,
      "dge": 2676,
      "XL": 2677,
      "channe": 2678,
      "docum": 2679,
      "Which": 2680,
      "ursday": 2681,
      "imum": 2682,
      "expensive": 2683,
      "Very": 2684,
      "headphones": 2685,
      "mehr": 2686,
      "rain": 2687,
      "26": 2688,
      "Addition": 2689,
      "suitable": 2690,
      "suc": 2691,
      "techn": 2692,
      "game": 2693,
      "ife": 2694,
      "wheels": 2695,
      "slow": 2696,
      "II": 2697,
      "Ne": 2698,
      "activ": 2699,
      "higher": 2700,
      "weeks": 2701,
      "mil": 2702,
      "slide": 2703,
      "isch": 2704,
      "sun": 2705,
      "Ab": 2706,
      "ets": 2707,
      "troublesh": 2708,
      "colors": 2709,
      "Integration": 2710,
      "slightly": 2711,
      "double": 2712,
      "thursday": 2713,
      "connector": 2714,
      "exam": 2715,
      "bleme": 2716,
      "forder": 2717,
      "ID": 2718,
      "ident": 2719,
      "cour": 2720,
      "habe": 2721,
      "bright": 2722,
      "locked": 2723,
      "hus": 2724,
      "apart": 2725,
      "smooth": 2726,
      "220": 2727,
      "create": 2728,
      "spital": 2729,
      "Micro": 2730,
      "means": 2731,
      "ied": 2732,
      "grand": 2733,
      "mmer": 2734,
      "werden": 2735,
      "liche": 2736,
      "möglich": 2737,
      "near": 2738,
      "velo": 2739,
      "bags": 2740,
      "build": 2741,
      "ions": 2742,
      "edge": 2743,
      "wat": 2744,
      "Then": 2745,
      "couldn": 2746,
      "mac": 2747,
      "fici": 2748,
      "zing": 2749,
      "step": 2750,
      "PA": 2751,
      "800": 2752,
      "rail": 2753,
      "leg": 2754,
      "wondering": 2755,
      "UT": 2756,
      "dual": 2757,
      "benö": 2758,
      "fy": 2759,
      "schedule": 2760,
      "noise": 2761,
      "gun": 2762,
      "Dies": 2763,
      "Details": 2764,
      "ming": 2765,
      "Additionally": 2766,
      "bt": 2767,
      "vehic": 2768,
      "expected": 2769,
      "Ar": 2770,
      "voltage": 2771,
      "solid": 2772,
      "shop": 2773,
      "friday": 2774,
      "har": 2775,
      "ines": 2776,
      "2014": 2777,
      "shut": 2778,
      "called": 2779,
      "tape": 2780,
      "Zeit": 2781,
      "signal": 2782,
      "cro": 2783,
      "implement": 2784,
      "interested": 2785,
      "effective": 2786,
      "Qu": 2787,
      "ili": 2788,
      "Dis": 2789,
      "entation": 2790,
      "hol": 2791,
      "tru": 2792,
      "geehrte": 2793,
      "trave": 2794,
      "compatibility": 2795,
      "usb": 2796,
      "reme": 2797,
      "fabric": 2798,
      "washer": 2799,
      "auto": 2800,
      "potential": 2801,
      "husband": 2802,
      "ingredients": 2803,
      "kids": 2804,
      "Po": 2805,
      "true": 2806,
      "happen": 2807,
      "plus": 2808,
      "tar": 2809,
      "bus": 2810,
      "dark": 2811,
      "changes": 2812,
      "prompt": 2813,
      "amps": 2814,
      "tray": 2815,
      "doors": 2816,
      "carri": 2817,
      "weitere": 2818,
      "pool": 2819,
      "fair": 2820,
      "tual": 2821,
      "Im": 2822,
      "ible": 2823,
      "izon": 2824,
      "tier": 2825,
      "CA": 2826,
      "success": 2827,
      "ired": 2828,
      "convenient": 2829,
      "special": 2830,
      "replaced": 2831,
      "difficult": 2832,
      "coming": 2833,
      "cially": 2834,
      "tigen": 2835,
      "HP": 2836,
      "2013": 2837,
      "assign": 2838,
      "baby": 2839,
      "Anyone": 2840,
      "weiter": 2841,
      "transfer": 2842,
      "iness": 2843,
      "breach": 2844,
      "grap": 2845,
      "divi": 2846,
      "installation": 2847,
      "inner": 2848,
      "ured": 2849,
      "foam": 2850,
      "holds": 2851,
      "ager": 2852,
      "stu": 2853,
      "outlet": 2854,
      "Name": 2855,
      "bott": 2856,
      "wish": 2857,
      "scr": 2858,
      "sus": 2859,
      "apply": 2860,
      "course": 2861,
      "rather": 2862,
      "ades": 2863,
      "solute": 2864,
      "male": 2865,
      "wur": 2866,
      "enna": 2867,
      "Bluetooth": 2868,
      "las": 2869,
      "hor": 2870,
      "entire": 2871,
      "appears": 2872,
      "block": 2873,
      "21": 2874,
      "ird": 2875,
      "LL": 2876,
      "Bo": 2877,
      "Li": 2878,
      "lat": 2879,
      "leak": 2880,
      "recommended": 2881,
      "inqu": 2882,
      "engineer": 2883,
      "sc": 2884,
      "lots": 2885,
      "fam": 2886,
      "sat": 2887,
      "notice": 2888,
      "Kind": 2889,
      "july": 2890,
      "sink": 2891,
      "charged": 2892,
      "friend": 2893,
      "könnten": 2894,
      "quickly": 2895,
      "hon": 2896,
      "proto": 2897,
      "beh": 2898,
      "related": 2899,
      "angle": 2900,
      "today": 2901,
      "swi": 2902,
      "ised": 2903,
      "paint": 2904,
      "ses": 2905,
      "rei": 2906,
      "image": 2907,
      "aga": 2908,
      "64": 2909,
      "removed": 2910,
      "looked": 2911,
      "along": 2912,
      "deter": 2913,
      "mouse": 2914,
      "USA": 2915,
      "wel": 2916,
      "sensitive": 2917,
      "hy": 2918,
      "rot": 2919,
      "OR": 2920,
      "checked": 2921,
      "sists": 2922,
      "Nikon": 2923,
      "organ": 2924,
      "often": 2925,
      "eps": 2926,
      "middle": 2927,
      "Go": 2928,
      "taking": 2929,
      "ky": 2930,
      "temperature": 2931,
      "neu": 2932,
      "Analy": 2933,
      "itchen": 2934,
      "27": 2935,
      "select": 2936,
      "izin": 2937,
      "prechen": 2938,
      "drop": 2939,
      "Zu": 2940,
      "content": 2941,
      "Power": 2942,
      "deli": 2943,
      "meth": 2944,
      "myself": 2945,
      "tas": 2946,
      "mobile": 2947,
      "sheet": 2948,
      "Per": 2949,
      "iling": 2950,
      "ien": 2951,
      "sl": 2952,
      "resolving": 2953,
      "style": 2954,
      "Sm": 2955,
      "Other": 2956,
      "source": 2957,
      "window": 2958,
      "tect": 2959,
      "oose": 2960,
      "ked": 2961,
      "shower": 2962,
      "Vielen": 2963,
      "super": 2964,
      "driver": 2965,
      "23": 2966,
      "ischen": 2967,
      "Um": 2968,
      "bulbs": 2969,
      "unch": 2970,
      "frequ": 2971,
      "cameras": 2972,
      "growth": 2973,
      "vs": 2974,
      "hospital": 2975,
      "against": 2976,
      "persists": 2977,
      "Air": 2978,
      "sind": 2979,
      "measurements": 2980,
      "various": 2981,
      "Google": 2982,
      "ome": 2983,
      "bottles": 2984,
      "facing": 2985,
      "correctly": 2986,
      "capac": 2987,
      "changed": 2988,
      "füg": 2989,
      "ät": 2990,
      "aus": 2991,
      "IM": 2992,
      "pocket": 2993,
      "Me": 2994,
      "sized": 2995,
      "resour": 2996,
      "factory": 2997,
      "zip": 2998,
      "Book": 2999,
      "solutely": 3000,
      "Op": 3001,
      "Ke": 3002,
      "cellent": 3003,
      "depending": 3004,
      "slot": 3005,
      "opin": 3006,
      "confirm": 3007,
      "shot": 3008,
      "gent": 3009,
      "bill": 3010,
      "restarting": 3011,
      "sil": 3012,
      "simple": 3013,
      "prac": 3014,
      "ilities": 3015,
      "Net": 3016,
      "Sicherheits": 3017,
      "grill": 3018,
      "following": 3019,
      "whether": 3020,
      "users": 3021,
      "resolution": 3022,
      "sleep": 3023,
      "Str": 3024,
      "doll": 3025,
      "assume": 3026,
      "tele": 3027,
      "Ro": 3028,
      "joy": 3029,
      "Apple": 3030,
      "Man": 3031,
      "asking": 3032,
      "ories": 3033,
      "antenna": 3034,
      "Kunden": 3035,
      "series": 3036,
      "stellen": 3037,
      "cabine": 3038,
      "stainless": 3039,
      "spl": 3040,
      "medizin": 3041,
      "gift": 3042,
      "Dig": 3043,
      "location": 3044,
      "shor": 3045,
      "easier": 3046,
      "active": 3047,
      "loose": 3048,
      "covers": 3049,
      "condition": 3050,
      "Black": 3051,
      "tip": 3052,
      "anal": 3053,
      "supposed": 3054,
      "Es": 3055,
      "mind": 3056,
      "prü": 3057,
      "sand": 3058,
      "rele": 3059,
      "heit": 3060,
      "wenn": 3061,
      "tch": 3062,
      "investigate": 3063,
      "label": 3064,
      "umin": 3065,
      "health": 3066,
      "ieren": 3067,
      "vor": 3068,
      "Galaxy": 3069,
      "stat": 3070,
      "crash": 3071,
      "aming": 3072,
      "Kön": 3073,
      "espe": 3074,
      "reset": 3075,
      "wires": 3076,
      "fing": 3077,
      "stru": 3078,
      "ons": 3079,
      "65": 3080,
      "author": 3081,
      "resolved": 3082,
      "33": 3083,
      "truck": 3084,
      "Despite": 3085,
      "mas": 3086,
      "turned": 3087,
      "ister": 3088,
      "aps": 3089,
      "bars": 3090,
      "wers": 3091,
      "Reg": 3092,
      "gest": 3093,
      "tualisier": 3094,
      "especially": 3095,
      "provided": 3096,
      "develo": 3097,
      "reaching": 3098,
      "although": 3099,
      "tention": 3100,
      "specs": 3101,
      "ran": 3102,
      "tivity": 3103,
      "putting": 3104,
      "ende": 3105,
      "Product": 3106,
      "vehicle": 3107,
      "kno": 3108,
      "advise": 3109,
      "guide": 3110,
      "avor": 3111,
      "ires": 3112,
      "market": 3113,
      "oh": 3114,
      "filters": 3115,
      "section": 3116,
      "loud": 3117,
      "oven": 3118,
      "container": 3119,
      "AR": 3120,
      "China": 3121,
      "accurate": 3122,
      "Er": 3123,
      "messages": 3124,
      "unsere": 3125,
      "simp": 3126,
      "previous": 3127,
      "wet": 3128,
      "choose": 3129,
      "gall": 3130,
      "ris": 3131,
      "tige": 3132,
      "updated": 3133,
      "Min": 3134,
      "protection": 3135,
      "aged": 3136,
      "From": 3137,
      "avi": 3138,
      "Bu": 3139,
      "business": 3140,
      "cing": 3141,
      "pas": 3142,
      "disc": 3143,
      "400": 3144,
      "trouble": 3145,
      "hren": 3146,
      "pop": 3147,
      "state": 3148,
      "local": 3149,
      "counter": 3150,
      "150": 3151,
      "ders": 3152,
      "ler": 3153,
      "recently": 3154,
      "existing": 3155,
      "ige": 3156,
      "bolt": 3157,
      "Mon": 3158,
      "solutions": 3159,
      "depth": 3160,
      "colle": 3161,
      "words": 3162,
      "cleaning": 3163,
      "ische": 3164,
      "returned": 3165,
      "restart": 3166,
      "ano": 3167,
      "atural": 3168,
      "photos": 3169,
      "Ange": 3170,
      "plugs": 3171,
      "separately": 3172,
      "antly": 3173,
      "past": 3174,
      "asing": 3175,
      "movi": 3176,
      "ätz": 3177,
      "ctivity": 3178,
      "effor": 3179,
      "excellent": 3180,
      "oom": 3181,
      "snug": 3182,
      "train": 3183,
      "uation": 3184,
      "offic": 3185,
      "Great": 3186,
      "uni": 3187,
      "48": 3188,
      "land": 3189,
      "fa": 3190,
      "sometimes": 3191,
      "spring": 3192,
      "submit": 3193,
      "hum": 3194,
      "wend": 3195,
      "shoe": 3196,
      "42": 3197,
      "capacity": 3198,
      "bon": 3199,
      "wäre": 3200,
      "ellow": 3201,
      "Since": 3202,
      "lamp": 3203,
      "Most": 3204,
      "states": 3205,
      "Pre": 3206,
      "simply": 3207,
      "tober": 3208,
      "lost": 3209,
      "optimization": 3210,
      "specifically": 3211,
      "brown": 3212,
      "uum": 3213,
      "zz": 3214,
      "behe": 3215,
      "sensor": 3216,
      "square": 3217,
      "hat": 3218,
      "helfen": 3219,
      "AA": 3220,
      "rid": 3221,
      "Tr": 3222,
      "Marketing": 3223,
      "aim": 3224,
      "suggestion": 3225,
      "möch": 3226,
      "She": 3227,
      "distance": 3228,
      "fairly": 3229,
      "lish": 3230,
      "packaging": 3231,
      "lied": 3232,
      "highly": 3233,
      "fon": 3234,
      "acle": 3235,
      "ants": 3236,
      "besprechen": 3237,
      "zen": 3238,
      "halten": 3239,
      "arri": 3240,
      "Könnten": 3241,
      "holder": 3242,
      "unable": 3243,
      "lines": 3244,
      "MP": 3245,
      "advice": 3246,
      "ener": 3247,
      "amer": 3248,
      "Dep": 3249,
      "sheets": 3250,
      "rate": 3251,
      "hes": 3252,
      "ene": 3253,
      "durch": 3254,
      "rated": 3255,
      "knife": 3256,
      "redu": 3257,
      "slee": 3258,
      "Probleme": 3259,
      "held": 3260,
      "expir": 3261,
      "thinking": 3262,
      "Digital": 3263,
      "Problems": 3264,
      "IP": 3265,
      "Hz": 3266,
      "itar": 3267,
      "starter": 3268,
      "units": 3269,
      "smart": 3270,
      "detect": 3271,
      "gave": 3272,
      "drain": 3273,
      "shown": 3274,
      "decis": 3275,
      "experiencing": 3276,
      "Maybe": 3277,
      "shipped": 3278,
      "Pan": 3279,
      "loss": 3280,
      "contacting": 3281,
      "tee": 3282,
      "extreme": 3283,
      "bluetooth": 3284,
      "griff": 3285,
      "agen": 3286,
      "amin": 3287,
      "DS": 3288,
      "Too": 3289,
      "95": 3290,
      "cast": 3291,
      "legen": 3292,
      "fes": 3293,
      "hearing": 3294,
      "ighter": 3295,
      "applications": 3296,
      "ending": 3297,
      "Ste": 3298,
      "scope": 3299,
      "sounds": 3300,
      "pleased": 3301,
      "init": 3302,
      "auce": 3303,
      "covered": 3304,
      "Ger": 3305,
      "broke": 3306,
      "connections": 3307,
      "trim": 3308,
      "rope": 3309,
      "gy": 3310,
      "abilities": 3311,
      "cheaper": 3312,
      "yr": 3313,
      "flex": 3314,
      "Only": 3315,
      "enty": 3316,
      "anywhere": 3317,
      "opinion": 3318,
      "B00": 3319,
      "pu": 3320,
      "chain": 3321,
      "tre": 3322,
      "writing": 3323,
      "Should": 3324,
      "beste": 3325,
      "iphone": 3326,
      "tire": 3327,
      "aving": 3328,
      "extension": 3329,
      "Here": 3330,
      "allows": 3331,
      "signific": 3332,
      "hands": 3333,
      "frage": 3334,
      "34": 3335,
      "mor": 3336,
      "vember": 3337,
      "analysis": 3338,
      "swe": 3339,
      "lenses": 3340,
      "consu": 3341,
      "Die": 3342,
      "cups": 3343,
      "bra": 3344,
      "scratch": 3345,
      "bereit": 3346,
      "behind": 3347,
      "tin": 3348,
      "disk": 3349,
      "troubleshooting": 3350,
      "Once": 3351,
      "fut": 3352,
      "DC": 3353,
      "kitchen": 3354,
      "chron": 3355,
      "pc": 3356,
      "Fi": 3357,
      "told": 3358,
      "fish": 3359,
      "updating": 3360,
      "waist": 3361,
      "drivers": 3362,
      "dash": 3363,
      "dieses": 3364,
      "Inter": 3365,
      "600": 3366,
      "stretch": 3367,
      "mother": 3368,
      "insert": 3369,
      "gel": 3370,
      "tub": 3371,
      "lift": 3372,
      "till": 3373,
      "answers": 3374,
      "ists": 3375,
      "repair": 3376,
      "figure": 3377,
      "damage": 3378,
      "ert": 3379,
      "vacuum": 3380,
      "liqu": 3381,
      "example": 3382,
      "degrees": 3383,
      "iPod": 3384,
      "38": 3385,
      "bowl": 3386,
      "wasn": 3387,
      "sehr": 3388,
      "leather": 3389,
      "occur": 3390,
      "reco": 3391,
      "schrei": 3392,
      "placed": 3393,
      "ckets": 3394,
      "Works": 3395,
      "blades": 3396,
      "neck": 3397,
      "Well": 3398,
      "appear": 3399,
      "pillow": 3400,
      "attention": 3401,
      "Aus": 3402,
      "class": 3403,
      "senior": 3404,
      "Ihr": 3405,
      "keeps": 3406,
      "shape": 3407,
      "Did": 3408,
      "ods": 3409,
      "requires": 3410,
      "hub": 3411,
      "indivi": 3412,
      "gives": 3413,
      "measured": 3414,
      "hit": 3415,
      "diese": 3416,
      "lichen": 3417,
      "encry": 3418,
      "games": 3419,
      "controller": 3420,
      "cra": 3421,
      "newer": 3422,
      "Service": 3423,
      "cm": 3424,
      "focus": 3425,
      "affected": 3426,
      "resources": 3427,
      "straps": 3428,
      "Zugriff": 3429,
      "delay": 3430,
      "cabinet": 3431,
      "consist": 3432,
      "yn": 3433,
      "rome": 3434,
      "purpose": 3435,
      "buttons": 3436,
      "vable": 3437,
      "important": 3438,
      "yellow": 3439,
      "vert": 3440,
      "mentioned": 3441,
      "october": 3442,
      "later": 3443,
      "chl": 3444,
      "ceiling": 3445,
      "automatically": 3446,
      "expiration": 3447,
      "DO": 3448,
      "dogs": 3449,
      "save": 3450,
      "media": 3451,
      "Car": 3452,
      "volt": 3453,
      "reading": 3454,
      "headset": 3455,
      "authorized": 3456,
      "admin": 3457,
      "bie": 3458,
      "watts": 3459,
      "240": 3460,
      "führ": 3461,
      "asonic": 3462,
      "Anfrage": 3463,
      "overall": 3464,
      "izing": 3465,
      "MA": 3466,
      "gin": 3467,
      "LO": 3468,
      "rors": 3469,
      "interest": 3470,
      "approxim": 3471,
      "irt": 3472,
      "eye": 3473,
      "istr": 3474,
      "closed": 3475,
      "ply": 3476,
      "immedi": 3477,
      "cases": 3478,
      "zü": 3479,
      "spo": 3480,
      "tent": 3481,
      "gn": 3482,
      "atever": 3483,
      "wife": 3484,
      "sight": 3485,
      "daily": 3486,
      "corn": 3487,
      "Out": 3488,
      "erforder": 3489,
      "schreibe": 3490,
      "according": 3491,
      "beit": 3492,
      "legenheit": 3493,
      "nah": 3494,
      "ele": 3495,
      "runs": 3496,
      "bracket": 3497,
      "hour": 3498,
      "rich": 3499,
      "client": 3500,
      "arrow": 3501,
      "29": 3502,
      "pow": 3503,
      "Note": 3504,
      "controls": 3505,
      "bath": 3506,
      "ints": 3507,
      "ück": 3508,
      "teil": 3509,
      "Hon": 3510,
      "careful": 3511,
      "holster": 3512,
      "Unfortunately": 3513,
      "250": 3514,
      "Fr": 3515,
      "limited": 3516,
      "ko": 3517,
      "Tech": 3518,
      "fu": 3519,
      "travel": 3520,
      "iry": 3521,
      "iger": 3522,
      "patient": 3523,
      "wards": 3524,
      "natural": 3525,
      "ml": 3526,
      "november": 3527,
      "cture": 3528,
      "yo": 3529,
      "winter": 3530,
      "züglich": 3531,
      "ord": 3532,
      "mi": 3533,
      "wait": 3534,
      "twi": 3535,
      "anced": 3536,
      "numbers": 3537,
      "Angelegenheit": 3538,
      "helped": 3539,
      "oid": 3540,
      "Proje": 3541,
      "future": 3542,
      "Ma": 3543,
      "recharge": 3544,
      "bring": 3545,
      "oder": 3546,
      "API": 3547,
      "glasses": 3548,
      "cember": 3549,
      "weather": 3550,
      "adding": 3551,
      "leaver": 3552,
      "suspect": 3553,
      "dust": 3554,
      "verify": 3555,
      "kindly": 3556,
      "honest": 3557,
      "uge": 3558,
      "1000": 3559,
      "ian": 3560,
      "protector": 3561,
      "pads": 3562,
      "leist": 3563,
      "schne": 3564,
      "requirements": 3565,
      "plenty": 3566,
      "apo": 3567,
      "ba": 3568,
      "internal": 3569,
      "durable": 3570,
      "uty": 3571,
      "includes": 3572,
      "benötigen": 3573,
      "stove": 3574,
      "Try": 3575,
      "except": 3576,
      "dou": 3577,
      "wired": 3578,
      "copy": 3579,
      "station": 3580,
      "grip": 3581,
      "ST": 3582,
      "concerned": 3583,
      "password": 3584,
      "nail": 3585,
      "effect": 3586,
      "dv": 3587,
      "stere": 3588,
      "Now": 3589,
      "mains": 3590,
      "esome": 3591,
      "aber": 3592,
      "commun": 3593,
      "Ben": 3594,
      "broken": 3595,
      "chart": 3596,
      "choice": 3597,
      "complain": 3598,
      "hd": 3599,
      "auti": 3600,
      "cols": 3601,
      "release": 3602,
      "abs": 3603,
      "country": 3604,
      "billing": 3605,
      "caused": 3606,
      "cycle": 3607,
      "fession": 3608,
      "VE": 3609,
      "sten": 3610,
      "arms": 3611,
      "igen": 3612,
      "stream": 3613,
      "tigt": 3614,
      "types": 3615,
      "aware": 3616,
      "keys": 3617,
      "drink": 3618,
      "fitting": 3619,
      "listen": 3620,
      "stereo": 3621,
      "bezüglich": 3622,
      "enjoy": 3623,
      "88": 3624,
      "cartridge": 3625,
      "liance": 3626,
      "wür": 3627,
      "heard": 3628,
      "uminum": 3629,
      "maximum": 3630,
      "imag": 3631,
      "2012": 3632,
      "mel": 3633,
      "integrating": 3634,
      "installing": 3635,
      "learn": 3636,
      "ipment": 3637,
      "attform": 3638,
      "Batter": 3639,
      "Microsoft": 3640,
      "prior": 3641,
      "modif": 3642,
      "whatever": 3643,
      "rating": 3644,
      "rice": 3645,
      "period": 3646,
      "tet": 3647,
      "haps": 3648,
      "directions": 3649,
      "holding": 3650,
      "encryption": 3651,
      "extended": 3652,
      "RO": 3653,
      "satis": 3654,
      "heater": 3655,
      "conds": 3656,
      "Ein": 3657,
      "analyse": 3658,
      "ences": 3659,
      "meter": 3660,
      "playing": 3661,
      "sible": 3662,
      "cross": 3663,
      "increase": 3664,
      "flu": 3665,
      "pers": 3666,
      "engagement": 3667,
      "ared": 3668,
      "voice": 3669,
      "measurement": 3670,
      "nicht": 3671,
      "bare": 3672,
      "bled": 3673,
      "appropri": 3674,
      "nd": 3675,
      "dishwasher": 3676,
      "lan": 3677,
      "porting": 3678,
      "remains": 3679,
      "disrup": 3680,
      "doubt": 3681,
      "Kon": 3682,
      "mirror": 3683,
      "seconds": 3684,
      "VER": 3685,
      "encountered": 3686,
      "Fire": 3687,
      "versal": 3688,
      "valve": 3689,
      "transmit": 3690,
      "Cont": 3691,
      "dock": 3692,
      "cale": 3693,
      "ga": 3694,
      "videos": 3695,
      "SM": 3696,
      "waterproof": 3697,
      "erhalten": 3698,
      "ierung": 3699,
      "pointed": 3700,
      "channel": 3701,
      "protocols": 3702,
      "fixed": 3703,
      "twice": 3704,
      "ceed": 3705,
      "connecting": 3706,
      "handles": 3707,
      "disap": 3708,
      "attachment": 3709,
      "beheben": 3710,
      "extremely": 3711,
      "event": 3712,
      "ica": 3713,
      "outh": 3714,
      "cloth": 3715,
      "milk": 3716,
      "öger": 3717,
      "bene": 3718,
      "ED": 3719,
      "unserer": 3720,
      "zöger": 3721,
      "boxes": 3722,
      "latest": 3723,
      "headphone": 3724,
      "ßnah": 3725,
      "guys": 3726,
      "EN": 3727,
      "lose": 3728,
      "uary": 3729,
      "cul": 3730,
      "removable": 3731,
      "cutting": 3732,
      "advert": 3733,
      "fol": 3734,
      "research": 3735,
      "assembly": 3736,
      "boards": 3737,
      "Requ": 3738,
      "fro": 3739,
      "wifi": 3740,
      "lean": 3741,
      "van": 3742,
      "equipment": 3743,
      "46": 3744,
      "Even": 3745,
      "stri": 3746,
      "ör": 3747,
      "ational": 3748,
      "administr": 3749,
      "ith": 3750,
      "ackets": 3751,
      "Home": 3752,
      "cot": 3753,
      "subs": 3754,
      "cush": 3755,
      "CR": 3756,
      "ral": 3757,
      "tally": 3758,
      "campaigns": 3759,
      "ache": 3760,
      "crack": 3761,
      "reci": 3762,
      "iden": 3763,
      "pipe": 3764,
      "recording": 3765,
      "impact": 3766,
      "fauce": 3767,
      "beein": 3768,
      "appreciated": 3769,
      "late": 3770,
      "ficient": 3771,
      "stopped": 3772,
      "ßnahmen": 3773,
      "snow": 3774,
      "appropriate": 3775,
      "listing": 3776,
      "reports": 3777,
      "aves": 3778,
      "mg": 3779,
      "Das": 3780,
      "stroller": 3781,
      "carrier": 3782,
      "37": 3783,
      "träch": 3784,
      "lored": 3785,
      "Red": 3786,
      "awesome": 3787,
      "earli": 3788,
      "imagine": 3789,
      "liquid": 3790,
      "bum": 3791,
      "kne": 3792,
      "cream": 3793,
      "LG": 3794,
      "absolutely": 3795,
      "situation": 3796,
      "analyst": 3797,
      "attempted": 3798,
      "Android": 3799,
      "EM": 3800,
      "Make": 3801,
      "throw": 3802,
      "electron": 3803,
      "met": 3804,
      "accom": 3805,
      "compared": 3806,
      "unexpected": 3807,
      "powered": 3808,
      "Lo": 3809,
      "Chr": 3810,
      "cache": 3811,
      "thru": 3812,
      "sr": 3813,
      "count": 3814,
      "gallon": 3815,
      "Optim": 3816,
      "supports": 3817,
      "personal": 3818,
      "According": 3819,
      "efforts": 3820,
      "cooking": 3821,
      "Ak": 3822,
      "eting": 3823,
      "trail": 3824,
      "lip": 3825,
      "powder": 3826,
      "purchasing": 3827,
      "timer": 3828,
      "shelves": 3829,
      "tripod": 3830,
      "Tools": 3831,
      "lif": 3832,
      "approximately": 3833,
      "graph": 3834,
      "App": 3835,
      "soap": 3836,
      "compon": 3837,
      "lighter": 3838,
      "tea": 3839,
      "CP": 3840,
      "gb": 3841,
      "OK": 3842,
      "beauti": 3843,
      "silver": 3844,
      "beeinträch": 3845,
      "gt": 3846,
      "scale": 3847,
      "basket": 3848,
      "format": 3849,
      "44": 3850,
      "spot": 3851,
      "bass": 3852,
      "drives": 3853,
      "seam": 3854,
      "converter": 3855,
      "var": 3856,
      "morning": 3857,
      "Model": 3858,
      "pole": 3859,
      "ane": 3860,
      "gear": 3861,
      "apped": 3862,
      "umb": 3863,
      "Invest": 3864,
      "lass": 3865,
      "85": 3866,
      "asked": 3867,
      "sitting": 3868,
      "keiten": 3869,
      "otherwise": 3870,
      "sort": 3871,
      "furn": 3872,
      "rec": 3873,
      "dates": 3874,
      "deck": 3875,
      "gate": 3876,
      "gau": 3877,
      "Both": 3878,
      "december": 3879,
      "kom": 3880,
      "yourself": 3881,
      "bor": 3882,
      "dp": 3883,
      "microw": 3884,
      "nicely": 3885,
      "lä": 3886,
      "fessional": 3887,
      "ounts": 3888,
      "Server": 3889,
      "logs": 3890,
      "kill": 3891,
      "basic": 3892,
      "stuck": 3893,
      "given": 3894,
      "watt": 3895,
      "status": 3896,
      "suggestions": 3897,
      "uring": 3898,
      "sole": 3899,
      "present": 3900,
      "moist": 3901,
      "grade": 3902,
      "melden": 3903,
      "pockets": 3904,
      "RAM": 3905,
      "Plattform": 3906,
      "road": 3907,
      "aluminum": 3908,
      "sucht": 3909,
      "700": 3910,
      "Br": 3911,
      "thickness": 3912,
      "faster": 3913,
      "irus": 3914,
      "HT": 3915,
      "nis": 3916,
      "uten": 3917,
      "2000": 3918,
      "errors": 3919,
      "rod": 3920,
      "heating": 3921,
      "moving": 3922,
      "ipad": 3923,
      "Projekt": 3924,
      "Lar": 3925,
      "viron": 3926,
      "dryer": 3927,
      "slip": 3928,
      "ipod": 3929,
      "reng": 3930,
      "wn": 3931,
      "mechan": 3932,
      "compar": 3933,
      "rical": 3934,
      "continue": 3935,
      "pric": 3936,
      "acts": 3937,
      "See": 3938,
      "vin": 3939,
      "seats": 3940,
      "fresh": 3941,
      "tex": 3942,
      "Off": 3943,
      "suchen": 3944,
      "Panasonic": 3945,
      "recommendations": 3946,
      "meant": 3947,
      "RA": 3948,
      "bolts": 3949,
      "cd": 3950,
      "refill": 3951,
      "anymore": 3952,
      "tighten": 3953,
      "magne": 3954,
      "manager": 3955,
      "avoid": 3956,
      "tops": 3957,
      "tires": 3958,
      "filled": 3959,
      "lö": 3960,
      "write": 3961,
      "versions": 3962,
      "rust": 3963,
      "3D": 3964,
      "practic": 3965,
      "galaxy": 3966,
      "compart": 3967,
      "stric": 3968,
      "cel": 3969,
      "CO": 3970,
      "learning": 3971,
      "ßen": 3972,
      "EX": 3973,
      "wird": 3974,
      "dir": 3975,
      "taste": 3976,
      "motion": 3977,
      "opened": 3978,
      "mold": 3979,
      "trig": 3980,
      "Smart": 3981,
      "bind": 3982,
      "mally": 3983,
      "unlocked": 3984,
      "Plus": 3985,
      "Dell": 3986,
      "communic": 3987,
      "causing": 3988,
      "77": 3989,
      "intended": 3990,
      "ches": 3991,
      "spare": 3992,
      "ried": 3993,
      "faucet": 3994,
      "shoes": 3995,
      "personally": 3996,
      "tit": 3997,
      "gien": 3998,
      "tips": 3999,
      "importance": 4000,
      "anyway": 4001,
      "istmas": 4002,
      "Issu": 4003,
      "firewall": 4004,
      "seed": 4005,
      "books": 4006,
      "garage": 4007,
      "assembled": 4008,
      "Use": 4009,
      "corder": 4010,
      "owner": 4011,
      "office": 4012,
      "blan": 4013,
      "unauthorized": 4014,
      "streng": 4015,
      "sein": 4016,
      "Fl": 4017,
      "accept": 4018,
      "paid": 4019,
      "weiterhin": 4020,
      "environ": 4021,
      "charges": 4022,
      "documentation": 4023,
      "stays": 4024,
      "invol": 4025,
      "backup": 4026,
      "guitar": 4027,
      "baren": 4028,
      "calls": 4029,
      "officer": 4030,
      "tore": 4031,
      "corner": 4032,
      "Vor": 4033,
      "cant": 4034,
      "carpet": 4035,
      "conflu": 4036,
      "neh": 4037,
      "confluence": 4038,
      "MS": 4039,
      "mark": 4040,
      "crit": 4041,
      "split": 4042,
      "finan": 4043,
      "ties": 4044,
      "Amer": 4045,
      "checking": 4046,
      "possibly": 4047,
      "GA": 4048,
      "incident": 4049,
      "Cal": 4050,
      "cart": 4051,
      "suf": 4052,
      "ride": 4053,
      "abase": 4054,
      "erforderlich": 4055,
      "roof": 4056,
      "poor": 4057,
      "zoom": 4058,
      "Spec": 4059,
      "Ur": 4060,
      "cartridges": 4061,
      "technical": 4062,
      "Battery": 4063,
      "outdoor": 4064,
      "ples": 4065,
      "neath": 4066,
      "chairs": 4067,
      "clips": 4068,
      "apple": 4069,
      "understanding": 4070,
      "flic": 4071,
      "guard": 4072,
      "wing": 4073,
      "ny": 4074,
      "determine": 4075,
      "urg": 4076,
      "Eu": 4077,
      "ledge": 4078,
      "Light": 4079,
      "microphone": 4080,
      "average": 4081,
      "High": 4082,
      "identify": 4083,
      "va": 4084,
      "stack": 4085,
      "socket": 4086,
      "Fir": 4087,
      "six": 4088,
      "2011": 4089,
      "waste": 4090,
      "yours": 4091,
      "missing": 4092,
      "barrel": 4093,
      "Although": 4094,
      "ense": 4095,
      "underneath": 4096,
      "march": 4097,
      "Play": 4098,
      "electrical": 4099,
      "bruary": 4100,
      "alarm": 4101,
      "maker": 4102,
      "regul": 4103,
      "Investition": 4104,
      "desktop": 4105,
      "tili": 4106,
      "freue": 4107,
      "ni": 4108,
      "900": 4109,
      "na": 4110,
      "ond": 4111,
      "rif": 4112,
      "wiring": 4113,
      "wurde": 4114,
      "gauge": 4115,
      "snap": 4116,
      "html": 4117,
      "izer": 4118,
      "field": 4119,
      "summer": 4120,
      "ray": 4121,
      "vant": 4122,
      "infr": 4123,
      "ox": 4124,
      "31": 4125,
      "pages": 4126,
      "microwave": 4127,
      "CH": 4128,
      "anken": 4129,
      "descri": 4130,
      "value": 4131,
      "finger": 4132,
      "movies": 4133,
      "sharp": 4134,
      "lad": 4135,
      "accessories": 4136,
      "GPS": 4137,
      "patch": 4138,
      "än": 4139,
      "plant": 4140,
      "tiny": 4141,
      "experienced": 4142,
      "schnell": 4143,
      "astru": 4144,
      "5mm": 4145,
      "deliver": 4146,
      "EL": 4147,
      "Su": 4148,
      "neg": 4149,
      "encountering": 4150,
      "chi": 4151,
      "utzer": 4152,
      "aking": 4153,
      "turns": 4154,
      "Stand": 4155,
      "conflic": 4156,
      "New": 4157,
      "talk": 4158,
      "everyone": 4159,
      "silic": 4160,
      "teilen": 4161,
      "ategien": 4162,
      "Looking": 4163,
      "onder": 4164,
      "const": 4165,
      "collar": 4166,
      "harness": 4167,
      "ican": 4168,
      "third": 4169,
      "spez": 4170,
      "recall": 4171,
      "stable": 4172,
      "strip": 4173,
      "channels": 4174,
      "bri": 4175,
      "heavi": 4176,
      "ritte": 4177,
      "ference": 4178,
      "Wal": 4179,
      "kept": 4180,
      "dieser": 4181,
      "98": 4182,
      "universal": 4183,
      "Ber": 4184,
      "Gar": 4185,
      "66": 4186,
      "fant": 4187,
      "mostly": 4188,
      "ides": 4189,
      "BT": 4190,
      "weise": 4191,
      "discre": 4192,
      "hooked": 4193,
      "recogn": 4194,
      "RCA": 4195,
      "Am": 4196,
      "kann": 4197,
      "zus": 4198,
      "nolog": 4199,
      "grou": 4200,
      "owned": 4201,
      "modate": 4202,
      "HO": 4203,
      "ilfe": 4204,
      "omen": 4205,
      "loop": 4206,
      "fly": 4207,
      "boat": 4208,
      "Ass": 4209,
      "Dri": 4210,
      "informed": 4211,
      "inting": 4212,
      "Res": 4213,
      "comments": 4214,
      "tly": 4215,
      "blow": 4216,
      "generation": 4217,
      "quie": 4218,
      "failed": 4219,
      "glue": 4220,
      "sits": 4221,
      "alone": 4222,
      "talking": 4223,
      "Pri": 4224,
      "hous": 4225,
      "itors": 4226,
      "foli": 4227,
      "affecting": 4228,
      "safety": 4229,
      "relevant": 4230,
      "song": 4231,
      "empty": 4232,
      "Her": 4233,
      "falls": 4234,
      "Of": 4235,
      "chem": 4236,
      "toy": 4237,
      "cats": 4238,
      "führen": 4239,
      "clock": 4240,
      "wrap": 4241,
      "essenti": 4242,
      "party": 4243,
      "Analytics": 4244,
      "portable": 4245,
      "combin": 4246,
      "walk": 4247,
      "usage": 4248,
      "target": 4249,
      "versucht": 4250,
      "Tele": 4251,
      "Char": 4252,
      "meeting": 4253,
      "hinder": 4254,
      "plates": 4255,
      "zed": 4256,
      "Over": 4257,
      "Need": 4258,
      "images": 4259,
      "shirt": 4260,
      "Gu": 4261,
      "force": 4262,
      "areas": 4263,
      "Dien": 4264,
      "Verzöger": 4265,
      "volts": 4266,
      "tribut": 4267,
      "approved": 4268,
      "audi": 4269,
      "ringend": 4270,
      "dead": 4271,
      "text": 4272,
      "möchte": 4273,
      "vision": 4274,
      "saying": 4275,
      "pants": 4276,
      "disappointed": 4277,
      "root": 4278,
      "cali": 4279,
      "apps": 4280,
      "operating": 4281,
      "aran": 4282,
      "poly": 4283,
      "About": 4284,
      "trick": 4285,
      "lete": 4286,
      "Like": 4287,
      "vit": 4288,
      "Security": 4289,
      "By": 4290,
      "methods": 4291,
      "rd": 4292,
      "wurden": 4293,
      "loo": 4294,
      "logi": 4295,
      "THE": 4296,
      "located": 4297,
      "inquiry": 4298,
      "resist": 4299,
      "350": 4300,
      "dit": 4301,
      "rings": 4302,
      "Mini": 4303,
      "loaded": 4304,
      "mailbox": 4305,
      "iliar": 4306,
      "urt": 4307,
      "optimize": 4308,
      "suppose": 4309,
      "register": 4310,
      "metr": 4311,
      "assigned": 4312,
      "utz": 4313,
      "platforms": 4314,
      "tested": 4315,
      "duty": 4316,
      "DR": 4317,
      "39": 4318,
      "edges": 4319,
      "logize": 4320,
      "iner": 4321,
      "claim": 4322,
      "MacBook": 4323,
      "iss": 4324,
      "shade": 4325,
      "washing": 4326,
      "ischer": 4327,
      "Investment": 4328,
      "adapters": 4329,
      "pd": 4330,
      "attern": 4331,
      "trie": 4332,
      "testing": 4333,
      "adaptor": 4334,
      "former": 4335,
      "sealed": 4336,
      "meldung": 4337,
      "Christmas": 4338,
      "ender": 4339,
      "47": 4340,
      "TS": 4341,
      "shoot": 4342,
      "children": 4343,
      "upgrad": 4344,
      "connectors": 4345,
      "folded": 4346,
      "apologize": 4347,
      "confidenti": 4348,
      "asp": 4349,
      "normally": 4350,
      "rench": 4351,
      "string": 4352,
      "Every": 4353,
      "boot": 4354,
      "yota": 4355,
      "MO": 4356,
      "scal": 4357,
      "lla": 4358,
      "arrange": 4359,
      "wider": 4360,
      "Scre": 4361,
      "dia": 4362,
      "Verfüg": 4363,
      "TO": 4364,
      "upper": 4365,
      "stated": 4366,
      "Ti": 4367,
      "Schritte": 4368,
      "ably": 4369,
      "sul": 4370,
      "steam": 4371,
      "shield": 4372,
      "brands": 4373,
      "serious": 4374,
      "gestell": 4375,
      "task": 4376,
      "basically": 4377,
      "AL": 4378,
      "records": 4379,
      "ears": 4380,
      "360": 4381,
      "Hilfe": 4382,
      "gir": 4383,
      "vy": 4384,
      "considering": 4385,
      "2010": 4386,
      "Pr": 4387,
      "family": 4388,
      "capabilities": 4389,
      "melde": 4390,
      "LCD": 4391,
      "seeing": 4392,
      "gloves": 4393,
      "shouldn": 4394,
      "clamp": 4395,
      "tempor": 4396,
      "führt": 4397,
      "amazing": 4398,
      "remain": 4399,
      "rever": 4400,
      "stores": 4401,
      "february": 4402,
      "pattern": 4403,
      "Datenanalyse": 4404,
      "payment": 4405,
      "curing": 4406,
      "würde": 4407,
      "Ha": 4408,
      "worry": 4409,
      "certi": 4410,
      "bung": 4411,
      "spac": 4412,
      "practices": 4413,
      "Hard": 4414,
      "fest": 4415,
      "lets": 4416,
      "Buy": 4417,
      "rock": 4418,
      "ampag": 4419,
      "sugar": 4420,
      "erk": 4421,
      "labe": 4422,
      "deci": 4423,
      "cep": 4424,
      "ität": 4425,
      "boost": 4426,
      "familiar": 4427,
      "verein": 4428,
      "compress": 4429,
      "certainly": 4430,
      "altern": 4431,
      "firmware": 4432,
      "Nor": 4433,
      "ities": 4434,
      "ified": 4435,
      "serving": 4436,
      "abor": 4437,
      "individual": 4438,
      "samsung": 4439,
      "pink": 4440,
      "cars": 4441,
      "cooler": 4442,
      "SQ": 4443,
      "AND": 4444,
      "eder": 4445,
      "chip": 4446,
      "minim": 4447,
      "financial": 4448,
      "chance": 4449,
      "result": 4450,
      "cru": 4451,
      "comment": 4452,
      "Par": 4453,
      "ances": 4454,
      "az": 4455,
      "folder": 4456,
      "humid": 4457,
      "Europe": 4458,
      "hood": 4459,
      "flip": 4460,
      "sizing": 4461,
      "ited": 4462,
      "clearing": 4463,
      "begin": 4464,
      "stell": 4465,
      "beeinträchtigt": 4466,
      "trigger": 4467,
      "explain": 4468,
      "amic": 4469,
      "insight": 4470,
      "ruf": 4471,
      "gone": 4472,
      "ale": 4473,
      "permis": 4474,
      "google": 4475,
      "advance": 4476,
      "environment": 4477,
      "Fall": 4478,
      "Mit": 4479,
      "refr": 4480,
      "direction": 4481,
      "El": 4482,
      "thicker": 4483,
      "gain": 4484,
      "toile": 4485,
      "adjustment": 4486,
      "happened": 4487,
      "untersuchen": 4488,
      "washed": 4489,
      "operate": 4490,
      "oracle": 4491,
      "changing": 4492,
      "raz": 4493,
      "weighs": 4494,
      "inde": 4495,
      "unfortunately": 4496,
      "salt": 4497,
      "MC": 4498,
      "bieten": 4499,
      "Set": 4500,
      "immediately": 4501,
      "unresolved": 4502,
      "Probably": 4503,
      "erheb": 4504,
      "healthcare": 4505,
      "eren": 4506,
      "tak": 4507,
      "five": 4508,
      "Size": 4509,
      "ado": 4510,
      "bear": 4511,
      "reli": 4512,
      "organic": 4513,
      "lever": 4514,
      "letz": 4515,
      "krit": 4516,
      "fault": 4517,
      "ctor": 4518,
      "hooks": 4519,
      "Produ": 4520,
      "interior": 4521,
      "ato": 4522,
      "brackets": 4523,
      "Ul": 4524,
      "Vis": 4525,
      "bing": 4526,
      "clar": 4527,
      "female": 4528,
      "Large": 4529,
      "mill": 4530,
      "spezif": 4531,
      "slots": 4532,
      "cleaner": 4533,
      "utili": 4534,
      "administrator": 4535,
      "contract": 4536,
      "Max": 4537,
      "shorter": 4538,
      "dd": 4539,
      "ering": 4540,
      "2nd": 4541,
      "training": 4542,
      "Log": 4543,
      "F8": 4544,
      "selling": 4545,
      "costs": 4546,
      "97": 4547,
      "grind": 4548,
      "impacting": 4549,
      "While": 4550,
      "ordering": 4551,
      "repe": 4552,
      "zie": 4553,
      "wants": 4554,
      "Comp": 4555,
      "agency": 4556,
      "Aktualisier": 4557,
      "52": 4558,
      "totally": 4559,
      "advis": 4560,
      "strategy": 4561,
      "gro": 4562,
      "useful": 4563,
      "flexible": 4564,
      "manufactured": 4565,
      "gerne": 4566,
      "Verizon": 4567,
      "aktu": 4568,
      "delete": 4569,
      "IR": 4570,
      "critical": 4571,
      "ulner": 4572,
      "fä": 4573,
      "2015": 4574,
      "Eas": 4575,
      "walls": 4576,
      "attempts": 4577,
      "IF": 4578,
      "guaran": 4579,
      "drawer": 4580,
      "Honda": 4581,
      "maintain": 4582,
      "cotton": 4583,
      "gestellt": 4584,
      "none": 4585,
      "Assistance": 4586,
      "SP": 4587,
      "positive": 4588,
      "bir": 4589,
      "extend": 4590,
      "Fin": 4591,
      "1080": 4592,
      "thentic": 4593,
      "receiving": 4594,
      "favor": 4595,
      "ising": 4596,
      "rim": 4597,
      "tree": 4598,
      "continues": 4599,
      "tieren": 4600,
      "Mag": 4601,
      "Bed": 4602,
      "decent": 4603,
      "portion": 4604,
      "sticks": 4605,
      "taill": 4606,
      "thernet": 4607,
      "leit": 4608,
      "yste": 4609,
      "developer": 4610,
      "okay": 4611,
      "contains": 4612,
      "GE": 4613,
      "turning": 4614,
      "huge": 4615,
      "towel": 4616,
      "ierte": 4617,
      "fiber": 4618,
      "Bes": 4619,
      "egg": 4620,
      "processor": 4621,
      "motherboard": 4622,
      "pans": 4623,
      "cise": 4624,
      "wont": 4625,
      "Request": 4626,
      "Fo": 4627,
      "näch": 4628,
      "überprü": 4629,
      "wonderful": 4630,
      "atively": 4631,
      "UV": 4632,
      "bread": 4633,
      "iv": 4634,
      "license": 4635,
      "ford": 4636,
      "refund": 4637,
      "2007": 4638,
      "SQL": 4639,
      "Auf": 4640,
      "ube": 4641,
      "backpack": 4642,
      "ums": 4643,
      "keeping": 4644,
      "functions": 4645,
      "gor": 4646,
      "LR": 4647,
      "ives": 4648,
      "iture": 4649,
      "HI": 4650,
      "ahren": 4651,
      "professional": 4652,
      "Col": 4653,
      "Let": 4654,
      "ned": 4655,
      "gotten": 4656,
      "occas": 4657,
      "suppli": 4658,
      "dvd": 4659,
      "Sil": 4660,
      "üßen": 4661,
      "bereits": 4662,
      "tend": 4663,
      "menu": 4664,
      "ATA": 4665,
      "circu": 4666,
      "infrastru": 4667,
      "refriger": 4668,
      "rights": 4669,
      "Because": 4670,
      "connectivity": 4671,
      "freund": 4672,
      "Specific": 4673,
      "zipper": 4674,
      "Mail": 4675,
      "coat": 4676,
      "laser": 4677,
      "weak": 4678,
      "perman": 4679,
      "mary": 4680,
      "dank": 4681,
      "inse": 4682,
      "thes": 4683,
      "aten": 4684,
      "actions": 4685,
      "planning": 4686,
      "AV": 4687,
      "MB": 4688,
      "horizon": 4689,
      "Kr": 4690,
      "SE": 4691,
      "world": 4692,
      "grate": 4693,
      "decide": 4694,
      "gold": 4695,
      "hanging": 4696,
      "besteht": 4697,
      "discrepan": 4698,
      "Ges": 4699,
      "ancing": 4700,
      "sharpen": 4701,
      "adult": 4702,
      "modu": 4703,
      "2008": 4704,
      "nächsten": 4705,
      "shell": 4706,
      "Each": 4707,
      "adjusted": 4708,
      "win": 4709,
      "optimizing": 4710,
      "chemical": 4711,
      "hz": 4712,
      "dankbar": 4713,
      "SIM": 4714,
      "nte": 4715,
      "reference": 4716,
      "compartment": 4717,
      "fiz": 4718,
      "polish": 4719,
      "satisfied": 4720,
      "dashboard": 4721,
      "accommodate": 4722,
      "AW": 4723,
      "sleeve": 4724,
      "jar": 4725,
      "liner": 4726,
      "ounce": 4727,
      "verbesser": 4728,
      "Office": 4729,
      "uen": 4730,
      "floors": 4731,
      "Vers": 4732,
      "lösen": 4733,
      "pread": 4734,
      "wearing": 4735,
      "mounts": 4736,
      "anti": 4737,
      "expand": 4738,
      "sche": 4739,
      "adhes": 4740,
      "lighting": 4741,
      "social": 4742,
      "polic": 4743,
      "starts": 4744,
      "diag": 4745,
      "assemble": 4746,
      "trip": 4747,
      "treat": 4748,
      "blanket": 4749,
      "hing": 4750,
      "known": 4751,
      "wach": 4752,
      "chall": 4753,
      "processing": 4754,
      "authentic": 4755,
      "grass": 4756,
      "enable": 4757,
      "agree": 4758,
      "Hy": 4759,
      "usion": 4760,
      "fat": 4761,
      "jor": 4762,
      "core": 4763,
      "pressed": 4764,
      "Bar": 4765,
      "computers": 4766,
      "spend": 4767,
      "derzeit": 4768,
      "Kindly": 4769,
      "fehl": 4770,
      "infrastructure": 4771,
      "Kundenservice": 4772,
      "tung": 4773,
      "surpr": 4774,
      "tivirus": 4775,
      "wears": 4776,
      "strength": 4777,
      "significant": 4778,
      "Inst": 4779,
      "dimension": 4780,
      "zum": 4781,
      "detaill": 4782,
      "trailer": 4783,
      "vereinbaren": 4784,
      "manually": 4785,
      "yard": 4786,
      "ously": 4787,
      "dial": 4788,
      "inputs": 4789,
      "beautiful": 4790,
      "chest": 4791,
      "instruction": 4792,
      "Verzögerungen": 4793,
      "encies": 4794,
      "digitalen": 4795,
      "ula": 4796,
      "receip": 4797,
      "customers": 4798,
      "accounts": 4799,
      "grandson": 4800,
      "Luck": 4801,
      "android": 4802,
      "Num": 4803,
      "rig": 4804,
      "vulner": 4805,
      "ram": 4806,
      "Marken": 4807,
      "clu": 4808,
      "provides": 4809,
      "ounces": 4810,
      "nach": 4811,
      "pictured": 4812,
      "fru": 4813,
      "canon": 4814,
      "links": 4815,
      "quiet": 4816,
      "bay": 4817,
      "Ge": 4818,
      "vels": 4819,
      "aktualisier": 4820,
      "cushion": 4821,
      "Anruf": 4822,
      "bell": 4823,
      "sale": 4824,
      "synchron": 4825,
      "zy": 4826,
      "insights": 4827,
      "women": 4828,
      "ases": 4829,
      "ining": 4830,
      "assuming": 4831,
      "mA": 4832,
      "configurations": 4833,
      "feedback": 4834,
      "common": 4835,
      "compre": 4836,
      "Vide": 4837,
      "Verbesser": 4838,
      "cand": 4839,
      "securing": 4840,
      "programs": 4841,
      "knob": 4842,
      "transmitter": 4843,
      "IC": 4844,
      "Screen": 4845,
      "codes": 4846,
      "rible": 4847,
      "UTF8": 4848,
      "NE": 4849,
      "ison": 4850,
      "Benutzer": 4851,
      "1500": 4852,
      "cords": 4853,
      "vertical": 4854,
      "toilet": 4855,
      "socks": 4856,
      "cage": 4857,
      "monitors": 4858,
      "fication": 4859,
      "woof": 4860,
      "replacing": 4861,
      "degree": 4862,
      "season": 4863,
      "decisions": 4864,
      "Ter": 4865,
      "verste": 4866,
      "constru": 4867,
      "convert": 4868,
      "Sound": 4869,
      "become": 4870,
      "film": 4871,
      "els": 4872,
      "tur": 4873,
      "sense": 4874,
      "database": 4875,
      "capsu": 4876,
      "58": 4877,
      "figur": 4878,
      "anybody": 4879,
      "connects": 4880,
      "honestly": 4881,
      "XP": 4882,
      "Syn": 4883,
      "particularly": 4884,
      "Love": 4885,
      "erg": 4886,
      "bucket": 4887,
      "feels": 4888,
      "freuen": 4889,
      "general": 4890,
      "nology": 4891,
      "BM": 4892,
      "pour": 4893,
      "investigation": 4894,
      "emplo": 4895,
      "Dim": 4896,
      "ries": 4897,
      "interface": 4898,
      "moved": 4899,
      "rechargeable": 4900,
      "utor": 4901,
      "wax": 4902,
      "apan": 4903,
      "posite": 4904,
      "enclo": 4905,
      "Sp": 4906,
      "optical": 4907,
      "dist": 4908,
      "defective": 4909,
      "ktion": 4910,
      "pouch": 4911,
      "applied": 4912,
      "ux": 4913,
      "adhesive": 4914,
      "integrity": 4915,
      "perhaps": 4916,
      "housing": 4917,
      "resistant": 4918,
      "49": 4919,
      "decision": 4920,
      "narrow": 4921,
      "bench": 4922,
      "promptly": 4923,
      "Medical": 4924,
      "initial": 4925,
      "layer": 4926,
      "effectively": 4927,
      "eyes": 4928,
      "Camer": 4929,
      "projector": 4930,
      "reich": 4931,
      "happens": 4932,
      "standing": 4933,
      "spin": 4934,
      "showing": 4935,
      "72": 4936,
      "somewhere": 4937,
      "Quick": 4938,
      "ret": 4939,
      "proceed": 4940,
      "minimum": 4941,
      "lasted": 4942,
      "visible": 4943,
      "lug": 4944,
      "geehrtes": 4945,
      "bald": 4946,
      "stored": 4947,
      "First": 4948,
      "üs": 4949,
      "removing": 4950,
      "Class": 4951,
      "Kindle": 4952,
      "phys": 4953,
      "AB": 4954,
      "reduce": 4955,
      "orange": 4956,
      "lids": 4957,
      "ING": 4958,
      "mouth": 4959,
      "Über": 4960,
      "sque": 4961,
      "tile": 4962,
      "arden": 4963,
      "enden": 4964,
      "exper": 4965,
      "compact": 4966,
      "tilt": 4967,
      "erely": 4968,
      "une": 4969,
      "anger": 4970,
      "clothes": 4971,
      "Otherwise": 4972,
      "successful": 4973,
      "swing": 4974,
      "Cre": 4975,
      "knee": 4976,
      "Verfügung": 4977,
      "Vol": 4978,
      "integrations": 4979,
      "logg": 4980,
      "fle": 4981,
      "UN": 4982,
      "explo": 4983,
      "mixer": 4984,
      "delivery": 4985,
      "pdf": 4986,
      "Syste": 4987,
      "darauf": 4988,
      "flavor": 4989,
      "fahren": 4990,
      "Box": 4991,
      "jacket": 4992,
      "za": 4993,
      "Di": 4994,
      "answered": 4995,
      "waiting": 4996,
      "Click": 4997,
      "rum": 4998,
      "ying": 4999,
      "concerns": 5000,
      "Hel": 5001,
      "Cor": 5002,
      "respond": 5003,
      "sam": 5004,
      "initi": 5005,
      "wende": 5006,
      "stands": 5007,
      "plane": 5008,
      "broad": 5009,
      "queen": 5010,
      "solar": 5011,
      "automatic": 5012,
      "kommen": 5013,
      "leaves": 5014,
      "vents": 5015,
      "approval": 5016,
      "nuts": 5017,
      "Audio": 5018,
      "earliest": 5019,
      "eat": 5020,
      "genau": 5021,
      "Mobile": 5022,
      "hensive": 5023,
      "Garmin": 5024,
      "major": 5025,
      "shoulder": 5026,
      "invest": 5027,
      "offers": 5028,
      "nel": 5029,
      "tie": 5030,
      "glad": 5031,
      "kum": 5032,
      "denti": 5033,
      "instance": 5034,
      "finding": 5035,
      "reviewing": 5036,
      "Ihrer": 5037,
      "minute": 5038,
      "aid": 5039,
      "ern": 5040,
      "dealer": 5041,
      "VGA": 5042,
      "colored": 5043,
      "butter": 5044,
      "Ausfall": 5045,
      "worried": 5046,
      "96": 5047,
      "bereitstellen": 5048,
      "coating": 5049,
      "Diese": 5050,
      "conduct": 5051,
      "created": 5052,
      "anim": 5053,
      "cker": 5054,
      "graphics": 5055,
      "reviewed": 5056,
      "delays": 5057,
      "Project": 5058,
      "circuit": 5059,
      "erung": 5060,
      "risk": 5061,
      "detected": 5062,
      "sufficient": 5063,
      "Gen": 5064,
      "achie": 5065,
      "ables": 5066,
      "persist": 5067,
      "Anleit": 5068,
      "Conne": 5069,
      "SATA": 5070,
      "leading": 5071,
      "GT": 5072,
      "VERY": 5073,
      "occasion": 5074,
      "akes": 5075,
      "somewhat": 5076,
      "failure": 5077,
      "bend": 5078,
      "packs": 5079,
      "festgestellt": 5080,
      "prong": 5081,
      "einer": 5082,
      "strips": 5083,
      "rolled": 5084,
      "gray": 5085,
      "overload": 5086,
      "attachments": 5087,
      "kick": 5088,
      "moment": 5089,
      "spread": 5090,
      "pically": 5091,
      "LT": 5092,
      "2009": 5093,
      "tably": 5094,
      "sync": 5095,
      "comprehensive": 5096,
      "termin": 5097,
      "effici": 5098,
      "ALL": 5099,
      "auch": 5100,
      "aved": 5101,
      "Pack": 5102,
      "Por": 5103,
      "vend": 5104,
      "kontak": 5105,
      "places": 5106,
      "mesh": 5107,
      "vir": 5108,
      "shooting": 5109,
      "surround": 5110,
      "hö": 5111,
      "chrome": 5112,
      "Brow": 5113,
      "Dienst": 5114,
      "catch": 5115,
      "plants": 5116,
      "Regards": 5117,
      "advised": 5118,
      "caps": 5119,
      "shots": 5120,
      "Ph": 5121,
      "discussion": 5122,
      "activate": 5123,
      "cies": 5124,
      "velcro": 5125,
      "essential": 5126,
      "worn": 5127,
      "finished": 5128,
      "subscription": 5129,
      "OEM": 5130,
      "kin": 5131,
      "sd": 5132,
      "Adap": 5133,
      "Trans": 5134,
      "War": 5135,
      "reporting": 5136,
      "rails": 5137,
      "mart": 5138,
      "ws": 5139,
      "sowie": 5140,
      "alloc": 5141,
      "confused": 5142,
      "Ob": 5143,
      "points": 5144,
      "medizinischer": 5145,
      "specifications": 5146,
      "Clean": 5147,
      "tower": 5148,
      "slides": 5149,
      "equi": 5150,
      "vinyl": 5151,
      "S4": 5152,
      "ban": 5153,
      "digit": 5154,
      "sells": 5155,
      "FM": 5156,
      "acid": 5157,
      "urgent": 5158,
      "anch": 5159,
      "ylon": 5160,
      "frequency": 5161,
      "3G": 5162,
      "Act": 5163,
      "üssel": 5164,
      "quer": 5165,
      "duction": 5166,
      "blic": 5167,
      "bish": 5168,
      "adequ": 5169,
      "machines": 5170,
      "permissions": 5171,
      "freundlichen": 5172,
      "llen": 5173,
      "absor": 5174,
      "halb": 5175,
      "provider": 5176,
      "twin": 5177,
      "telefon": 5178,
      "heavier": 5179,
      "peel": 5180,
      "furniture": 5181,
      "silicone": 5182,
      "Video": 5183,
      "ulties": 5184,
      "arrived": 5185,
      "mig": 5186,
      "seeking": 5187,
      "boy": 5188,
      "Der": 5189,
      "Work": 5190,
      "crashes": 5191,
      "2006": 5192,
      "Gre": 5193,
      "youtube": 5194,
      "metrics": 5195,
      "Specifically": 5196,
      "ela": 5197,
      "bathroom": 5198,
      "helmet": 5199,
      "DE": 5200,
      "Pe": 5201,
      "ues": 5202,
      "heads": 5203,
      "panels": 5204,
      "communication": 5205,
      "fortige": 5206,
      "lists": 5207,
      "thre": 5208,
      "document": 5209,
      "bother": 5210,
      "monday": 5211,
      "LY": 5212,
      "troubleshoot": 5213,
      "x4": 5214,
      "mb": 5215,
      "Pi": 5216,
      "Cur": 5217,
      "zzle": 5218,
      "logo": 5219,
      "wrist": 5220,
      "Strateg": 5221,
      "Super": 5222,
      "odor": 5223,
      "decid": 5224,
      "woofer": 5225,
      "ism": 5226,
      "Wire": 5227,
      "beam": 5228,
      "zusätz": 5229,
      "zust": 5230,
      "Online": 5231,
      "balls": 5232,
      "giving": 5233,
      "ests": 5234,
      "meet": 5235,
      "difficulties": 5236,
      "Version": 5237,
      "allo": 5238,
      "supported": 5239,
      "transformer": 5240,
      "elle": 5241,
      "operation": 5242,
      "SS": 5243,
      "Updates": 5244,
      "nose": 5245,
      "magn": 5246,
      "contacted": 5247,
      "rout": 5248,
      "retail": 5249,
      "bud": 5250,
      "doesnt": 5251,
      "bitten": 5252,
      "reply": 5253,
      "estim": 5254,
      "besonder": 5255,
      "comfortably": 5256,
      "tester": 5257,
      "King": 5258,
      "nehmen": 5259,
      "Grüßen": 5260,
      "Easy": 5261,
      "productivity": 5262,
      "fixture": 5263,
      "upload": 5264,
      "rolling": 5265,
      "disruptions": 5266,
      "materials": 5267,
      "modem": 5268,
      "verbessern": 5269,
      "traf": 5270,
      "dropped": 5271,
      "stem": 5272,
      "handy": 5273,
      "Pati": 5274,
      "plor": 5275,
      "barely": 5276,
      "Kampag": 5277,
      "warning": 5278,
      "acy": 5279,
      "corners": 5280,
      "68": 5281,
      "inconvenience": 5282,
      "upon": 5283,
      "printed": 5284,
      "funktion": 5285,
      "rul": 5286,
      "intermit": 5287,
      "approach": 5288,
      "Japan": 5289,
      "faces": 5290,
      "Engl": 5291,
      "magnetic": 5292,
      "gliche": 5293,
      "Toyota": 5294,
      "carrying": 5295,
      "besondere": 5296,
      "powerful": 5297,
      "obvious": 5298,
      "cake": 5299,
      "Keep": 5300,
      "3rd": 5301,
      "gers": 5302,
      "accep": 5303,
      "raid": 5304,
      "hesit": 5305,
      "styl": 5306,
      "54": 5307,
      "01": 5308,
      "innerhalb": 5309,
      "750": 5310,
      "lassen": 5311,
      "Ko": 5312,
      "tially": 5313,
      "differences": 5314,
      "hdmi": 5315,
      "ibility": 5316,
      "exposed": 5317,
      "Telefon": 5318,
      "Never": 5319,
      "Update": 5320,
      "levels": 5321,
      "zone": 5322,
      "subst": 5323,
      "suction": 5324,
      "felt": 5325,
      "TB": 5326,
      "Cloud": 5327,
      "lifier": 5328,
      "inconsist": 5329,
      "Depends": 5330,
      "Maßnahmen": 5331,
      "tablets": 5332,
      "improvement": 5333,
      "pun": 5334,
      "loved": 5335,
      "vibr": 5336,
      "annual": 5337,
      "stone": 5338,
      "magnet": 5339,
      "CPU": 5340,
      "desired": 5341,
      "werk": 5342,
      "indicate": 5343,
      "nwir": 5344,
      "Inch": 5345,
      "Dimen": 5346,
      "einem": 5347,
      "Two": 5348,
      "varie": 5349,
      "Ado": 5350,
      "Medium": 5351,
      "Projektmanagement": 5352,
      "towards": 5353,
      "clients": 5354,
      "bits": 5355,
      "offered": 5356,
      "Blu": 5357,
      "Had": 5358,
      "vary": 5359,
      "restric": 5360,
      "tan": 5361,
      "visual": 5362,
      "PD": 5363,
      "Hand": 5364,
      "CT": 5365,
      "plans": 5366,
      "locks": 5367,
      "Low": 5368,
      "hoping": 5369,
      "Cable": 5370,
      "ey": 5371,
      "Cam": 5372,
      "significantly": 5373,
      "ites": 5374,
      "Free": 5375,
      "reinstall": 5376,
      "veget": 5377,
      "school": 5378,
      "fans": 5379,
      "pure": 5380,
      "ideas": 5381,
      "scanner": 5382,
      "grey": 5383,
      "default": 5384,
      "inquire": 5385,
      "gaming": 5386,
      "2005": 5387,
      "Chrome": 5388,
      "tho": 5389,
      "highest": 5390,
      "providing": 5391,
      "blu": 5392,
      "650": 5393,
      "Get": 5394,
      "flush": 5395,
      "conflicts": 5396,
      "bat": 5397,
      "Water": 5398,
      "bust": 5399,
      "lum": 5400,
      "title": 5401,
      "dic": 5402,
      "pins": 5403,
      "incerely": 5404,
      "Defin": 5405,
      "lasts": 5406,
      "occurred": 5407,
      "erson": 5408,
      "flix": 5409,
      "wooden": 5410,
      "drops": 5411,
      "geehrter": 5412,
      "ai": 5413,
      "leaving": 5414,
      "identical": 5415,
      "Port": 5416,
      "guarantee": 5417,
      "traffic": 5418,
      "Adobe": 5419,
      "Absolutely": 5420,
      "tag": 5421,
      "Patient": 5422,
      "Kranken": 5423,
      "browser": 5424,
      "cles": 5425,
      "geeig": 5426,
      "capability": 5427,
      "ki": 5428,
      "kid": 5429,
      "chick": 5430,
      "jump": 5431,
      "versch": 5432,
      "knives": 5433,
      "Access": 5434,
      "consult": 5435,
      "align": 5436,
      "sony": 5437,
      "produce": 5438,
      "rollers": 5439,
      "bur": 5440,
      "Bet": 5441,
      "Krankenha": 5442,
      "Stu": 5443,
      "master": 5444,
      "alk": 5445,
      "Was": 5446,
      "rug": 5447,
      "Disk": 5448,
      "SO": 5449,
      "ola": 5450,
      "mium": 5451,
      "Produk": 5452,
      "mats": 5453,
      "outs": 5454,
      "rifle": 5455,
      "meine": 5456,
      "quar": 5457,
      "folio": 5458,
      "hp": 5459,
      "burner": 5460,
      "grund": 5461,
      "Optimierung": 5462,
      "WH": 5463,
      "fas": 5464,
      "capable": 5465,
      "clearance": 5466,
      "shiba": 5467,
      "Sur": 5468,
      "adjustments": 5469,
      "nearly": 5470,
      "compliance": 5471,
      "1st": 5472,
      "guage": 5473,
      "crib": 5474,
      "calcul": 5475,
      "Har": 5476,
      "manage": 5477,
      "commer": 5478,
      "advertised": 5479,
      "gorith": 5480,
      "GSM": 5481,
      "Drive": 5482,
      "Bas": 5483,
      "trust": 5484,
      "vie": 5485,
      "4G": 5486,
      "DI": 5487,
      "PN": 5488,
      "berry": 5489,
      "Issue": 5490,
      "SSD": 5491,
      "cen": 5492,
      "raised": 5493,
      "könnte": 5494,
      "78": 5495,
      "Urs": 5496,
      "probleme": 5497,
      "acht": 5498,
      "plays": 5499,
      "everyday": 5500,
      "Fit": 5501,
      "ana": 5502,
      "guy": 5503,
      "guessing": 5504,
      "iert": 5505,
      "accident": 5506,
      "discrepancies": 5507,
      "ticket": 5508,
      "Touch": 5509,
      "requested": 5510,
      "itional": 5511,
      "währ": 5512,
      "igkeiten": 5513,
      "usable": 5514,
      "American": 5515,
      "ression": 5516,
      "möchten": 5517,
      "crete": 5518,
      "ley": 5519,
      "180": 5520,
      "Dash": 5521,
      "zusätzliche": 5522,
      "Rest": 5523,
      "beach": 5524,
      "sweet": 5525,
      "played": 5526,
      "mixed": 5527,
      "expert": 5528,
      "AD": 5529,
      "garden": 5530,
      "UR": 5531,
      "songs": 5532,
      "audience": 5533,
      "adequate": 5534,
      "diff": 5535,
      "shaped": 5536,
      "reported": 5537,
      "typical": 5538,
      "therefore": 5539,
      "movie": 5540,
      "chn": 5541,
      "stab": 5542,
      "negative": 5543,
      "confidentiality": 5544,
      "cry": 5545,
      "dirt": 5546,
      "zustellen": 5547,
      "shaft": 5548,
      "friends": 5549,
      "map": 5550,
      "beim": 5551,
      "BUT": 5552,
      "players": 5553,
      "operations": 5554,
      "jed": 5555,
      "Camera": 5556,
      "hung": 5557,
      "Dokum": 5558,
      "knowledge": 5559,
      "thermost": 5560,
      "finden": 5561,
      "closer": 5562,
      "dentials": 5563,
      "Je": 5564,
      "tically": 5565,
      "Rad": 5566,
      "cooker": 5567,
      "WI": 5568,
      "profile": 5569,
      "colleag": 5570,
      "components": 5571,
      "restarted": 5572,
      "detaillierte": 5573,
      "twist": 5574,
      "litter": 5575,
      "poses": 5576,
      "ark": 5577,
      "responding": 5578,
      "fung": 5579,
      "proced": 5580,
      "grad": 5581,
      "exer": 5582,
      "specify": 5583,
      "members": 5584,
      "ike": 5585,
      "sum": 5586,
      "damaged": 5587,
      "bumper": 5588,
      "amplifier": 5589,
      "thus": 5590,
      "buck": 5591,
      "ceramic": 5592,
      "ises": 5593,
      "bucks": 5594,
      "induction": 5595,
      "aux": 5596,
      "fuel": 5597,
      "paren": 5598,
      "41": 5599,
      "isto": 5600,
      "advan": 5601,
      "stair": 5602,
      "Link": 5603,
      "wattage": 5604,
      "ero": 5605,
      "indoor": 5606,
      "Berich": 5607,
      "squee": 5608,
      "favorite": 5609,
      "Lin": 5610,
      "geting": 5611,
      "dringend": 5612,
      "eli": 5613,
      "mug": 5614,
      "swivel": 5615,
      "Sometimes": 5616,
      "sleeping": 5617,
      "Management": 5618,
      "fitted": 5619,
      "youn": 5620,
      "zero": 5621,
      "moisture": 5622,
      "dium": 5623,
      "dent": 5624,
      "tice": 5625,
      "printing": 5626,
      "Vit": 5627,
      "Small": 5628,
      "Ju": 5629,
      "typically": 5630,
      "resh": 5631,
      "zuführen": 5632,
      "THIS": 5633,
      "tough": 5634,
      "reliable": 5635,
      "Tube": 5636,
      "grateful": 5637,
      "https": 5638,
      "pensive": 5639,
      "urch": 5640,
      "mower": 5641,
      "Internet": 5642,
      "BD": 5643,
      "UL": 5644,
      "drawers": 5645,
      "junk": 5646,
      "trad": 5647,
      "Head": 5648,
      "bun": 5649,
      "Bro": 5650,
      "todd": 5651,
      "PM": 5652,
      "aco": 5653,
      "insul": 5654,
      "term": 5655,
      "gluten": 5656,
      "concrete": 5657,
      "reverse": 5658,
      "ulty": 5659,
      "compan": 5660,
      "juice": 5661,
      "vet": 5662,
      "abled": 5663,
      "buds": 5664,
      "liter": 5665,
      "Datens": 5666,
      "electronics": 5667,
      "wan": 5668,
      "peak": 5669,
      "carbon": 5670,
      "dden": 5671,
      "formula": 5672,
      "Adapter": 5673,
      "Tom": 5674,
      "White": 5675,
      "attaches": 5676,
      "owners": 5677,
      "threads": 5678,
      "inex": 5679,
      "mpoo": 5680,
      "pedal": 5681,
      "gal": 5682,
      "measuring": 5683,
      "fingers": 5684,
      "HC": 5685,
      "apping": 5686,
      "ham": 5687,
      "raise": 5688,
      "Sim": 5689,
      "infl": 5690,
      "xx": 5691,
      "servers": 5692,
      "watching": 5693,
      "Still": 5694,
      "seemed": 5695,
      "loading": 5696,
      "gig": 5697,
      "gap": 5698,
      "acing": 5699,
      "console": 5700,
      "elastic": 5701,
      "dollars": 5702,
      "FL": 5703,
      "Gener": 5704,
      "kolle": 5705,
      "challeng": 5706,
      "method": 5707,
      "ider": 5708,
      "supplied": 5709,
      "painted": 5710,
      "building": 5711,
      "grain": 5712,
      "mp3": 5713,
      "upgraded": 5714,
      "Falls": 5715,
      "padding": 5716,
      "DL": 5717,
      "Funk": 5718,
      "Hallo": 5719,
      "Person": 5720,
      "Investitions": 5721,
      "variety": 5722,
      "Rück": 5723,
      "erweise": 5724,
      "eventually": 5725,
      "pricing": 5726,
      "thumb": 5727,
      "unes": 5728,
      "libr": 5729,
      "marked": 5730,
      "Win": 5731,
      "investigating": 5732,
      "S3": 5733,
      "bug": 5734,
      "placement": 5735,
      "walking": 5736,
      "atell": 5737,
      "fruit": 5738,
      "bub": 5739,
      "despite": 5740,
      "targeting": 5741,
      "Bl": 5742,
      "atives": 5743,
      "140": 5744,
      "Auto": 5745,
      "nylon": 5746,
      "incorrect": 5747,
      "leisten": 5748,
      "mes": 5749,
      "acter": 5750,
      "ada": 5751,
      "BPA": 5752,
      "leistungen": 5753,
      "Elect": 5754,
      "zurück": 5755,
      "Brand": 5756,
      "dien": 5757,
      "pix": 5758,
      "protected": 5759,
      "sales": 5760,
      "Key": 5761,
      "texture": 5762,
      "Cap": 5763,
      "Ef": 5764,
      "explore": 5765,
      "yond": 5766,
      "finally": 5767,
      "fts": 5768,
      "Unless": 5769,
      "brella": 5770,
      "nVielen": 5771,
      "lowest": 5772,
      "ials": 5773,
      "resi": 5774,
      "porad": 5775,
      "Nex": 5776,
      "pitch": 5777,
      "writ": 5778,
      "generally": 5779,
      "bird": 5780,
      "living": 5781,
      "sites": 5782,
      "icy": 5783,
      "cti": 5784,
      "inder": 5785,
      "wipe": 5786,
      "technology": 5787,
      "AF": 5788,
      "thats": 5789,
      "BO": 5790,
      "hasn": 5791,
      "Hey": 5792,
      "Gerä": 5793,
      "terday": 5794,
      "Looks": 5795,
      "cans": 5796,
      "Intel": 5797,
      "accessing": 5798,
      "anno": 5799,
      "Help": 5800,
      "workflow": 5801,
      "rinse": 5802,
      "street": 5803,
      "arily": 5804,
      "pics": 5805,
      "hitch": 5806,
      "2004": 5807,
      "teeth": 5808,
      "implementing": 5809,
      "verfüg": 5810,
      "hrs": 5811,
      "threaded": 5812,
      "benefits": 5813,
      "encil": 5814,
      "balance": 5815,
      "factor": 5816,
      "combination": 5817,
      "decided": 5818,
      "Dimensions": 5819,
      "hop": 5820,
      "credentials": 5821,
      "referring": 5822,
      "attempt": 5823,
      "Actually": 5824,
      "bands": 5825,
      "tone": 5826,
      "Table": 5827,
      "Vel": 5828,
      "constantly": 5829,
      "instell": 5830,
      "avig": 5831,
      "glove": 5832,
      "2003": 5833,
      "160": 5834,
      "pulled": 5835,
      "itech": 5836,
      "projects": 5837,
      "zes": 5838,
      "ators": 5839,
      "regard": 5840,
      "tasks": 5841,
      "67": 5842,
      "gp": 5843,
      "sticky": 5844,
      "pal": 5845,
      "knock": 5846,
      "Case": 5847,
      "thermostat": 5848,
      "nMit": 5849,
      "ification": 5850,
      "Fil": 5851,
      "mission": 5852,
      "hurt": 5853,
      "effe": 5854,
      "alt": 5855,
      "sellers": 5856,
      "involved": 5857,
      "wich": 5858,
      "sweat": 5859,
      "craft": 5860,
      "prog": 5861,
      "sources": 5862,
      "colate": 5863,
      "breaches": 5864,
      "inexpensive": 5865,
      "Photo": 5866,
      "meat": 5867,
      "pots": 5868,
      "registered": 5869,
      "iring": 5870,
      "tubes": 5871,
      "availability": 5872,
      "Ye": 5873,
      "verter": 5874,
      "ads": 5875,
      "wis": 5876,
      "ups": 5877,
      "clearly": 5878,
      "Jo": 5879,
      "ration": 5880,
      "shampoo": 5881,
      "frequently": 5882,
      "Systems": 5883,
      "pane": 5884,
      "continued": 5885,
      "atin": 5886,
      "miles": 5887,
      "Funktion": 5888,
      "afraid": 5889,
      "Plan": 5890,
      "Seem": 5891,
      "Strategien": 5892,
      "Kit": 5893,
      "daten": 5894,
      "generic": 5895,
      "law": 5896,
      "zuela": 5897,
      "verwende": 5898,
      "freezer": 5899,
      "protein": 5900,
      "verstehen": 5901,
      "3000": 5902,
      "Made": 5903,
      "permanent": 5904,
      "PO": 5905,
      "ammen": 5906,
      "Gi": 5907,
      "ined": 5908,
      "detach": 5909,
      "yesterday": 5910,
      "seeds": 5911,
      "calibr": 5912,
      "WD": 5913,
      "reasons": 5914,
      "atory": 5915,
      "conditions": 5916,
      "sicher": 5917,
      "lim": 5918,
      "sliding": 5919,
      "reader": 5920,
      "thium": 5921,
      "urgently": 5922,
      "purple": 5923,
      "outdoors": 5924,
      "soy": 5925,
      "Dr": 5926,
      "sungen": 5927,
      "object": 5928,
      "telefonisch": 5929,
      "5s": 5930,
      "functionality": 5931,
      "latch": 5932,
      "ün": 5933,
      "eno": 5934,
      "manufacture": 5935,
      "cei": 5936,
      "Clear": 5937,
      "alot": 5938,
      "shock": 5939,
      "melt": 5940,
      "EF": 5941,
      "bull": 5942,
      "horizontal": 5943,
      "Camp": 5944,
      "coil": 5945,
      "terms": 5946,
      "dern": 5947,
      "weights": 5948,
      "DVR": 5949,
      "compressor": 5950,
      "Run": 5951,
      "Silver": 5952,
      "commercial": 5953,
      "43": 5954,
      "nam": 5955,
      "considered": 5956,
      "Recent": 5957,
      "gewähr": 5958,
      "host": 5959,
      "56": 5960,
      "Ford": 5961,
      "amaha": 5962,
      "YO": 5963,
      "ffen": 5964,
      "Star": 5965,
      "ordin": 5966,
      "Standard": 5967,
      "synchronization": 5968,
      "thorough": 5969,
      "PT": 5970,
      "driving": 5971,
      "individu": 5972,
      "ONE": 5973,
      "Ultra": 5974,
      "stead": 5975,
      "English": 5976,
      "nails": 5977,
      "locking": 5978,
      "brake": 5979,
      "Verbind": 5980,
      "followed": 5981,
      "granddaughter": 5982,
      "boil": 5983,
      "copper": 5984,
      "mand": 5985,
      "och": 5986,
      "Think": 5987,
      "Back": 5988,
      "bank": 5989,
      "informieren": 5990,
      "hil": 5991,
      "Aktualisierung": 5992,
      "Ray": 5993,
      "stamp": 5994,
      "successfully": 5995,
      "fantastic": 5996,
      "BL": 5997,
      "truly": 5998,
      "spots": 5999,
      "aby": 6000,
      "selves": 6001,
      "reboo": 6002,
      "MP3": 6003,
      "Tra": 6004,
      "Cali": 6005,
      "seper": 6006,
      "nic": 6007,
      "ksam": 6008,
      "fry": 6009,
      "Using": 6010,
      "mistake": 6011,
      "component": 6012,
      "2x": 6013,
      "rooms": 6014,
      "lightweight": 6015,
      "comfort": 6016,
      "shin": 6017,
      "sudden": 6018,
      "maßnahmen": 6019,
      "Phone": 6020,
      "lux": 6021,
      "sending": 6022,
      "recognize": 6023,
      "sofortige": 6024,
      "cape": 6025,
      "ease": 6026,
      "Green": 6027,
      "arbeit": 6028,
      "valid": 6029,
      "ception": 6030,
      "La": 6031,
      "usual": 6032,
      "liked": 6033,
      "bles": 6034,
      "werde": 6035,
      "bestehen": 6036,
      "Verschl": 6037,
      "ifier": 6038,
      "prep": 6039,
      "utch": 6040,
      "gesch": 6041,
      "Series": 6042,
      "mask": 6043,
      "paste": 6044,
      "fehler": 6045,
      "prices": 6046,
      "shorts": 6047,
      "rotate": 6048,
      "grams": 6049,
      "hesitate": 6050,
      "addle": 6051,
      "processes": 6052,
      "containers": 6053,
      "verurs": 6054,
      "vendor": 6055,
      "Velcro": 6056,
      "Card": 6057,
      "stiff": 6058,
      "12V": 6059,
      "Sw": 6060,
      "tries": 6061,
      "Nach": 6062,
      "seek": 6063,
      "outage": 6064,
      "beige": 6065,
      "soak": 6066,
      "fridge": 6067,
      "modific": 6068,
      "instellungen": 6069,
      "SX": 6070,
      "viewing": 6071,
      "ASUS": 6072,
      "riding": 6073,
      "purposes": 6074,
      "electronic": 6075,
      "Verschlüssel": 6076,
      "submitted": 6077,
      "Verbesserung": 6078,
      "CC": 6079,
      "Tri": 6080,
      "zess": 6081,
      "roffen": 6082,
      "haust": 6083,
      "Books": 6084,
      "energy": 6085,
      "international": 6086,
      "Wireless": 6087,
      "Sha": 6088,
      "scent": 6089,
      "Dire": 6090,
      "cheid": 6091,
      "125": 6092,
      "concer": 6093,
      "mechanism": 6094,
      "holi": 6095,
      "heart": 6096,
      "implemented": 6097,
      "switches": 6098,
      "figuration": 6099,
      "eper": 6100,
      "standards": 6101,
      "oils": 6102,
      "crank": 6103,
      "cooling": 6104,
      "ET": 6105,
      "iel": 6106,
      "YES": 6107,
      "HA": 6108,
      "sporad": 6109,
      "packed": 6110,
      "bulky": 6111,
      "Take": 6112,
      "posted": 6113,
      "analog": 6114,
      "flows": 6115,
      "meaning": 6116,
      "useless": 6117,
      "PL": 6118,
      "Sicherheit": 6119,
      "Synchron": 6120,
      "tracking": 6121,
      "wrapped": 6122,
      "compli": 6123,
      "2002": 6124,
      "wohl": 6125,
      "Ther": 6126,
      "PS3": 6127,
      "feeder": 6128,
      "companies": 6129,
      "uch": 6130,
      "flaw": 6131,
      "pisto": 6132,
      "RV": 6133,
      "ream": 6134,
      "stylus": 6135,
      "develop": 6136,
      "Werk": 6137,
      "Desk": 6138,
      "collabor": 6139,
      "ohn": 6140,
      "solve": 6141,
      "merksam": 6142,
      "presence": 6143,
      "isy": 6144,
      "gehen": 6145,
      "Motor": 6146,
      "bunch": 6147,
      "ester": 6148,
      "credit": 6149,
      "approver": 6150,
      "Seems": 6151,
      "pher": 6152,
      "outputs": 6153,
      "inten": 6154,
      "movement": 6155,
      "module": 6156,
      "Toshiba": 6157,
      "girl": 6158,
      "algorith": 6159,
      "HS": 6160,
      "edition": 6161,
      "IG": 6162,
      "reten": 6163,
      "mAh": 6164,
      "approve": 6165,
      "adjusting": 6166,
      "disci": 6167,
      "kindle": 6168,
      "Ano": 6169,
      "Mem": 6170,
      "uner": 6171,
      "extract": 6172,
      "elen": 6173,
      "immediate": 6174,
      "gewährleisten": 6175,
      "discipl": 6176,
      "ingredient": 6177,
      "Many": 6178,
      "performed": 6179,
      "Height": 6180,
      "bikes": 6181,
      "WiFi": 6182,
      "wieder": 6183,
      "terbox": 6184,
      "Asus": 6185,
      "Tool": 6186,
      "nia": 6187,
      "sor": 6188,
      "Zus": 6189,
      "terior": 6190,
      "stops": 6191,
      "paired": 6192,
      "jet": 6193,
      "umbrella": 6194,
      "achieve": 6195,
      "Dam": 6196,
      "awhile": 6197,
      "priority": 6198,
      "Overall": 6199,
      "Kampagnen": 6200,
      "brace": 6201,
      "cleaned": 6202,
      "py": 6203,
      "flap": 6204,
      "benefit": 6205,
      "stro": 6206,
      "largest": 6207,
      "Perhaps": 6208,
      "Color": 6209,
      "gloss": 6210,
      "spezifischen": 6211,
      "wann": 6212,
      "gled": 6213,
      "Sincerely": 6214,
      "Current": 6215,
      "BB": 6216,
      "thermo": 6217,
      "handed": 6218,
      "medizinische": 6219,
      "compression": 6220,
      "served": 6221,
      "forderungen": 6222,
      "VC": 6223,
      "appy": 6224,
      "advanced": 6225,
      "ätzen": 6226,
      "regre": 6227,
      "public": 6228,
      "policy": 6229,
      "550": 6230,
      "trunk": 6231,
      "surprised": 6232,
      "Sure": 6233,
      "saved": 6234,
      "techni": 6235,
      "spout": 6236,
      "sticker": 6237,
      "Safe": 6238,
      "woman": 6239,
      "pulling": 6240,
      "Kom": 6241,
      "background": 6242,
      "tables": 6243,
      "construction": 6244,
      "Stör": 6245,
      "razor": 6246,
      "carefully": 6247,
      "upright": 6248,
      "acknow": 6249,
      "exhaust": 6250,
      "76": 6251,
      "Lap": 6252,
      "improved": 6253,
      "aktuellen": 6254,
      "expense": 6255,
      "crucial": 6256,
      "Dokumentation": 6257,
      "dried": 6258,
      "practice": 6259,
      "vulnerabilities": 6260,
      "ands": 6261,
      "atellite": 6262,
      "packaged": 6263,
      "organization": 6264,
      "130": 6265,
      "850": 6266,
      "Bose": 6267,
      "OF": 6268,
      "configured": 6269,
      "stairs": 6270,
      "Techn": 6271,
      "cted": 6272,
      "chicken": 6273,
      "rules": 6274,
      "Multi": 6275,
      "causes": 6276,
      "LOVE": 6277,
      "library": 6278,
      "early": 6279,
      "aufgrund": 6280,
      "qid": 6281,
      "knows": 6282,
      "12v": 6283,
      "eing": 6284,
      "delivered": 6285,
      "mate": 6286,
      "weis": 6287,
      "toddler": 6288,
      "began": 6289,
      "blo": 6290,
      "wels": 6291,
      "reflect": 6292,
      "disable": 6293,
      "vielen": 6294,
      "radi": 6295,
      "Concern": 6296,
      "erheblich": 6297,
      "compro": 6298,
      "yrs": 6299,
      "06": 6300,
      "cardboard": 6301,
      "wissen": 6302,
      "schlie": 6303,
      "bedroom": 6304,
      "cuts": 6305,
      "speeds": 6306,
      "macbook": 6307,
      "wier": 6308,
      "jedoch": 6309,
      "lite": 6310,
      "4th": 6311,
      "fornia": 6312,
      "protective": 6313,
      "DVI": 6314,
      "functional": 6315,
      "450": 6316,
      "John": 6317,
      "Bere": 6318,
      "cohol": 6319,
      "Vista": 6320,
      "Ot": 6321,
      "artic": 6322,
      "Depending": 6323,
      "III": 6324,
      "skill": 6325,
      "Dieses": 6326,
      "TR": 6327,
      "switched": 6328,
      "securely": 6329,
      "Emp": 6330,
      "bent": 6331,
      "kontaktieren": 6332,
      "threw": 6333,
      "tings": 6334,
      "documents": 6335,
      "groups": 6336,
      "combo": 6337,
      "flashlight": 6338,
      "Inc": 6339,
      "aker": 6340,
      "pansion": 6341,
      "hable": 6342,
      "illa": 6343,
      "Anwend": 6344,
      "slim": 6345,
      "Fur": 6346,
      "likes": 6347,
      "tax": 6348,
      "scoo": 6349,
      "fuse": 6350,
      "consideration": 6351,
      "flim": 6352,
      "Spr": 6353,
      "unlock": 6354,
      "sky": 6355,
      "damit": 6356,
      "flour": 6357,
      "soil": 6358,
      "bulk": 6359,
      "decline": 6360,
      "kel": 6361,
      "finder": 6362,
      "unexpectedly": 6363,
      "efficiency": 6364,
      "Big": 6365,
      "dest": 6366,
      "pairs": 6367,
      "Honest": 6368,
      "stellung": 6369,
      "Call": 6370,
      "shared": 6371,
      "meldungen": 6372,
      "notwend": 6373,
      "cig": 6374,
      "erfahren": 6375,
      "apers": 6376,
      "letter": 6377,
      "Sun": 6378,
      "manufacturers": 6379,
      "coated": 6380,
      "indicates": 6381,
      "Netz": 6382,
      "quit": 6383,
      "forget": 6384,
      "720": 6385,
      "oop": 6386,
      "refresh": 6387,
      "medizinischen": 6388,
      "brightness": 6389,
      "official": 6390,
      "tear": 6391,
      "integrate": 6392,
      "punkt": 6393,
      "Jan": 6394,
      "suggested": 6395,
      "decre": 6396,
      "SI": 6397,
      "towels": 6398,
      "annoying": 6399,
      "lips": 6400,
      "Enh": 6401,
      "trash": 6402,
      "ourcen": 6403,
      "comforter": 6404,
      "ques": 6405,
      "beat": 6406,
      "thinner": 6407,
      "beyond": 6408,
      "straw": 6409,
      "diagno": 6410,
      "Werkze": 6411,
      "fake": 6412,
      "arently": 6413,
      "functioning": 6414,
      "language": 6415,
      "employe": 6416,
      "Ursache": 6417,
      "Stunden": 6418,
      "1200": 6419,
      "viewer": 6420,
      "erreich": 6421,
      "laptops": 6422,
      "Store": 6423,
      "alternative": 6424,
      "PRO": 6425,
      "eager": 6426,
      "pencil": 6427,
      "shad": 6428,
      "roo": 6429,
      "group": 6430,
      "Time": 6431,
      "batch": 6432,
      "mom": 6433,
      "agon": 6434,
      "Oh": 6435,
      "ements": 6436,
      "coverage": 6437,
      "schätzen": 6438,
      "betroffen": 6439,
      "besides": 6440,
      "AWS": 6441,
      "nano": 6442,
      "essi": 6443,
      "roughly": 6444,
      "ideal": 6445,
      "Lösungen": 6446,
      "weld": 6447,
      "mainly": 6448,
      "taller": 6449,
      "ida": 6450,
      "stronger": 6451,
      "noticeable": 6452,
      "ii": 6453,
      "marks": 6454,
      "seriously": 6455,
      "complaints": 6456,
      "04": 6457,
      "Life": 6458,
      "wand": 6459,
      "YouTube": 6460,
      "Linux": 6461,
      "atic": 6462,
      "chlor": 6463,
      "unplug": 6464,
      "indust": 6465,
      "classic": 6466,
      "yog": 6467,
      "inese": 6468,
      "curtain": 6469,
      "schließ": 6470,
      "Sky": 6471,
      "acces": 6472,
      "baking": 6473,
      "zure": 6474,
      "antivirus": 6475,
      "knowing": 6476,
      "mote": 6477,
      "opposite": 6478,
      "propane": 6479,
      "Meas": 6480,
      "pens": 6481,
      "Depot": 6482,
      "flimsy": 6483,
      "VPN": 6484,
      "bean": 6485,
      "screwed": 6486,
      "Media": 6487,
      "schedul": 6488,
      "freeze": 6489,
      "lies": 6490,
      "Post": 6491,
      "ults": 6492,
      "Really": 6493,
      "valent": 6494,
      "Honestly": 6495,
      "esten": 6496,
      "richt": 6497,
      "iser": 6498,
      "uine": 6499,
      "Weight": 6500,
      "shake": 6501,
      "plemen": 6502,
      "bugs": 6503,
      "tension": 6504,
      "DA": 6505,
      "pup": 6506,
      "studio": 6507,
      "dose": 6508,
      "irts": 6509,
      "Cu": 6510,
      "Tru": 6511,
      "opport": 6512,
      "wenden": 6513,
      "Cy": 6514,
      "ifi": 6515,
      "monitoring": 6516,
      "ino": 6517,
      "Inqu": 6518,
      "Aufmerksam": 6519,
      "Aufmerksamkeit": 6520,
      "Vo": 6521,
      "Studio": 6522,
      "unseren": 6523,
      "Fri": 6524,
      "beg": 6525,
      "effort": 6526,
      "challenges": 6527,
      "igma": 6528,
      "increased": 6529,
      "upside": 6530,
      "Ve": 6531,
      "isches": 6532,
      "Netflix": 6533,
      "Install": 6534,
      "57": 6535,
      "percent": 6536,
      "grinder": 6537,
      "valu": 6538,
      "Macbook": 6539,
      "previously": 6540,
      "SL": 6541,
      "enger": 6542,
      "serve": 6543,
      "frust": 6544,
      "spill": 6545,
      "logged": 6546,
      "plorer": 6547,
      "themselves": 6548,
      "blender": 6549,
      "receipt": 6550,
      "integrated": 6551,
      "Konto": 6552,
      "XT": 6553,
      "dress": 6554,
      "mögliche": 6555,
      "activated": 6556,
      "tabs": 6557,
      "priced": 6558,
      "fass": 6559,
      "falling": 6560,
      "Another": 6561,
      "entry": 6562,
      "drilled": 6563,
      "92": 6564,
      "pushing": 6565,
      "02": 6566,
      "Dienstleistungen": 6567,
      "keywords": 6568,
      "brother": 6569,
      "ladder": 6570,
      "Zeitpunkt": 6571,
      "allocation": 6572,
      "jars": 6573,
      "unity": 6574,
      "opy": 6575,
      "stabili": 6576,
      "Sit": 6577,
      "UK": 6578,
      "reser": 6579,
      "chocolate": 6580,
      "Health": 6581,
      "umps": 6582,
      "möglichen": 6583,
      "Fu": 6584,
      "recorder": 6585,
      "smoke": 6586,
      "DOES": 6587,
      "prox": 6588,
      "subject": 6589,
      "Organ": 6590,
      "wine": 6591,
      "surfaces": 6592,
      "brushes": 6593,
      "sie": 6594,
      "230": 6595,
      "dot": 6596,
      "estab": 6597,
      "letters": 6598,
      "DDR": 6599,
      "icon": 6600,
      "discipline": 6601,
      "Shi": 6602,
      "relatively": 6603,
      "punch": 6604,
      "exterior": 6605,
      "resistance": 6606,
      "org": 6607,
      "IDE": 6608,
      "Nexus": 6609,
      "Whe": 6610,
      "HTC": 6611,
      "schließlich": 6612,
      "TT": 6613,
      "loy": 6614,
      "sequ": 6615,
      "distribut": 6616,
      "Systeme": 6617,
      "conut": 6618,
      "circum": 6619,
      "neuesten": 6620,
      "este": 6621,
      "California": 6622,
      "establish": 6623,
      "FX": 6624,
      "discs": 6625,
      "xl": 6626,
      "tuner": 6627,
      "gallons": 6628,
      "aign": 6629,
      "CL": 6630,
      "quart": 6631,
      "Radio": 6632,
      "Zugriffs": 6633,
      "headboard": 6634,
      "einschließlich": 6635,
      "Contact": 6636,
      "described": 6637,
      "physical": 6638,
      "earlier": 6639,
      "Classic": 6640,
      "Campaign": 6641,
      "wrench": 6642,
      "tai": 6643,
      "2001": 6644,
      "expire": 6645,
      "implementation": 6646,
      "Aust": 6647,
      "Pic": 6648,
      "robust": 6649,
      "Press": 6650,
      "Mö": 6651,
      "conversion": 6652,
      "endaten": 6653,
      "labels": 6654,
      "kay": 6655,
      "exchange": 6656,
      "decor": 6657,
      "production": 6658,
      "San": 6659,
      "covering": 6660,
      "element": 6661,
      "heated": 6662,
      "curious": 6663,
      "Rückmeldung": 6664,
      "bage": 6665,
      "stic": 6666,
      "verifying": 6667,
      "Cha": 6668,
      "Ethernet": 6669,
      "brass": 6670,
      "tte": 6671,
      "figured": 6672,
      "verschied": 6673,
      "cylin": 6674,
      "protokolle": 6675,
      "subwoofer": 6676,
      "freich": 6677,
      "möglicherweise": 6678,
      "Issues": 6679,
      "requests": 6680,
      "inen": 6681,
      "accessory": 6682,
      "didnt": 6683,
      "Leist": 6684,
      "becomes": 6685,
      "coax": 6686,
      "visit": 6687,
      "Full": 6688,
      "poles": 6689,
      "whats": 6690,
      "raw": 6691,
      "hrend": 6692,
      "hilfreich": 6693,
      "conditioner": 6694,
      "115": 6695,
      "CS": 6696,
      "workout": 6697,
      "sou": 6698,
      "tickets": 6699,
      "mass": 6700,
      "pson": 6701,
      "recie": 6702,
      "Perform": 6703,
      "62": 6704,
      "bowls": 6705,
      "loosen": 6706,
      "Ress": 6707,
      "folds": 6708,
      "trimmer": 6709,
      "vier": 6710,
      "lined": 6711,
      "hist": 6712,
      "dispen": 6713,
      "ME": 6714,
      "moves": 6715,
      "Datenver": 6716,
      "nex": 6717,
      "icated": 6718,
      "Nope": 6719,
      "backing": 6720,
      "Vene": 6721,
      "contents": 6722,
      "strings": 6723,
      "index": 6724,
      "advantage": 6725,
      "maps": 6726,
      "regret": 6727,
      "lol": 6728,
      "Platform": 6729,
      "hate": 6730,
      "puts": 6731,
      "comparison": 6732,
      "HE": 6733,
      "Yamaha": 6734,
      "cher": 6735,
      "tron": 6736,
      "forms": 6737,
      "undle": 6738,
      "Analyse": 6739,
      "1080p": 6740,
      "utorials": 6741,
      "bleach": 6742,
      "Core": 6743,
      "fasten": 6744,
      "tenance": 6745,
      "returning": 6746,
      "PCI": 6747,
      "Definitely": 6748,
      "soci": 6749,
      "insbesondere": 6750,
      "VM": 6751,
      "blend": 6752,
      "HDD": 6753,
      "investments": 6754,
      "Fehlermeldung": 6755,
      "gasket": 6756,
      "harder": 6757,
      "bilit": 6758,
      "quant": 6759,
      "packages": 6760,
      "continuous": 6761,
      "pit": 6762,
      "anz": 6763,
      "enhancing": 6764,
      "downloaded": 6765,
      "Memory": 6766,
      "Damen": 6767,
      "applying": 6768,
      "Herren": 6769,
      "indoors": 6770,
      "Anleitungen": 6771,
      "ClickUp": 6772,
      "neither": 6773,
      "opens": 6774,
      "Obwohl": 6775,
      "dough": 6776,
      "final": 6777,
      "220V": 6778,
      "Turn": 6779,
      "shr": 6780,
      "chargers": 6781,
      "Put": 6782,
      "Same": 6783,
      "sensors": 6784,
      "wave": 6785,
      "wanting": 6786,
      "intermittent": 6787,
      "Lum": 6788,
      "tailored": 6789,
      "psi": 6790,
      "uncomfortable": 6791,
      "mming": 6792,
      "überprüfen": 6793,
      "Bel": 6794,
      "cs": 6795,
      "geführt": 6796,
      "rib": 6797,
      "traditional": 6798,
      "fra": 6799,
      "Ihren": 6800,
      "boots": 6801,
      "Personally": 6802,
      "indeed": 6803,
      "serial": 6804,
      "pistol": 6805,
      "dim": 6806,
      "exception": 6807,
      "frozen": 6808,
      "94": 6809,
      "photograp": 6810,
      "interessi": 6811,
      "launch": 6812,
      "filling": 6813,
      "fell": 6814,
      "precise": 6815,
      "compat": 6816,
      "mono": 6817,
      "patches": 6818,
      "vas": 6819,
      "presso": 6820,
      "Leno": 6821,
      "calling": 6822,
      "Logitech": 6823,
      "jam": 6824,
      "refrigerator": 6825,
      "Recei": 6826,
      "listening": 6827,
      "eu": 6828,
      "potentially": 6829,
      "released": 6830,
      "tells": 6831,
      "gran": 6832,
      "51": 6833,
      "spent": 6834,
      "OD": 6835,
      "idents": 6836,
      "cycl": 6837,
      "equal": 6838,
      "Eng": 6839,
      "dell": 6840,
      "igkeit": 6841,
      "regularly": 6842,
      "Ressourcen": 6843,
      "outages": 6844,
      "camcorder": 6845,
      "lawn": 6846,
      "allowed": 6847,
      "capsules": 6848,
      "alcohol": 6849,
      "lugg": 6850,
      "impossible": 6851,
      "certified": 6852,
      "93": 6853,
      "identified": 6854,
      "shutter": 6855,
      "consultant": 6856,
      "aqu": 6857,
      "Nothing": 6858,
      "lust": 6859,
      "warmer": 6860,
      "unterstütz": 6861,
      "Da": 6862,
      "benötige": 6863,
      "posts": 6864,
      "breaking": 6865,
      "geeigne": 6866,
      "criptions": 6867,
      "secured": 6868,
      "effects": 6869,
      "labeled": 6870,
      "roy": 6871,
      "Uni": 6872,
      "ritt": 6873,
      "nisse": 6874,
      "tection": 6875,
      "elimin": 6876,
      "sheath": 6877,
      "notification": 6878,
      "describe": 6879,
      "cryst": 6880,
      "ahl": 6881,
      "dirty": 6882,
      "Oly": 6883,
      "equivalent": 6884,
      "hardwood": 6885,
      "screens": 6886,
      "wierigkeiten": 6887,
      "rotz": 6888,
      "verhinder": 6889,
      "suche": 6890,
      "blink": 6891,
      "chips": 6892,
      "Jeep": 6893,
      "tubing": 6894,
      "written": 6895,
      "cular": 6896,
      "circle": 6897,
      "sleeves": 6898,
      "impressed": 6899,
      "Performance": 6900,
      "Integrations": 6901,
      "Wid": 6902,
      "glo": 6903,
      "pets": 6904,
      "lamin": 6905,
      "scroll": 6906,
      "Lenovo": 6907,
      "immer": 6908,
      "zurückzuführen": 6909,
      "terrible": 6910,
      "manu": 6911,
      "visibility": 6912,
      "anke": 6913,
      "Mark": 6914,
      "Venezuela": 6915,
      "chemicals": 6916,
      "Bought": 6917,
      "stations": 6918,
      "attempting": 6919,
      "slowly": 6920,
      "Lens": 6921,
      "Men": 6922,
      "glu": 6923,
      "jacks": 6924,
      "andom": 6925,
      "seamless": 6926,
      "darker": 6927,
      "brech": 6928,
      "bio": 6929,
      "obviously": 6930,
      "Bot": 6931,
      "Word": 6932,
      "IL": 6933,
      "lac": 6934,
      "cc": 6935,
      "completed": 6936,
      "ns": 6937,
      "thetic": 6938,
      "Top": 6939,
      "rare": 6940,
      "ora": 6941,
      "basement": 6942,
      "traveling": 6943,
      "verursacht": 6944,
      "tac": 6945,
      "rol": 6946,
      "Neust": 6947,
      "fence": 6948,
      "ka": 6949,
      "dimmer": 6950,
      "restore": 6951,
      "clothing": 6952,
      "lag": 6953,
      "Compati": 6954,
      "05": 6955,
      "associ": 6956,
      "eines": 6957,
      "Enjoy": 6958,
      "eggs": 6959,
      "Bill": 6960,
      "sided": 6961,
      "navig": 6962,
      "87": 6963,
      "Web": 6964,
      "Fehlermeldungen": 6965,
      "Cer": 6966,
      "NS": 6967,
      "pedals": 6968,
      "ggle": 6969,
      "shopping": 6970,
      "Iphone": 6971,
      "scans": 6972,
      "espresso": 6973,
      "assess": 6974,
      "reads": 6975,
      "returns": 6976,
      "instrum": 6977,
      "Under": 6978,
      "squeeze": 6979,
      "Track": 6980,
      "invoice": 6981,
      "2500": 6982,
      "streaming": 6983,
      "Regarding": 6984,
      "69": 6985,
      "toys": 6986,
      "leaf": 6987,
      "Website": 6988,
      "biggest": 6989,
      "originally": 6990,
      "cracked": 6991,
      "recipe": 6992,
      "grab": 6993,
      "Laptop": 6994,
      "Kitchen": 6995,
      "Us": 6996,
      "Products": 6997,
      "ANY": 6998,
      "clarify": 6999,
      "Del": 7000,
      "ahead": 7001,
      "idden": 7002,
      "smallest": 7003,
      "supplier": 7004,
      "predic": 7005,
      "strategien": 7006,
      "Py": 7007,
      "rep": 7008,
      "patio": 7009,
      "washable": 7010,
      "Betrie": 7011,
      "generator": 7012,
      "Flash": 7013,
      "brick": 7014,
      "scoop": 7015,
      "pillows": 7016,
      "kor": 7017,
      "59": 7018,
      "shirts": 7019,
      "Mal": 7020,
      "noted": 7021,
      "portfolio": 7022,
      "Cost": 7023,
      "rufen": 7024,
      "Krankenhaus": 7025,
      "Pass": 7026,
      "ethernet": 7027,
      "nozzle": 7028,
      "220v": 7029,
      "growing": 7030,
      "4s": 7031,
      "iece": 7032,
      "wheat": 7033,
      "IA": 7034,
      "mpus": 7035,
      "maintenance": 7036,
      "improvements": 7037,
      "accuracy": 7038,
      "Number": 7039,
      "ountain": 7040,
      "camping": 7041,
      "PAA": 7042,
      "died": 7043,
      "Shar": 7044,
      "patibilit": 7045,
      "limitations": 7046,
      "vehicles": 7047,
      "techniques": 7048,
      "fails": 7049,
      "counts": 7050,
      "RT": 7051,
      "collap": 7052,
      "Everything": 7053,
      "Screenshot": 7054,
      "Cr": 7055,
      "couch": 7056,
      "HIPAA": 7057,
      "D3": 7058,
      "Du": 7059,
      "Right": 7060,
      "blur": 7061,
      "lection": 7062,
      "discontinued": 7063,
      "Ret": 7064,
      "lands": 7065,
      "ico": 7066,
      "sports": 7067,
      "genuine": 7068,
      "cushions": 7069,
      "colleagues": 7070,
      "Down": 7071,
      "Monitor": 7072,
      "Walmart": 7073,
      "san": 7074,
      "fal": 7075,
      "progress": 7076,
      "Patientendaten": 7077,
      "Sign": 7078,
      "sections": 7079,
      "starten": 7080,
      "Epson": 7081,
      "artet": 7082,
      "stum": 7083,
      "creation": 7084,
      "miner": 7085,
      "Plug": 7086,
      "beans": 7087,
      "Canada": 7088,
      "pul": 7089,
      "willing": 7090,
      "aud": 7091,
      "dispos": 7092,
      "friendly": 7093,
      "07": 7094,
      "pushed": 7095,
      "apid": 7096,
      "flav": 7097,
      "HDTV": 7098,
      "Azure": 7099,
      "usa": 7100,
      "signals": 7101,
      "Speed": 7102,
      "magaz": 7103,
      "Ours": 7104,
      "Grand": 7105,
      "interchange": 7106,
      "matches": 7107,
      "Oil": 7108,
      "prints": 7109,
      "Netzwerk": 7110,
      "während": 7111,
      "lamps": 7112,
      "pods": 7113,
      "Browser": 7114,
      "forts": 7115,
      "express": 7116,
      "teams": 7117,
      "gym": 7118,
      "safely": 7119,
      "smells": 7120,
      "lang": 7121,
      "oneer": 7122,
      "exists": 7123,
      "matte": 7124,
      "scratches": 7125,
      "concerning": 7126,
      "gemelde": 7127,
      "itt": 7128,
      "IBM": 7129,
      "grease": 7130,
      "Further": 7131,
      "tracks": 7132,
      "Facing": 7133,
      "S5": 7134,
      "comb": 7135,
      "expo": 7136,
      "pell": 7137,
      "Their": 7138,
      "Attemp": 7139,
      "Part": 7140,
      "random": 7141,
      "toward": 7142,
      "lichkeit": 7143,
      "ürz": 7144,
      "BE": 7145,
      "alert": 7146,
      "CAN": 7147,
      "hydr": 7148,
      "flower": 7149,
      "springs": 7150,
      "reception": 7151,
      "fender": 7152,
      "stitch": 7153,
      "neigh": 7154,
      "nt": 7155,
      "monthly": 7156,
      "Xbox": 7157,
      "defect": 7158,
      "stud": 7159,
      "harm": 7160,
      "kinda": 7161,
      "ships": 7162,
      "swim": 7163,
      "plementier": 7164,
      "kits": 7165,
      "anzu": 7166,
      "Acer": 7167,
      "GP": 7168,
      "aser": 7169,
      "birds": 7170,
      "pressing": 7171,
      "opener": 7172,
      "CRM": 7173,
      "ION": 7174,
      "BR": 7175,
      "Sal": 7176,
      "chose": 7177,
      "netes": 7178,
      "digitale": 7179,
      "orrow": 7180,
      "contr": 7181,
      "trays": 7182,
      "BTW": 7183,
      "collaboration": 7184,
      "D5": 7185,
      "drag": 7186,
      "accordingly": 7187,
      "nu": 7188,
      "MHz": 7189,
      "forth": 7190,
      "welche": 7191,
      "ultra": 7192,
      "Type": 7193,
      "ifen": 7194,
      "temporary": 7195,
      "role": 7196,
      "folders": 7197,
      "CE": 7198,
      "leaks": 7199,
      "FOR": 7200,
      "kettle": 7201,
      "BS": 7202,
      "VO": 7203,
      "sever": 7204,
      "Report": 7205,
      "resource": 7206,
      "hammer": 7207,
      "concent": 7208,
      "Prime": 7209,
      "prop": 7210,
      "confusing": 7211,
      "basis": 7212,
      "padded": 7213,
      "login": 7214,
      "Display": 7215,
      "ays": 7216,
      "brought": 7217,
      "path": 7218,
      "Mount": 7219,
      "polar": 7220,
      "cium": 7221,
      "steering": 7222,
      "Width": 7223,
      "Pos": 7224,
      "Remember": 7225,
      "08": 7226,
      "tors": 7227,
      "isin": 7228,
      "indicator": 7229,
      "cylinder": 7230,
      "tox": 7231,
      "beep": 7232,
      "holders": 7233,
      "shiny": 7234,
      "Currently": 7235,
      "fort": 7236,
      "outlets": 7237,
      "210": 7238,
      "refur": 7239,
      "sticking": 7240,
      "WILL": 7241,
      "handling": 7242,
      "answering": 7243,
      "anbieten": 7244,
      "geb": 7245,
      "Restart": 7246,
      "carb": 7247,
      "orders": 7248,
      "Description": 7249,
      "DSLR": 7250,
      "Init": 7251,
      "Surface": 7252,
      "61": 7253,
      "Cover": 7254,
      "PE": 7255,
      "reviewer": 7256,
      "79": 7257,
      "shine": 7258,
      "float": 7259,
      "berich": 7260,
      "interrup": 7261,
      "rests": 7262,
      "rebooting": 7263,
      "Pad": 7264,
      "burned": 7265,
      "dienst": 7266,
      "ners": 7267,
      "stage": 7268,
      "Sicherheitsmaßnahmen": 7269,
      "Hub": 7270,
      "dedicated": 7271,
      "GO": 7272,
      "needle": 7273,
      "tomorrow": 7274,
      "blower": 7275,
      "ishing": 7276,
      "feeling": 7277,
      "electricity": 7278,
      "cone": 7279,
      "53": 7280,
      "Ext": 7281,
      "blocks": 7282,
      "Zusammen": 7283,
      "FC": 7284,
      "Long": 7285,
      "willkommen": 7286,
      "cordless": 7287,
      "71": 7288,
      "Sug": 7289,
      "brid": 7290,
      "FY": 7291,
      "SR": 7292,
      "rods": 7293,
      "gol": 7294,
      "Tab": 7295,
      "Wenn": 7296,
      "kb": 7297,
      "static": 7298,
      "ips": 7299,
      "bia": 7300,
      "reasonable": 7301,
      "TER": 7302,
      "Gesund": 7303,
      "gly": 7304,
      "amper": 7305,
      "atio": 7306,
      "Gold": 7307,
      "magnets": 7308,
      "Rebel": 7309,
      "ierungs": 7310,
      "closure": 7311,
      "tightly": 7312,
      "birth": 7313,
      "modify": 7314,
      "Ken": 7315,
      "pig": 7316,
      "Happy": 7317,
      "gon": 7318,
      "deeper": 7319,
      "coconut": 7320,
      "efficient": 7321,
      "Manual": 7322,
      "estimate": 7323,
      "performing": 7324,
      "depart": 7325,
      "overnight": 7326,
      "linked": 7327,
      "3d": 7328,
      "2021": 7329,
      "WE": 7330,
      "sport": 7331,
      "Without": 7332,
      "cooked": 7333,
      "bished": 7334,
      "teen": 7335,
      "prime": 7336,
      "iMac": 7337,
      "Rechn": 7338,
      "barkeit": 7339,
      "damp": 7340,
      "shed": 7341,
      "Nano": 7342,
      "coal": 7343,
      "placing": 7344,
      "scheint": 7345,
      "clamps": 7346,
      "icycle": 7347,
      "Chinese": 7348,
      "aspx": 7349,
      "realize": 7350,
      "canister": 7351,
      "quo": 7352,
      "VR": 7353,
      "individually": 7354,
      "istic": 7355,
      "frames": 7356,
      "observed": 7357,
      "reached": 7358,
      "ohm": 7359,
      "fragr": 7360,
      "expansion": 7361,
      "aff": 7362,
      "dil": 7363,
      "utilize": 7364,
      "tible": 7365,
      "undry": 7366,
      "Fits": 7367,
      "GH": 7368,
      "PI": 7369,
      "primary": 7370,
      "blank": 7371,
      "WIT": 7372,
      "reject": 7373,
      "cht": 7374,
      "arrive": 7375,
      "Sub": 7376,
      "tete": 7377,
      "pep": 7378,
      "1800": 7379,
      "transport": 7380,
      "constant": 7381,
      "89": 7382,
      "rise": 7383,
      "supplement": 7384,
      "cutter": 7385,
      "Schwierigkeiten": 7386,
      "neueste": 7387,
      "undred": 7388,
      "hinge": 7389,
      "Empfehl": 7390,
      "EOS": 7391,
      "Live": 7392,
      "SC": 7393,
      "lining": 7394,
      "cheese": 7395,
      "Seat": 7396,
      "breaks": 7397,
      "Dringend": 7398,
      "America": 7399,
      "minimal": 7400,
      "associated": 7401,
      "Dual": 7402,
      "facilit": 7403,
      "cigare": 7404,
      "MAC": 7405,
      "sually": 7406,
      "obtain": 7407,
      "heits": 7408,
      "rolls": 7409,
      "cute": 7410,
      "guns": 7411,
      "Those": 7412,
      "spect": 7413,
      "picked": 7414,
      "8GB": 7415,
      "drying": 7416,
      "young": 7417,
      "84": 7418,
      "Open": 7419,
      "Brit": 7420,
      "widest": 7421,
      "pills": 7422,
      "extensions": 7423,
      "cargo": 7424,
      "Yeah": 7425,
      "5th": 7426,
      "86": 7427,
      "folding": 7428,
      "weekend": 7429,
      "Dar": 7430,
      "mop": 7431,
      "Rat": 7432,
      "ney": 7433,
      "320": 7434,
      "lab": 7435,
      "tread": 7436,
      "tiles": 7437,
      "Mr": 7438,
      "toner": 7439,
      "DB": 7440,
      "Ziel": 7441,
      "uld": 7442,
      "snaps": 7443,
      "studies": 7444,
      "vitamin": 7445,
      "exceed": 7446,
      "suring": 7447,
      "recorded": 7448,
      "storing": 7449,
      "angular": 7450,
      "Seeking": 7451,
      "nIch": 7452,
      "retain": 7453,
      "Sing": 7454,
      "Charger": 7455,
      "enclosure": 7456,
      "noisy": 7457,
      "entered": 7458,
      "wro": 7459,
      "motorcycle": 7460,
      "Tur": 7461,
      "bb": 7462,
      "geh": 7463,
      "sprayer": 7464,
      "tere": 7465,
      "Express": 7466,
      "grid": 7467,
      "usive": 7468,
      "würden": 7469,
      "infant": 7470,
      "kinds": 7471,
      "matching": 7472,
      "leaking": 7473,
      "isinart": 7474,
      "erle": 7475,
      "liefer": 7476,
      "hundred": 7477,
      "displayed": 7478,
      "unterstützen": 7479,
      "capture": 7480,
      "ringende": 7481,
      "complaint": 7482,
      "Vi": 7483,
      "elements": 7484,
      "Anforderungen": 7485,
      "Brother": 7486,
      "networks": 7487,
      "configure": 7488,
      "äre": 7489,
      "plugging": 7490,
      "animal": 7491,
      "Bay": 7492,
      "Router": 7493,
      "Usually": 7494,
      "Warranty": 7495,
      "retrie": 7496,
      "inserts": 7497,
      "recipes": 7498,
      "Mich": 7499,
      "posit": 7500,
      "AMD": 7501,
      "humidity": 7502,
      "shrink": 7503,
      "attaching": 7504,
      "neut": 7505,
      "isierung": 7506,
      "fluid": 7507,
      "Austral": 7508,
      "UP": 7509,
      "nature": 7510,
      "editing": 7511,
      "canopy": 7512,
      "gibt": 7513,
      "Überprü": 7514,
      "ya": 7515,
      "QuickBooks": 7516,
      "cloud": 7517,
      "hangs": 7518,
      "activity": 7519,
      "iT": 7520,
      "worse": 7521,
      "allowing": 7522,
      "mountain": 7523,
      "rounded": 7524,
      "letzung": 7525,
      "suck": 7526,
      "uffle": 7527,
      "HF": 7528,
      "kee": 7529,
      "racks": 7530,
      "Inquiry": 7531,
      "wrote": 7532,
      "Sy": 7533,
      "city": 7534,
      "inj": 7535,
      "Haven": 7536,
      "holiday": 7537,
      "Amp": 7538,
      "goo": 7539,
      "independ": 7540,
      "agent": 7541,
      "gui": 7542,
      "enhanced": 7543,
      "treated": 7544,
      "Network": 7545,
      "DVDs": 7546,
      "überprüft": 7547,
      "occasionally": 7548,
      "residue": 7549,
      "region": 7550,
      "certific": 7551,
      "cau": 7552,
      "greifen": 7553,
      "nikon": 7554,
      "exercise": 7555,
      "Cool": 7556,
      "sicht": 7557,
      "specialist": 7558,
      "authentication": 7559,
      "reinstalling": 7560,
      "drum": 7561,
      "awk": 7562,
      "fume": 7563,
      "MM": 7564,
      "onge": 7565,
      "trag": 7566,
      "calend": 7567,
      "layers": 7568,
      "determin": 7569,
      "iter": 7570,
      "trau": 7571,
      "Vitamin": 7572,
      "sewing": 7573,
      "incidents": 7574,
      "tec": 7575,
      "Dashboard": 7576,
      "meters": 7577,
      "trees": 7578,
      "crazy": 7579,
      "Motorola": 7580,
      "TA": 7581,
      "XS": 7582,
      "Behe": 7583,
      "topic": 7584,
      "hun": 7585,
      "saving": 7586,
      "bridge": 7587,
      "enclosed": 7588,
      "isco": 7589,
      "chop": 7590,
      "sta": 7591,
      "auer": 7592,
      "jeep": 7593,
      "03": 7594,
      "locations": 7595,
      "tick": 7596,
      "passwords": 7597,
      "smartphone": 7598,
      "DX": 7599,
      "envelo": 7600,
      "creating": 7601,
      "everywhere": 7602,
      "leader": 7603,
      "Length": 7604,
      "unscrew": 7605,
      "expired": 7606,
      "Connect": 7607,
      "quarter": 7608,
      "verme": 7609,
      "trap": 7610,
      "topper": 7611,
      "ston": 7612,
      "delic": 7613,
      "periods": 7614,
      "AY": 7615,
      "capsule": 7616,
      "PH": 7617,
      "nap": 7618,
      "yards": 7619,
      "hoses": 7620,
      "Doesn": 7621,
      "contacts": 7622,
      "satellite": 7623,
      "enz": 7624,
      "curve": 7625,
      "addressing": 7626,
      "Gesundheits": 7627,
      "bacter": 7628,
      "adds": 7629,
      "potenzie": 7630,
      "accidentally": 7631,
      "RS": 7632,
      "assi": 7633,
      "controlled": 7634,
      "laundry": 7635,
      "folks": 7636,
      "breaker": 7637,
      "gemeldet": 7638,
      "Ear": 7639,
      "inserted": 7640,
      "beginning": 7641,
      "Must": 7642,
      "gather": 7643,
      "shred": 7644,
      "earch": 7645,
      "105": 7646,
      "calories": 7647,
      "exposure": 7648,
      "Behebung": 7649,
      "bump": 7650,
      "keen": 7651,
      "freezing": 7652,
      "passenger": 7653,
      "sofa": 7654,
      "programmed": 7655,
      "sunlight": 7656,
      "modifications": 7657,
      "hydro": 7658,
      "regardless": 7659,
      "Having": 7660,
      "handset": 7661,
      "gestartet": 7662,
      "nI": 7663,
      "operated": 7664,
      "extender": 7665,
      "casset": 7666,
      "uts": 7667,
      "tren": 7668,
      "windshield": 7669,
      "inef": 7670,
      "sights": 7671,
      "XXL": 7672,
      "Antivirus": 7673,
      "IOS": 7674,
      "xbox": 7675,
      "exe": 7676,
      "flame": 7677,
      "recommendation": 7678,
      "screwdriver": 7679,
      "grips": 7680,
      "FYI": 7681,
      "inverter": 7682,
      "opportunity": 7683,
      "74": 7684,
      "dispenser": 7685,
      "Olympus": 7686,
      "Rok": 7687,
      "wären": 7688,
      "nder": 7689,
      "quad": 7690,
      "dc": 7691,
      "flight": 7692,
      "ali": 7693,
      "mob": 7694,
      "miss": 7695,
      "solved": 7696,
      "choices": 7697,
      "Markenwach": 7698,
      "Shipping": 7699,
      "pointing": 7700,
      "telephone": 7701,
      "6000": 7702,
      "ratio": 7703,
      "china": 7704,
      "firmed": 7705,
      "EST": 7706,
      "Steel": 7707,
      "categ": 7708,
      "vic": 7709,
      "searching": 7710,
      "preferred": 7711,
      "Kundensupport": 7712,
      "Nutz": 7713,
      "Sk": 7714,
      "cakes": 7715,
      "lotion": 7716,
      "drip": 7717,
      "recipi": 7718,
      "Wish": 7719,
      "vertically": 7720,
      "wrink": 7721,
      "Total": 7722,
      "happening": 7723,
      "RC": 7724,
      "odd": 7725,
      "polyester": 7726,
      "xy": 7727,
      "notes": 7728,
      "marily": 7729,
      "gler": 7730,
      "reviewers": 7731,
      "Zahl": 7732,
      "lly": 7733,
      "replacements": 7734,
      "Mer": 7735,
      "php": 7736,
      "kungen": 7737,
      "represent": 7738,
      "delet": 7739,
      "atoes": 7740,
      "nip": 7741,
      "isk": 7742,
      "cope": 7743,
      "compatable": 7744,
      "LEDs": 7745,
      "PDF": 7746,
      "LC": 7747,
      "aked": 7748,
      "entirely": 7749,
      "Nice": 7750,
      "difficulty": 7751,
      "Monday": 7752,
      "Gree": 7753,
      "flick": 7754,
      "swap": 7755,
      "elsewhere": 7756,
      "stains": 7757,
      "vermeiden": 7758,
      "sq": 7759,
      "110v": 7760,
      "horse": 7761,
      "Bre": 7762,
      "mens": 7763,
      "closet": 7764,
      "fere": 7765,
      "benötigt": 7766,
      "ätze": 7767,
      "comparable": 7768,
      "Chevy": 7769,
      "animals": 7770,
      "treatment": 7771,
      "Either": 7772,
      "umfass": 7773,
      "casts": 7774,
      "macro": 7775,
      "4x": 7776,
      "phon": 7777,
      "semi": 7778,
      "acknowledge": 7779,
      "lide": 7780,
      "beautifully": 7781,
      "Termin": 7782,
      "enen": 7783,
      "span": 7784,
      "aur": 7785,
      "receipts": 7786,
      "82": 7787,
      "Ipod": 7788,
      "etary": 7789,
      "vacation": 7790,
      "sodium": 7791,
      "notebook": 7792,
      "adults": 7793,
      "burning": 7794,
      "vine": 7795,
      "emerg": 7796,
      "Met": 7797,
      "glow": 7798,
      "garbage": 7799,
      "Question": 7800,
      "Eine": 7801,
      "Pa": 7802,
      "meal": 7803,
      "reel": 7804,
      "allerg": 7805,
      "prozess": 7806,
      "RF": 7807,
      "lying": 7808,
      "summary": 7809,
      "golf": 7810,
      "Sam": 7811,
      "wob": 7812,
      "deploy": 7813,
      "decrease": 7814,
      "Based": 7815,
      "Zo": 7816,
      "alo": 7817,
      "moistur": 7818,
      "qt": 7819,
      "surge": 7820,
      "printers": 7821,
      "llets": 7822,
      "splitter": 7823,
      "anchor": 7824,
      "curved": 7825,
      "afford": 7826,
      "lifetime": 7827,
      "itarbeit": 7828,
      "NC": 7829,
      "qual": 7830,
      "foc": 7831,
      "ultane": 7832,
      "240V": 7833,
      "Better": 7834,
      "produced": 7835,
      "packing": 7836,
      "Unser": 7837,
      "crate": 7838,
      "interfere": 7839,
      "Art": 7840,
      "schnelle": 7841,
      "MH": 7842,
      "Sport": 7843,
      "ultim": 7844,
      "Systemen": 7845,
      "identifiz": 7846,
      "turntable": 7847,
      "Pretty": 7848,
      "Direct": 7849,
      "Mitarbeit": 7850,
      "circumference": 7851,
      "7000": 7852,
      "compet": 7853,
      "staff": 7854,
      "Process": 7855,
      "minor": 7856,
      "kritischen": 7857,
      "antic": 7858,
      "isition": 7859,
      "SDHC": 7860,
      "scooter": 7861,
      "MX": 7862,
      "commit": 7863,
      "safeguard": 7864,
      "selected": 7865,
      "ished": 7866,
      "5000": 7867,
      "afe": 7868,
      "transmission": 7869,
      "Efforts": 7870,
      "Tablet": 7871,
      "ONLY": 7872,
      "Cat": 7873,
      "ffer": 7874,
      "kte": 7875,
      "shif": 7876,
      "getreten": 7877,
      "swift": 7878,
      "tutorials": 7879,
      "Elastic": 7880,
      "quantity": 7881,
      "goal": 7882,
      "forever": 7883,
      "responsive": 7884,
      "learned": 7885,
      "aben": 7886,
      "failures": 7887,
      "comend": 7888,
      "YOU": 7889,
      "luxe": 7890,
      "Pet": 7891,
      "itu": 7892,
      "cabinets": 7893,
      "Attempts": 7894,
      "refurbished": 7895,
      "story": 7896,
      "Applic": 7897,
      "deleted": 7898,
      "Phi": 7899,
      "canvas": 7900,
      "Replacement": 7901,
      "horrible": 7902,
      "Price": 7903,
      "confidential": 7904,
      "63": 7905,
      "Mach": 7906,
      "Änder": 7907,
      "indicated": 7908,
      "verified": 7909,
      "shift": 7910,
      "mixing": 7911,
      "Nu": 7912,
      "parall": 7913,
      "primarily": 7914,
      "Fehl": 7915,
      "rates": 7916,
      "disconnect": 7917,
      "honda": 7918,
      "cigarette": 7919,
      "iTunes": 7920,
      "lting": 7921,
      "vap": 7922,
      "ori": 7923,
      "reffen": 7924,
      "Premium": 7925,
      "docking": 7926,
      "forums": 7927,
      "numer": 7928,
      "preser": 7929,
      "synthetic": 7930,
      "bler": 7931,
      "ened": 7932,
      "09": 7933,
      "Filter": 7934,
      "Altern": 7935,
      "licens": 7936,
      "mä": 7937,
      "requesting": 7938,
      "fog": 7939,
      "collection": 7940,
      "Scan": 7941,
      "sec": 7942,
      "weed": 7943,
      "obje": 7944,
      "facilitate": 7945,
      "mandatory": 7946,
      "confirmed": 7947,
      "knew": 7948,
      "1600": 7949,
      "Verschlüsselung": 7950,
      "agile": 7951,
      "specifics": 7952,
      "365": 7953,
      "TY": 7954,
      "ening": 7955,
      "äts": 7956,
      "claims": 7957,
      "toaster": 7958,
      "aufgetreten": 7959,
      "regulator": 7960,
      "Might": 7961,
      "mc": 7962,
      "dom": 7963,
      "showed": 7964,
      "Player": 7965,
      "kritisches": 7966,
      "recipient": 7967,
      "teles": 7968,
      "5x": 7969,
      "Bul": 7970,
      "Item": 7971,
      "goals": 7972,
      "NAS": 7973,
      "SAP": 7974,
      "lou": 7975,
      "sey": 7976,
      "forum": 7977,
      "inconsistent": 7978,
      "switching": 7979,
      "170": 7980,
      "tint": 7981,
      "ery": 7982,
      "simultane": 7983,
      "KS": 7984,
      "muf": 7985,
      "replaceable": 7986,
      "countries": 7987,
      "ittle": 7988,
      "aries": 7989,
      "Situation": 7990,
      "aches": 7991,
      "accessible": 7992,
      "WOR": 7993,
      "trips": 7994,
      "strictly": 7995,
      "Shop": 7996,
      "Tor": 7997,
      "bone": 7998,
      "git": 7999,
      "shave": 8000,
      "greater": 8001,
      "odak": 8002,
      "minimize": 8003,
      "foil": 8004,
      "ält": 8005,
      "paying": 8006,
      "mut": 8007,
      "stool": 8008,
      "steady": 8009,
      "iOS": 8010,
      "somehow": 8011,
      "impacted": 8012,
      "vise": 8013,
      "Kompatibilit": 8014,
      "GHz": 8015,
      "T3": 8016,
      "aler": 8017,
      "finds": 8018,
      "queue": 8019,
      "erreichen": 8020,
      "sere": 8021,
      "soften": 8022,
      "grown": 8023,
      "parent": 8024,
      "veness": 8025,
      "downtime": 8026,
      "AAA": 8027,
      "Geräte": 8028,
      "Master": 8029,
      "bringing": 8030,
      "0x": 8031,
      "pip": 8032,
      "Konfiguration": 8033,
      "CM": 8034,
      "Squ": 8035,
      "template": 8036,
      "ee": 8037,
      "interference": 8038,
      "softer": 8039,
      "Organic": 8040,
      "liefern": 8041,
      "Strategies": 8042,
      "Bri": 8043,
      "ata": 8044,
      "gging": 8045,
      "Mor": 8046,
      "zel": 8047,
      "Whats": 8048,
      "Baby": 8049,
      "orida": 8050,
      "closing": 8051,
      "born": 8052,
      "Neustart": 8053,
      "esium": 8054,
      "boys": 8055,
      "needing": 8056,
      "thoughts": 8057,
      "procedures": 8058,
      "Bericht": 8059,
      "managed": 8060,
      "elev": 8061,
      "Skype": 8062,
      "stability": 8063,
      "alle": 8064,
      "sock": 8065,
      "greSQL": 8066,
      "PostgreSQL": 8067,
      "rylic": 8068,
      "charcoal": 8069,
      "guidel": 8070,
      "Id": 8071,
      "caches": 8072,
      "booster": 8073,
      "television": 8074,
      "structure": 8075,
      "development": 8076,
      "throughout": 8077,
      "Unable": 8078,
      "Cell": 8079,
      "KE": 8080,
      "KI": 8081,
      "brew": 8082,
      "upgrading": 8083,
      "Wat": 8084,
      "slower": 8085,
      "Untersuch": 8086,
      "policies": 8087,
      "Empfehlungen": 8088,
      "ente": 8089,
      "nummer": 8090,
      "Den": 8091,
      "corpor": 8092,
      "hören": 8093,
      "Thx": 8094,
      "Hospital": 8095,
      "fins": 8096,
      "programming": 8097,
      "appeared": 8098,
      "temperatures": 8099,
      "query": 8100,
      "verfügbar": 8101,
      "invent": 8102,
      "coordin": 8103,
      "Services": 8104,
      "dishes": 8105,
      "Firewall": 8106,
      "interchangeable": 8107,
      "Mitarbeiter": 8108,
      "5c": 8109,
      "ebay": 8110,
      "ji": 8111,
      "fittings": 8112,
      "European": 8113,
      "glossy": 8114,
      "Bear": 8115,
      "supplies": 8116,
      "boiling": 8117,
      "vid": 8118,
      "apartment": 8119,
      "folg": 8120,
      "lemon": 8121,
      "playback": 8122,
      "beds": 8123,
      "optional": 8124,
      "arti": 8125,
      "1900": 8126,
      "Lie": 8127,
      "danger": 8128,
      "knees": 8129,
      "Stre": 8130,
      "swimming": 8131,
      "Cru": 8132,
      "s4": 8133,
      "lithium": 8134,
      "appliance": 8135,
      "Rug": 8136,
      "slo": 8137,
      "50mm": 8138,
      "shipment": 8139,
      "Point": 8140,
      "mins": 8141,
      "SW": 8142,
      "wore": 8143,
      "foods": 8144,
      "Center": 8145,
      "Def": 8146,
      "Who": 8147,
      "Oracle": 8148,
      "Last": 8149,
      "insufficient": 8150,
      "Basically": 8151,
      "Niss": 8152,
      "pha": 8153,
      "versus": 8154,
      "Span": 8155,
      "possibility": 8156,
      "Elasticsearch": 8157,
      "aught": 8158,
      "photography": 8159,
      "discounts": 8160,
      "notify": 8161,
      "mile": 8162,
      "Unsere": 8163,
      "Ram": 8164,
      "workflows": 8165,
      "Hopefully": 8166,
      "compromis": 8167,
      "4000": 8168,
      "driven": 8169,
      "unserem": 8170,
      "loops": 8171,
      "GRE": 8172,
      "Pres": 8173,
      "wake": 8174,
      "cookware": 8175,
      "carried": 8176,
      "buckle": 8177,
      "palm": 8178,
      "department": 8179,
      "drinking": 8180,
      "LN": 8181,
      "pairing": 8182,
      "scrap": 8183,
      "anticip": 8184,
      "Ipad": 8185,
      "opposed": 8186,
      "cit": 8187,
      "pending": 8188,
      "town": 8189,
      "scrub": 8190,
      "brakes": 8191,
      "Care": 8192,
      "hu": 8193,
      "achen": 8194,
      "recovery": 8195,
      "unsure": 8196,
      "illumin": 8197,
      "lighted": 8198,
      "4GB": 8199,
      "Sigma": 8200,
      "eight": 8201,
      "intake": 8202,
      "mediate": 8203,
      "380": 8204,
      "pleas": 8205,
      "cells": 8206,
      "Commer": 8207,
      "ths": 8208,
      "unction": 8209,
      "DW": 8210,
      "Stain": 8211,
      "amond": 8212,
      "collect": 8213,
      "Control": 8214,
      "Ents": 8215,
      "Nissan": 8216,
      "tifiz": 8217,
      "backwards": 8218,
      "crap": 8219,
      "sister": 8220,
      "Wonder": 8221,
      "promo": 8222,
      "Want": 8223,
      "recl": 8224,
      "activities": 8225,
      "fishing": 8226,
      "regulations": 8227,
      "spezifische": 8228,
      "kti": 8229,
      "thigh": 8230,
      "stim": 8231,
      "survi": 8232,
      "tune": 8233,
      "Proto": 8234,
      "Fehlerbehe": 8235,
      "Mus": 8236,
      "incredi": 8237,
      "avid": 8238,
      "hinges": 8239,
      "algorithm": 8240,
      "TE": 8241,
      "TP": 8242,
      "hip": 8243,
      "timecard": 8244,
      "requisition": 8245,
      "crad": 8246,
      "human": 8247,
      "removal": 8248,
      "studs": 8249,
      "frequent": 8250,
      "iest": 8251,
      "edit": 8252,
      "bestä": 8253,
      "mäß": 8254,
      "verse": 8255,
      "ppy": 8256,
      "Einstellungen": 8257,
      "foll": 8258,
      "ffe": 8259,
      "pli": 8260,
      "selection": 8261,
      "aftermarket": 8262,
      "wedding": 8263,
      "kayak": 8264,
      "circul": 8265,
      "beigefüg": 8266,
      "Mart": 8267,
      "ik": 8268,
      "openings": 8269,
      "Val": 8270,
      "names": 8271,
      "closes": 8272,
      "Systema": 8273,
      "Bit": 8274,
      "bake": 8275,
      "Polar": 8276,
      "bisher": 8277,
      "Cuisinart": 8278,
      "uer": 8279,
      "Program": 8280,
      "aturally": 8281,
      "kg": 8282,
      "mise": 8283,
      "nom": 8284,
      "lengths": 8285,
      "Tel": 8286,
      "mos": 8287,
      "mute": 8288,
      "fees": 8289,
      "remotes": 8290,
      "tanks": 8291,
      "120V": 8292,
      "lunch": 8293,
      "States": 8294,
      "GM": 8295,
      "perfume": 8296,
      "guides": 8297,
      "sicherhe": 8298,
      "Sand": 8299,
      "nWir": 8300,
      "zug": 8301,
      "Mat": 8302,
      "gut": 8303,
      "camp": 8304,
      "trial": 8305,
      "Anleitung": 8306,
      "nutr": 8307,
      "earbuds": 8308,
      "Device": 8309,
      "9mm": 8310,
      "Dif": 8311,
      "among": 8312,
      "advertising": 8313,
      "Trotz": 8314,
      "rule": 8315,
      "apparently": 8316,
      "loads": 8317,
      "ficial": 8318,
      "blocking": 8319,
      "HR": 8320,
      "LP": 8321,
      "article": 8322,
      "TX": 8323,
      "marking": 8324,
      "ISO": 8325,
      "wick": 8326,
      "bullet": 8327,
      "emergency": 8328,
      "soll": 8329,
      "intend": 8330,
      "relay": 8331,
      "frequencies": 8332,
      "Überprüfung": 8333,
      "91": 8334,
      "amber": 8335,
      "Roku": 8336,
      "entity": 8337,
      "popular": 8338,
      "insulated": 8339,
      "Origin": 8340,
      "Cra": 8341,
      "GMO": 8342,
      "seas": 8343,
      "TVs": 8344,
      "necessarily": 8345,
      "Manufact": 8346,
      "Produkte": 8347,
      "gentle": 8348,
      "toss": 8349,
      "forced": 8350,
      "detergent": 8351,
      "Perfect": 8352,
      "consumer": 8353,
      "verhindern": 8354,
      "Ok": 8355,
      "mild": 8356,
      "Anpass": 8357,
      "bling": 8358,
      "budget": 8359,
      "ampli": 8360,
      "spark": 8361,
      "110V": 8362,
      "birthday": 8363,
      "fax": 8364,
      "isol": 8365,
      "skirt": 8366,
      "shortly": 8367,
      "healthy": 8368,
      "Funktionen": 8369,
      "interessiert": 8370,
      "Professional": 8371,
      "fallen": 8372,
      "temps": 8373,
      "modes": 8374,
      "ankle": 8375,
      "Steps": 8376,
      "procedure": 8377,
      "TM": 8378,
      "enabled": 8379,
      "RX": 8380,
      "flashes": 8381,
      "Zoom": 8382,
      "enhancements": 8383,
      "Though": 8384,
      "rill": 8385,
      "opinions": 8386,
      "seperate": 8387,
      "Active": 8388,
      "Double": 8389,
      "fad": 8390,
      "thermal": 8391,
      "mption": 8392,
      "calendar": 8393,
      "initially": 8394,
      "Breach": 8395,
      "acco": 8396,
      "verwenden": 8397,
      "weekly": 8398,
      "piz": 8399,
      "flawless": 8400,
      "WITH": 8401,
      "JI": 8402,
      "ito": 8403,
      "itiv": 8404,
      "asma": 8405,
      "tied": 8406,
      "gum": 8407,
      "evenly": 8408,
      "betroffenen": 8409,
      "amounts": 8410,
      "brighter": 8411,
      "ashes": 8412,
      "central": 8413,
      "displays": 8414,
      "modified": 8415,
      "malfunction": 8416,
      "relie": 8417,
      "chew": 8418,
      "steamer": 8419,
      "remaining": 8420,
      "Werkzeuge": 8421,
      "gonna": 8422,
      "neutral": 8423,
      "Dyn": 8424,
      "evening": 8425,
      "inconsistencies": 8426,
      "Food": 8427,
      "diffuser": 8428,
      "industry": 8429,
      "Nutzung": 8430,
      "tuck": 8431,
      "Japanese": 8432,
      "Short": 8433,
      "route": 8434,
      "gehende": 8435,
      "None": 8436,
      "United": 8437,
      "Cache": 8438,
      "zt": 8439,
      "Australia": 8440,
      "pulls": 8441,
      "Excel": 8442,
      "fälle": 8443,
      "Got": 8444,
      "stä": 8445,
      "cub": 8446,
      "corre": 8447,
      "knobs": 8448,
      "forgot": 8449,
      "leads": 8450,
      "Sicherung": 8451,
      "Again": 8452,
      "PR": 8453,
      "foo": 8454,
      "pg": 8455,
      "exist": 8456,
      "inet": 8457,
      "ftsman": 8458,
      "cheidungen": 8459,
      "nommen": 8460,
      "Cher": 8461,
      "Ku": 8462,
      "Tar": 8463,
      "erfol": 8464,
      "cycles": 8465,
      "locate": 8466,
      "processed": 8467,
      "Florida": 8468,
      "bicycle": 8469,
      "ision": 8470,
      "betr": 8471,
      "Before": 8472,
      "faced": 8473,
      "itivity": 8474,
      "glit": 8475,
      "cuff": 8476,
      "absorb": 8477,
      "pine": 8478,
      "worst": 8479,
      "colum": 8480,
      "clay": 8481,
      "preference": 8482,
      "Dieser": 8483,
      "Printer": 8484,
      "aktualisiert": 8485,
      "fragrance": 8486,
      "Jet": 8487,
      "Mode": 8488,
      "instrument": 8489,
      "FS": 8490,
      "agate": 8491,
      "lightning": 8492,
      "legal": 8493,
      "4S": 8494,
      "aspect": 8495,
      "propri": 8496,
      "whenever": 8497,
      "beigefügt": 8498,
      "cin": 8499,
      "entries": 8500,
      "Rock": 8501,
      "Keyboard": 8502,
      "meiner": 8503,
      "def": 8504,
      "ava": 8505,
      "Anybody": 8506,
      "fenster": 8507,
      "Möglich": 8508,
      "pepper": 8509,
      "UPS": 8510,
      "ita": 8511,
      "tock": 8512,
      "verizon": 8513,
      "weird": 8514,
      "smoothly": 8515,
      "Pol": 8516,
      "circular": 8517,
      "macOS": 8518,
      "ury": 8519,
      "contribut": 8520,
      "portra": 8521,
      "rectangular": 8522,
      "arium": 8523,
      "dollar": 8524,
      "simultaneously": 8525,
      "kers": 8526,
      "obach": 8527,
      "blood": 8528,
      "tegri": 8529,
      "Remote": 8530,
      "vapor": 8531,
      "ändig": 8532,
      "LTE": 8533,
      "geschätz": 8534,
      "83": 8535,
      "Pay": 8536,
      "Zug": 8537,
      "kürz": 8538,
      "Jack": 8539,
      "dad": 8540,
      "tages": 8541,
      "unternommen": 8542,
      "Initial": 8543,
      "noon": 8544,
      "unsuccessful": 8545,
      "explorer": 8546,
      "Nut": 8547,
      "archite": 8548,
      "suspected": 8549,
      "Bosch": 8550,
      "Av": 8551,
      "stress": 8552,
      "suits": 8553,
      "Hot": 8554,
      "Bob": 8555,
      "upid": 8556,
      "Instru": 8557,
      "specified": 8558,
      "parallel": 8559,
      "Day": 8560,
      "mitteilen": 8561,
      "ERP": 8562,
      "kyo": 8563,
      "Switch": 8564,
      "alog": 8565,
      "ski": 8566,
      "grocer": 8567,
      "Spanish": 8568,
      "During": 8569,
      "Kodak": 8570,
      "Search": 8571,
      "ensuring": 8572,
      "heute": 8573,
      "toe": 8574,
      "cleans": 8575,
      "French": 8576,
      "bundle": 8577,
      "extr": 8578,
      "Watt": 8579,
      "tends": 8580,
      "convers": 8581,
      "LAN": 8582,
      "zeig": 8583,
      "FO": 8584,
      "strange": 8585,
      "luggage": 8586,
      "Sounds": 8587,
      "Measure": 8588,
      "cpu": 8589,
      "lifting": 8590,
      "thermometer": 8591,
      "73": 8592,
      "Qual": 8593,
      "Sty": 8594,
      "trade": 8595,
      "porch": 8596,
      "Hardware": 8597,
      "cassette": 8598,
      "Nok": 8599,
      "ctiveness": 8600,
      "ussion": 8601,
      "gently": 8602,
      "urig": 8603,
      "Dodge": 8604,
      "specially": 8605,
      "zeiten": 8606,
      "employees": 8607,
      "caution": 8608,
      "slic": 8609,
      "perior": 8610,
      "Comput": 8611,
      "clicking": 8612,
      "rigid": 8613,
      "Bra": 8614,
      "pean": 8615,
      "impres": 8616,
      "instant": 8617,
      "Therefore": 8618,
      "cube": 8619,
      "pops": 8620,
      "einige": 8621,
      "frost": 8622,
      "fps": 8623,
      "inseam": 8624,
      "curl": 8625,
      "attack": 8626,
      "Stainless": 8627,
      "doctor": 8628,
      "ulous": 8629,
      "Natural": 8630,
      "sea": 8631,
      "besten": 8632,
      "positions": 8633,
      "poon": 8634,
      "Inclu": 8635,
      "Schritt": 8636,
      "Dur": 8637,
      "Tre": 8638,
      "äh": 8639,
      "diaper": 8640,
      "english": 8641,
      "hopefully": 8642,
      "rier": 8643,
      "speaking": 8644,
      "Sus": 8645,
      "Docker": 8646,
      "voir": 8647,
      "Diskussion": 8648,
      "buntu": 8649,
      "LX": 8650,
      "sug": 8651,
      "addresses": 8652,
      "bubble": 8653,
      "patience": 8654,
      "candy": 8655,
      "thoroughly": 8656,
      "girls": 8657,
      "follows": 8658,
      "Next": 8659,
      "disabled": 8660,
      "protecting": 8661,
      "Mil": 8662,
      "haf": 8663,
      "makeup": 8664,
      "hide": 8665,
      "Body": 8666,
      "DSC": 8667,
      "ugen": 8668,
      "stars": 8669,
      "archi": 8670,
      "superior": 8671,
      "Front": 8672,
      "virtual": 8673,
      "severe": 8674,
      "beobach": 8675,
      "ician": 8676,
      "olds": 8677,
      "closely": 8678,
      "pository": 8679,
      "Application": 8680,
      "guidelines": 8681,
      "dump": 8682,
      "letzten": 8683,
      "Apr": 8684,
      "Cut": 8685,
      "PVC": 8686,
      "reaches": 8687,
      "queries": 8688,
      "Compatible": 8689,
      "MAT": 8690,
      "lagen": 8691,
      "tritt": 8692,
      "dye": 8693,
      "consistent": 8694,
      "vibration": 8695,
      "Machine": 8696,
      "pumps": 8697,
      "antom": 8698,
      "ara": 8699,
      "Ihrem": 8700,
      "substan": 8701,
      "i7": 8702,
      "asap": 8703,
      "pler": 8704,
      "disks": 8705,
      "Ubuntu": 8706,
      "hill": 8707,
      "mers": 8708,
      "mock": 8709,
      "0000": 8710,
      "aces": 8711,
      "excess": 8712,
      "Rich": 8713,
      "ork": 8714,
      "complic": 8715,
      "shuts": 8716,
      "Nokia": 8717,
      "EZ": 8718,
      "butt": 8719,
      "Betriebs": 8720,
      "vegg": 8721,
      "BMW": 8722,
      "Tex": 8723,
      "itter": 8724,
      "acrylic": 8725,
      "1999": 8726,
      "View": 8727,
      "logging": 8728,
      "terminal": 8729,
      "Pioneer": 8730,
      "tric": 8731,
      "toyota": 8732,
      "bate": 8733,
      "gling": 8734,
      "reduced": 8735,
      "ros": 8736,
      "sensi": 8737,
      "yogurt": 8738,
      "eating": 8739,
      "paddle": 8740,
      "edia": 8741,
      "gredi": 8742,
      "128": 8743,
      "cradle": 8744,
      "CK": 8745,
      "Zeitfenster": 8746,
      "puppy": 8747,
      "Database": 8748,
      "daran": 8749,
      "Costco": 8750,
      "Pent": 8751,
      "Used": 8752,
      "Wave": 8753,
      "clue": 8754,
      "distor": 8755,
      "magazine": 8756,
      "engr": 8757,
      "LS": 8758,
      "mü": 8759,
      "ensity": 8760,
      "cris": 8761,
      "angles": 8762,
      "magic": 8763,
      "involving": 8764,
      "effectiveness": 8765,
      "planned": 8766,
      "sensitivity": 8767,
      "strongly": 8768,
      "permanently": 8769,
      "Desktop": 8770,
      "trends": 8771,
      "auty": 8772,
      "discovered": 8773,
      "Someone": 8774,
      "Anwendung": 8775,
      "inventory": 8776,
      "aperture": 8777,
      "stamped": 8778,
      "Pal": 8779,
      "tility": 8780,
      "refers": 8781,
      "sicherzustellen": 8782,
      "Analysis": 8783,
      "unerwar": 8784,
      "Elite": 8785,
      "Fre": 8786,
      "Wide": 8787,
      "Unterbrech": 8788,
      "dolls": 8789,
      "ashion": 8790,
      "news": 8791,
      "Ingredi": 8792,
      "spiron": 8793,
      "510": 8794,
      "assure": 8795,
      "icial": 8796,
      "intro": 8797,
      "cane": 8798,
      "shoulders": 8799,
      "operational": 8800,
      "888": 8801,
      "Finanz": 8802,
      "sph": 8803,
      "fusion": 8804,
      "lage": 8805,
      "ACT": 8806,
      "Sicherheitsprotokolle": 8807,
      "Redis": 8808,
      "humidifier": 8809,
      "Base": 8810,
      "lung": 8811,
      "mechanical": 8812,
      "Britax": 8813,
      "oval": 8814,
      "Given": 8815,
      "FA": 8816,
      "Sprint": 8817,
      "gps": 8818,
      "nur": 8819,
      "soda": 8820,
      "ggles": 8821,
      "pause": 8822,
      "mirrors": 8823,
      "tast": 8824,
      "benef": 8825,
      "Schutz": 8826,
      "ohms": 8827,
      "flavors": 8828,
      "Trying": 8829,
      "Portal": 8830,
      "command": 8831,
      "16GB": 8832,
      "Ima": 8833,
      "Shot": 8834,
      "caught": 8835,
      "135": 8836,
      "Design": 8837,
      "Creative": 8838,
      "cock": 8839,
      "buffer": 8840,
      "sponge": 8841,
      "Order": 8842,
      "flashing": 8843,
      "prüfen": 8844,
      "compartments": 8845,
      "lg": 8846,
      "mud": 8847,
      "Follow": 8848,
      "3x": 8849,
      "Stra": 8850,
      "ße": 8851,
      "shoo": 8852,
      "repeat": 8853,
      "DDR3": 8854,
      "mehrere": 8855,
      "scalability": 8856,
      "4x4": 8857,
      "meets": 8858,
      "anted": 8859,
      "solder": 8860,
      "unique": 8861,
      "arrows": 8862,
      "substantial": 8863,
      "hex": 8864,
      "spinning": 8865,
      "Boo": 8866,
      "VES": 8867,
      "dumb": 8868,
      "modern": 8869,
      "airplane": 8870,
      "Cheers": 8871,
      "pickup": 8872,
      "continuously": 8873,
      "chains": 8874,
      "plywood": 8875,
      "zard": 8876,
      "whose": 8877,
      "hur": 8878,
      "splash": 8879,
      "soup": 8880,
      "pellets": 8881,
      "izes": 8882,
      "partition": 8883,
      "complex": 8884,
      "AK": 8885,
      "Tim": 8886,
      "avel": 8887,
      "weisungen": 8888,
      "MD": 8889,
      "s3": 8890,
      "mond": 8891,
      "heats": 8892,
      "Watts": 8893,
      "GS": 8894,
      "Line": 8895,
      "bush": 8896,
      "sling": 8897,
      "hassle": 8898,
      "administration": 8899,
      "zation": 8900,
      "ario": 8901,
      "touching": 8902,
      "Germany": 8903,
      "identifying": 8904,
      "WO": 8905,
      "incompatible": 8906,
      "Poly": 8907,
      "aktualisieren": 8908,
      "toxic": 8909,
      "Cook": 8910,
      "aa": 8911,
      "recess": 8912,
      "ifft": 8913,
      "earphones": 8914,
      "GREAT": 8915,
      "beneficial": 8916,
      "invo": 8917,
      "withstand": 8918,
      "glare": 8919,
      "receivers": 8920,
      "2100": 8921,
      "bounce": 8922,
      "escent": 8923,
      "sym": 8924,
      "horizontally": 8925,
      "Untersuchung": 8926,
      "David": 8927,
      "stickers": 8928,
      "laying": 8929,
      "literally": 8930,
      "spacing": 8931,
      "Engagement": 8932,
      "81": 8933,
      "blind": 8934,
      "underside": 8935,
      "demand": 8936,
      "Poten": 8937,
      "Prior": 8938,
      "vegetable": 8939,
      "detachable": 8940,
      "2G": 8941,
      "Cisco": 8942,
      "stupid": 8943,
      "wirelessly": 8944,
      "inquiring": 8945,
      "esse": 8946,
      "ington": 8947,
      "heet": 8948,
      "juic": 8949,
      "latex": 8950,
      "Störungen": 8951,
      "wild": 8952,
      "Investitionen": 8953,
      "prongs": 8954,
      "honey": 8955,
      "reboot": 8956,
      "arts": 8957,
      "cancell": 8958,
      "cooktop": 8959,
      "4g": 8960,
      "Glock": 8961,
      "extends": 8962,
      "retina": 8963,
      "Ed": 8964,
      "kün": 8965,
      "foundation": 8966,
      "lense": 8967,
      "Mex": 8968,
      "vd": 8969,
      "ARE": 8970,
      "Glass": 8971,
      "picious": 8972,
      "wallet": 8973,
      "tricky": 8974,
      "servings": 8975,
      "Much": 8976,
      "Anyway": 8977,
      "discount": 8978,
      "FI": 8979,
      "ras": 8980,
      "painting": 8981,
      "laminate": 8982,
      "Smar": 8983,
      "jer": 8984,
      "Cannot": 8985,
      "lax": 8986,
      "Approx": 8987,
      "Miner": 8988,
      "lumens": 8989,
      "1100": 8990,
      "excel": 8991,
      "Greetings": 8992,
      "manufacturing": 8993,
      "betrifft": 8994,
      "Teams": 8995,
      "balanced": 8996,
      "dries": 8997,
      "babies": 8998,
      "numerous": 8999,
      "South": 9000,
      "fm": 9001,
      "uations": 9002,
      "recover": 9003,
      "variable": 9004,
      "louder": 9005,
      "2GB": 9006,
      "Sever": 9007,
      "bis": 9008,
      "exc": 9009,
      "coats": 9010,
      "ensor": 9011,
      "Force": 9012,
      "booklet": 9013,
      "Volt": 9014,
      "April": 9015,
      "repository": 9016,
      "rocks": 9017,
      "Oc": 9018,
      "attr": 9019,
      "teach": 9020,
      "voll": 9021,
      "35mm": 9022,
      "teas": 9023,
      "somebody": 9024,
      "India": 9025,
      "vinegar": 9026,
      "Wind": 9027,
      "nity": 9028,
      "integri": 9029,
      "resetting": 9030,
      "torque": 9031,
      "World": 9032,
      "combined": 9033,
      "Mid": 9034,
      "naturally": 9035,
      "overheating": 9036,
      "missed": 9037,
      "liners": 9038,
      "drilling": 9039,
      "zahl": 9040,
      "proprietary": 9041,
      "künf": 9042,
      "amboo": 9043,
      "agre": 9044,
      "spir": 9045,
      "walker": 9046,
      "ptionen": 9047,
      "Otterbox": 9048,
      "crow": 9049,
      "TC": 9050,
      "camper": 9051,
      "optimal": 9052,
      "snugly": 9053,
      "vegetables": 9054,
      "false": 9055,
      "category": 9056,
      "taper": 9057,
      "composite": 9058,
      "Universal": 9059,
      "assets": 9060,
      "ools": 9061,
      "overseas": 9062,
      "newest": 9063,
      "atted": 9064,
      "irl": 9065,
      "breakdown": 9066,
      "feeding": 9067,
      "SLR": 9068,
      "piano": 9069,
      "Vir": 9070,
      "vom": 9071,
      "theater": 9072,
      "teten": 9073,
      "jeans": 9074,
      "matters": 9075,
      "Adjust": 9076,
      "join": 9077,
      "refills": 9078,
      "begann": 9079,
      "Ive": 9080,
      "decal": 9081,
      "zukommen": 9082,
      "Square": 9083,
      "Fan": 9084,
      "chuck": 9085,
      "ACK": 9086,
      "AU": 9087,
      "fade": 9088,
      "leep": 9089,
      "BU": 9090,
      "uc": 9091,
      "dull": 9092,
      "produces": 9093,
      "premium": 9094,
      "park": 9095,
      "besch": 9096,
      "tood": 9097,
      "Wii": 9098,
      "occasional": 9099,
      "Sharp": 9100,
      "260": 9101,
      "5S": 9102,
      "tack": 9103,
      "rein": 9104,
      "rels": 9105,
      "Soft": 9106,
      "temporäre": 9107,
      "Electric": 9108,
      "MySQL": 9109,
      "clim": 9110,
      "submer": 9111,
      "otterbox": 9112,
      "sciss": 9113,
      "isan": 9114,
      "enny": 9115,
      "squir": 9116,
      "slipper": 9117,
      "SB": 9118,
      "anrufen": 9119,
      "tired": 9120,
      "una": 9121,
      "buyer": 9122,
      "G2": 9123,
      "ece": 9124,
      "mul": 9125,
      "jewel": 9126,
      "improving": 9127,
      "Commerce": 9128,
      "NT": 9129,
      "fg": 9130,
      "äge": 9131,
      "poll": 9132,
      "101": 9133,
      "goods": 9134,
      "slats": 9135,
      "Verbindung": 9136,
      "Bottom": 9137,
      "Systemaus": 9138,
      "dongle": 9139,
      "kingdom": 9140,
      "wirkungen": 9141,
      "Technical": 9142,
      "awkward": 9143,
      "H2": 9144,
      "sci": 9145,
      "carries": 9146,
      "vitam": 9147,
      "terminals": 9148,
      "pizza": 9149,
      "Sep": 9150,
      "fountain": 9151,
      "chevy": 9152,
      "netbook": 9153,
      "realized": 9154,
      "5D": 9155,
      "Eco": 9156,
      "fum": 9157,
      "mable": 9158,
      "tum": 9159,
      "zung": 9160,
      "mega": 9161,
      "carafe": 9162,
      "reservoir": 9163,
      "explan": 9164,
      "cleared": 9165,
      "North": 9166,
      "bubbles": 9167,
      "fashion": 9168,
      "shuffle": 9169,
      "insulation": 9170,
      "bacteria": 9171,
      "3M": 9172,
      "330": 9173,
      "reeze": 9174,
      "breath": 9175,
      "ongoing": 9176,
      "resulting": 9177,
      "chlorine": 9178,
      "rejected": 9179,
      "520": 9180,
      "helping": 9181,
      "behält": 9182,
      "nexus": 9183,
      "Flex": 9184,
      "hatch": 9185,
      "spi": 9186,
      "Änderungen": 9187,
      "sauce": 9188,
      "erhö": 9189,
      "ination": 9190,
      "cement": 9191,
      "popping": 9192,
      "appli": 9193,
      "Recently": 9194,
      "brief": 9195,
      "hidden": 9196,
      "serves": 9197,
      "layou": 9198,
      "offering": 9199,
      "durchgeführt": 9200,
      "sample": 9201,
      "identifizieren": 9202,
      "yx": 9203,
      "acou": 9204,
      "dos": 9205,
      "eliminate": 9206,
      "Ele": 9207,
      "rose": 9208,
      "Worked": 9209,
      "Lithium": 9210,
      "Störung": 9211,
      "uk": 9212,
      "Pat": 9213,
      "papers": 9214,
      "unlike": 9215,
      "drawing": 9216,
      "Picture": 9217,
      "Ener": 9218,
      "sag": 9219,
      "guest": 9220,
      "differently": 9221,
      "heavily": 9222,
      "chtzeit": 9223,
      "Ruger": 9224,
      "patterns": 9225,
      "AZ": 9226,
      "LM": 9227,
      "bron": 9228,
      "calcium": 9229,
      "Immediate": 9230,
      "disruption": 9231,
      "Plastic": 9232,
      "Cyber": 9233,
      "dringende": 9234,
      "plum": 9235,
      "vene": 9236,
      "sprink": 9237,
      "increasing": 9238,
      "Furthermore": 9239,
      "prob": 9240,
      "grinding": 9241,
      "cycling": 9242,
      "Non": 9243,
      "hers": 9244,
      "1911": 9245,
      "Acid": 9246,
      "ps3": 9247,
      "faulty": 9248,
      "Zugang": 9249,
      "Stor": 9250,
      "dinner": 9251,
      "Parts": 9252,
      "werkze": 9253,
      "artificial": 9254,
      "Fäh": 9255,
      "CX": 9256,
      "js": 9257,
      "Cent": 9258,
      "earth": 9259,
      "spoon": 9260,
      "Required": 9261,
      "Grow": 9262,
      "density": 9263,
      "experiment": 9264,
      "suited": 9265,
      "submitting": 9266,
      "Rechnungs": 9267,
      "5V": 9268,
      "ib": 9269,
      "verzöger": 9270,
      "zukünf": 9271,
      "hiking": 9272,
      "LA": 9273,
      "guards": 9274,
      "webs": 9275,
      "brushed": 9276,
      "Stere": 9277,
      "stood": 9278,
      "istles": 9279,
      "whatso": 9280,
      "clusive": 9281,
      "objects": 9282,
      "downs": 9283,
      "destroy": 9284,
      "treadmill": 9285,
      "medic": 9286,
      "crush": 9287,
      "Aktualisierungen": 9288,
      "vulnerability": 9289,
      "Rub": 9290,
      "ek": 9291,
      "hungen": 9292,
      "bleed": 9293,
      "tons": 9294,
      "cubes": 9295,
      "pitcher": 9296,
      "Several": 9297,
      "mist": 9298,
      "duplic": 9299,
      "protects": 9300,
      "pilot": 9301,
      "Solu": 9302,
      "contained": 9303,
      "activation": 9304,
      "hey": 9305,
      "skates": 9306,
      "diesen": 9307,
      "Ingredients": 9308,
      "slippery": 9309,
      "yield": 9310,
      "inadequate": 9311,
      "Vertrau": 9312,
      "hitting": 9313,
      "poorly": 9314,
      "whatsoever": 9315,
      "hardly": 9316,
      "utilizing": 9317,
      "Start": 9318,
      "protectors": 9319,
      "stayed": 9320,
      "Vors": 9321,
      "shorten": 9322,
      "Train": 9323,
      "ulate": 9324,
      "purchases": 9325,
      "ufen": 9326,
      "filtering": 9327,
      "rarely": 9328,
      "flich": 9329,
      "descriptions": 9330,
      "tests": 9331,
      "Auswirkungen": 9332,
      "limits": 9333,
      "prepared": 9334,
      "Aqu": 9335,
      "portal": 9336,
      "60Hz": 9337,
      "washers": 9338,
      "session": 9339,
      "hina": 9340,
      "Ins": 9341,
      "flon": 9342,
      "Sho": 9343,
      "absence": 9344,
      "neighbor": 9345,
      "hinaus": 9346,
      "Purch": 9347,
      "rene": 9348,
      "enge": 9349,
      "scanning": 9350,
      "efficiently": 9351,
      "korre": 9352,
      "mt": 9353,
      "pat": 9354,
      "Ans": 9355,
      "surve": 9356,
      "WHAT": 9357,
      "moder": 9358,
      "lightly": 9359,
      "Chan": 9360,
      "equipped": 9361,
      "hunting": 9362,
      "June": 9363,
      "190": 9364,
      "leash": 9365,
      "lion": 9366,
      "examples": 9367,
      "geschätzt": 9368,
      "seven": 9369,
      "buch": 9370,
      "upcoming": 9371,
      "pected": 9372,
      "maternity": 9373,
      "Lock": 9374,
      "July": 9375,
      "Mc": 9376,
      "requirement": 9377,
      "strainer": 9378,
      "3g": 9379,
      "Bag": 9380,
      "sockets": 9381,
      "landscape": 9382,
      "Computer": 9383,
      "NY": 9384,
      "gang": 9385,
      "zo": 9386,
      "eller": 9387,
      "whereas": 9388,
      "headlights": 9389,
      "Anything": 9390,
      "unseres": 9391,
      "physically": 9392,
      "carriers": 9393,
      "richtig": 9394,
      "Droid": 9395,
      "Integrität": 9396,
      "appearance": 9397,
      "glued": 9398,
      "mineral": 9399,
      "DP": 9400,
      "Für": 9401,
      "äten": 9402,
      "keine": 9403,
      "presentation": 9404,
      "Dro": 9405,
      "weap": 9406,
      "Weber": 9407,
      "typing": 9408,
      "Review": 9409,
      "ktur": 9410,
      "gehend": 9411,
      "searched": 9412,
      "audits": 9413,
      "grav": 9414,
      "ocular": 9415,
      "trucks": 9416,
      "Such": 9417,
      "flying": 9418,
      "Magic": 9419,
      "Philips": 9420,
      "panasonic": 9421,
      "community": 9422,
      "Darüber": 9423,
      "Dan": 9424,
      "uss": 9425,
      "conflicting": 9426,
      "history": 9427,
      "B000": 9428,
      "rower": 9429,
      "casters": 9430,
      "conducted": 9431,
      "Portable": 9432,
      "Billing": 9433,
      "Si": 9434,
      "nit": 9435,
      "weren": 9436,
      "breast": 9437,
      "joint": 9438,
      "Strategie": 9439,
      "hoben": 9440,
      "TG": 9441,
      "XX": 9442,
      "x2": 9443,
      "lder": 9444,
      "quilt": 9445,
      "Telefonnummer": 9446,
      "beginner": 9447,
      "lauf": 9448,
      "passed": 9449,
      "sprayed": 9450,
[...]
