{
  "version": "1.0",
  "truncation": null,
  "padding": null,
  "added_tokens": [
    {
      "id": 0,
      "content": "<pad>",
      "single_word": false,
      "lstrip": false,
      "rstrip": false,
      "normalized": false,
      "special": true
    },
    {
      "id": 1,
      "content": "<unk>",
      "single_word": false,
      "lstrip": false,
      "rstrip": false,
      "normalized": false,
      "special": true
    },
    {
      "id": 2,
      "content": "<s>",
      "single_word": false,
      "lstrip": false,
      "rstrip": false,
      "normalized": false,
      "special": true
    },
    {
      "id": 3,
      "content": "</s>",
      "single_word": false,
      "lstrip": false,
      "rstrip": false,
      "normalized": false,
      "special": true
    }
  ],
  "normalizer": {
    "type": "Sequence",
    "normalizers": [
      {
        "type": "NFKC"
      }
    ]
  },
  "pre_tokenizer": {
    "type": "ByteLevel",
    "add_prefix_space": false,
    "trim_offsets": true,
    "use_regex": true
  },
  "post_processor": null,
  "decoder": {
    "type": "ByteLevel",
    "add_prefix_space": true,
    "trim_offsets": true,
    "use_regex": true
  },
  "model": {
    "type": "BPE",
    "dropout": null,
    "unk_token": "<unk>",
    "continuing_subword_prefix": null,
    "end_of_word_suffix": null,
    "fuse_unk": false,
    "byte_fallback": false,
    "ignore_merges": false,
    "vocab": {
      "<pad>": 0,
      "<unk>": 1,
      "<s>": 2,
      "</s>": 3,
      "!": 4,
      "\"": 5,
      "#": 6,
      "$": 7,
      "%": 8,
      "&": 9,
      "'": 10,
      "(": 11,
      ")": 12,
      "*": 13,
      "+": 14,
      ",": 15,
      "-": 16,
      ".": 17,
      "/": 18,
      "0": 19,
      "1": 20,
      "2": 21,
      "3": 22,
      "4": 23,
      "5": 24,
      "6": 25,
      "7": 26,
      "8": 27,
      "9": 28,
      ":": 29,
      ";": 30,
      "<": 31,
      "=": 32,
      ">": 33,
      "?": 34,
      "@": 35,
      "A": 36,
      "B": 37,
      "C": 38,
      "D": 39,
      "E": 40,
      "F": 41,
      "G": 42,
      "H": 43,
      "I": 44,
      "J": 45,
      "K": 46,
      "L": 47,
      "M": 48,
      "N": 49,
      "O": 50,
      "P": 51,
      "Q": 52,
      "R": 53,
      "S": 54,
      "T": 55,
      "U": 56,
      "V": 57,
      "W": 58,
      "X": 59,
      "Y": 60,
      "Z": 61,
      "[": 62,
      "\\": 63,
      "]": 64,
      "^": 65,
      "_": 66,
      "`": 67,
      "a": 68,
      "b": 69,
      "c": 70,
      "d": 71,
      "e": 72,
      "f": 73,
      "g": 74,
      "h": 75,
      "i": 76,
      "j": 77,
      "k": 78,
      "l": 79,
      "m": 80,
      "n": 81,
      "o": 82,
      "p": 83,
      "q": 84,
      "r": 85,
      "s": 86,
      "t": 87,
      "u": 88,
      "v": 89,
      "w": 90,
      "x": 91,
      "y": 92,
      "z": 93,
      "{": 94,
      "|": 95,
      "}": 96,
      "~": 97,
      "¡": 98,
      "¢": 99,
      "£": 100,
      "¤": 101,
      "¥": 102,
      "§": 103,
      "©": 104,
      "ª": 105,
      "«": 106,
      "®": 107,
      "°": 108,
      "²": 109,
      "µ": 110,
      "¶": 111,
      "·": 112,
      "¸": 113,
      "¹": 114,
      "º": 115,
      "»": 116,
      "¼": 117,
      "½": 118,
      "¿": 119,
      "Â": 120,
      "Ã": 121,
      "Ï": 122,
      "à": 123,
      "â": 124,
      "ã": 125,
      "ä": 126,
      "å": 127,
      "æ": 128,
      "ç": 129,
      "è": 130,
      "é": 131,
      "ï": 132,
      "ð": 133,
      "Ċ": 134,
      "č": 135,
      "Ġ": 136,
      "Ģ": 137,
      "ģ": 138,
      "Ĥ": 139,
      "Ħ": 140,
      "ħ": 141,
      "Ĩ": 142,
      "ĩ": 143,
      "Ī": 144,
      "ī": 145,
      "Ĭ": 146,
      "ĭ": 147,
      "Į": 148,
      "į": 149,
      "ı": 150,
      "Ĳ": 151,
      "ĳ": 152,
      "Ĵ": 153,
      "ĵ": 154,
      "Ķ": 155,
      "ķ": 156,
      "ĸ": 157,
      "Ĺ": 158,
      "ĺ": 159,
      "Ļ": 160,
      "ľ": 161,
      "Ŀ": 162,
      "Ł": 163,
      "ł": 164,
      "Ġa": 165,
      "Ġt": 166,
      "in": 167,
      "re": 168,
      "on": 169,
      "at": 170,
      "er": 171,
      "Ġs": 172,
      "or": 173,
      "ou": 174,
      "Ġp": 175,
      "en": 176,
      "Ġc": 177,
      "he": 178,
      "es": 179,
      "ing": 180,
      "le": 181,
      "is": 182,
      "Ġre": 183,
      "an": 184,
      "ed": 185,
      "it": 186,
      "ion": 187,
      "Ġd": 188,
      "Ġthe": 189,
      "Ġw": 190,
      "Ġf": 191,
      "Ġm": 192,
      "Ġin": 193,
      "Ġan": 194,
      "al": 195,
      "ar": 196,
      "Ġto": 197,
      "ro": 198,
      "ic": 199,
      "as": 200,
      "ent": 201,
      "Ġb": 202,
      "Ġy": 203,
      "Ġyou": 204,
      "ct": 205,
      "Ġand": 206,
      "Ġu": 207,
      "Ġh": 208,
      "ation": 209,
      "Ġpro": 210,
      "et": 211,
      "Ġth": 212,
      "st": 213,
      "ce": 214,
      "il": 215,
      "ve": 216,
      "Ġo": 217,
      "lo": 218,
      "ase": 219,
      "ur": 220,
      "id": 221,
      "čĊ": 222,
      "Ġfor": 223,
      "ss": 224,
      "Ġcon": 225,
      "lease": 226,
      "ig": 227,
      "Ġn": 228,
      "Ġis": 229,
      "ly": 230,
      "ol": 231,
      "pp": 232,
      "te": 233,
      "ate": 234,
      "su": 235,
      "mp": 236,
      "ĠI": 237,
      "Ġe": 238,
      "est": 239,
      "ld": 240,
      "Ġplease": 241,
      "ble": 242,
      "ould": 243,
      "ac": 244,
      "ec": 245,
      "ment": 246,
      "for": 247,
      "ess": 248,
      "ard": 249,
      "Ġissu": 250,
      "ay": 251,
      "ĠT": 252,
      "ist": 253,
      "ith": 254,
      "ect": 255,
      "Ġyour": 256,
      "Ġg": 257,
      "Ġi": 258,
      "Ġwith": 259,
      "ot": 260,
      "form": 261,
      "Ġbe": 262,
      "ort": 263,
      "ut": 264,
      "ance": 265,
      "Ġhe": 266,
      "ter": 267,
      "Ġou": 268,
      "om": 269,
      "ail": 270,
      "Ġen": 271,
      "Ġus": 272,
      "ĠS": 273,
      "Ġof": 274,
      "ank": 275,
      "ag": 276,
      "are": 277,
      "qu": 278,
      "Ġon": 279,
      "ver": 280,
      "Ġst": 281,
      "ata": 282,
      "ity": 283,
      "Ġissue": 284,
      "Ġres": 285,
      "Ġha": 286,
      "Ġapp": 287,
      "Ġad": 288,
      "im": 289,
      "Ġass": 290,
      "Ġsu": 291,
      "am": 292,
      "ĠC": 293,
      "Ġso": 294,
      "Ġdata": 295,
      "ide": 296,
      "Ġl": 297,
      "cc": 298,
      "Ġup": 299,
      "Ġor": 300,
      "ĠW": 301,
      "pt": 302,
      "ow": 303,
      "Ġex": 304,
      "if": 305,
      "Ġhel": 306,
      "Ġprov": 307,
      "se": 308,
      "Ġde": 309,
      "Ġwe": 310,
      "ad": 311,
      "Ġat": 312,
      "Ġreg": 313,
      "ĠA": 314,
      "Ġthank": 315,
      "Ġle": 316,
      "Ġk": 317,
      "Ġlo": 318,
      "th": 319,
      "ĠWe": 320,
      "ware": 321,
      "Ġthis": 322,
      "ci": 323,
      "Ġinform": 324,
      "Ġun": 325,
      "Ġprovide": 326,
      "Ġassist": 327,
      "em": 328,
      "ft": 329,
      "gr": 330,
      "Ġhave": 331,
      "Ġdet": 332,
      "Ġacc": 333,
      "dat": 334,
      "Ġregard": 335,
      "Ġdis": 336,
      "Ġwould": 337,
      "all": 338,
      "ions": 339,
      "Ġco": 340,
      "ical": 341,
      "ch": 342,
      "age": 343,
      "Ġne": 344,
      "Ġare": 345,
      "ure": 346,
      "ul": 347,
      "Ġcan": 348,
      "iz": 349,
      "ĠP": 350,
      "ftware": 351,
      "able": 352,
      "nt": 353,
      "day": 354,
      "act": 355,
      "pport": 356,
      "Ġresol": 357,
      "Ġinte": 358,
      "Ġsoftware": 359,
      "Ġinformation": 360,
      "ust": 361,
      "Ġrequ": 362,
      "Ġinv": 363,
      "Ġper": 364,
      "Ġcont": 365,
      "Ġour": 366,
      "art": 367,
      "ill": 368,
      "ire": 369,
      "Ġout": 370,
      "yst": 371,
      "err": 372,
      "igh": 373,
      "ind": 374,
      "blem": 375,
      "ĠD": 376,
      "error": 377,
      "Ġconf": 378,
      "Ġimp": 379,
      "vic": 380,
      "Ġal": 381,
      "Ġtr": 382,
      "ive": 383,
      "Ġerror": 384,
      "ies": 385,
      "Ġv": 386,
      "Ġany": 387,
      "ork": 388,
      "ber": 389,
      "Ġmo": 390,
      "Ġinc": 391,
      "Ġwh": 392,
      "Ġproblem": 393,
      "ant": 394,
      "ru": 395,
      "Ġme": 396,
      "ine": 397,
      "Ġadd": 398,
      "Ġrec": 399,
      "Ġintegr": 400,
      "du": 401,
      "Ġthat": 402,
      "Ġas": 403,
      "um": 404,
      "Ġca": 405,
      "ystem": 406,
      "Ġam": 407,
      "Ġregards": 408,
      "ails": 409,
      "Ġit": 410,
      "Ġsec": 411,
      "Ġinvest": 412,
      "Ġhelp": 413,
      "out": 414,
      "Ġanal": 415,
      "iv": 416,
      "ial": 417,
      "ther": 418,
      "cu": 419,
      "ign": 420,
      "Ġnot": 421,
      "ak": 422,
      "Ġneed": 423,
      "and": 424,
      "Ġpm": 425,
      "per": 426,
      "Ġhi": 427,
      "Ġab": 428,
      "ĠTh": 429,
      "ach": 430,
      "ustom": 431,
      "Ġser": 432,
      "Ġdetails": 433,
      "ics": 434,
      "Ġsystem": 435,
      "ue": 436,
      "ight": 437,
      "Ġch": 438,
      "der": 439,
      "reci": 440,
      "Ġtim": 441,
      "Ġrep": 442,
      "ital": 443,
      "ien": 444,
      "Ġaccess": 445,
      "ck": 446,
      "Ġappreci": 447,
      "ie": 448,
      "ff": 449,
      "ations": 450,
      "ir": 451,
      "end": 452,
      "Ġupdat": 453,
      "ustomer": 454,
      "Ġcould": 455,
      "ok": 456,
      "Ġse": 457,
      "urity": 458,
      "ction": 459,
      "ame": 460,
      "Ġabout": 461,
      "Ġanaly": 462,
      "ient": 463,
      "Ġuser": 464,
      "Ġcomp": 465,
      "ile": 466,
      "Ġpo": 467,
      "Ġman": 468,
      "Ġassistance": 469,
      "red": 470,
      "Ġpl": 471,
      "ject": 472,
      "ĠPlease": 473,
      "low": 474,
      "now": 475,
      "ols": 476,
      "Ġsp": 477,
      "Ġhello": 478,
      "ition": 479,
      "ang": 480,
      "ain": 481,
      "ps": 482,
      "ated": 483,
      "Ġappreciate": 484,
      "Ġif": 485,
      "Ġhas": 486,
      "mpt": 487,
      "upport": 488,
      "ific": 489,
      "ud": 490,
      "eting": 491,
      "Ġwork": 492,
      "Ġopt": 493,
      "ution": 494,
      "cuss": 495,
      "Ġsecurity": 496,
      "Ġdiscuss": 497,
      "Ġcall": 498,
      "Ġtime": 499,
      "lic": 500,
      "Ġgu": 501,
      "urther": 502,
      "Ġmy": 503,
      "esday": 504,
      "Ġbut": 505,
      "ving": 506,
      "Ġsc": 507,
      "ĠThe": 508,
      "bil": 509,
      "ven": 510,
      "us": 511,
      "rate": 512,
      "tics": 513,
      "Ġthanks": 514,
      "agement": 515,
      "ite": 516,
      "ĠSupport": 517,
      "Ġ<": 518,
      "ĠM": 519,
      "Ġfurther": 520,
      "Ġissues": 521,
      "nect": 522,
      "Ġrest": 523,
      "Ġsh": 524,
      "Ġkind": 525,
      "Ġconfig": 526,
      "Ġmed": 527,
      "Ġknow": 528,
      "our": 529,
      "el": 530,
      "Ġmar": 531,
      "ack": 532,
      "itional": 533,
      "ible": 534,
      "Ġby": 535,
      "Ġlet": 536,
      "ting": 537,
      "ential": 538,
      "date": 539,
      "Ġreport": 540,
      "atter": 541,
      "Ġrequest": 542,
      "Ġconfigur": 543,
      "Ġoff": 544,
      "Ġdue": 545,
      "ĠR": 546,
      "Ġset": 547,
      "vices": 548,
      "Ġwill": 549,
      "Ġconnect": 550,
      "igital": 551,
      "rent": 552,
      "ĠCould": 553,
      "un": 554,
      "duct": 555,
      "Ġr": 556,
      "Ġsol": 557,
      "Ġinvestment": 558,
      "ount": 559,
      "Ġanalytics": 560,
      "reat": 561,
      "Ġrequire": 562,
      "eam": 563,
      "cess": 564,
      "Ġproject": 565,
      "Ġste": 566,
      "ache": 567,
      "ri": 568,
      "Ġlook": 569,
      "Ġintegration": 570,
      "Ġmore": 571,
      "iew": 572,
      "Ġfe": 573,
      "to": 574,
      "Ġresolve": 575,
      "rateg": 576,
      "imiz": 577,
      "Ġpre": 578,
      "Ġupdate": 579,
      "ary": 580,
      "heck": 581,
      "vice": 582,
      "ved": 583,
      "ffect": 584,
      "Ġenc": 585,
      "Ġaction": 586,
      "Ġrestart": 587,
      "Ġmedical": 588,
      "oot": 589,
      "Ġspec": 590,
      "Ġlog": 591,
      "oun": 592,
      "num": 593,
      "Ġrece": 594,
      "ear": 595,
      "ures": 596,
      "Ġtools": 597,
      "Ġmatter": 598,
      "Ġli": 599,
      "dated": 600,
      "ari": 601,
      "Ġposs": 602,
      "Ġoutdated": 603,
      "Ġchang": 604,
      "ience": 605,
      "omm": 606,
      "so": 607,
      "bility": 608,
      "Ġunder": 609,
      "Ġav": 610,
      "Ġcontact": 611,
      "Ġdigital": 612,
      "ĠO": 613,
      "ĠThank": 614,
      "Ġexp": 615,
      "Ġhow": 616,
      "ord": 617,
      "Ġeng": 618,
      "Ġconfiguration": 619,
      "Ġstrateg": 620,
      "sp": 621,
      "Ġrecent": 622,
      "rom": 623,
      "Ġsupport": 624,
      "Ġsent": 625,
      "ments": 626,
      "Ġupdates": 627,
      "ĠV": 628,
      "keting": 629,
      "Ġoptimiz": 630,
      "Ġatt": 631,
      "ich": 632,
      "Ġmight": 633,
      "Ġappro": 634,
      "yp": 635,
      "ts": 636,
      "Ġgreat": 637,
      "Ġsteps": 638,
      "ress": 639,
      "ward": 640,
      "Ġavail": 641,
      "Ġwhich": 642,
      "ĠCustomer": 643,
      "Ġconven": 644,
      "Ġj": 645,
      "view": 646,
      "bl": 647,
      "ke": 648,
      "urrent": 649,
      "atform": 650,
      "ĠTo": 651,
      "Ġpers": 652,
      "ens": 653,
      "Ġproduct": 654,
      "Ġlike": 655,
      "Ġinst": 656,
      "Ġtak": 657,
      "Ġpossible": 658,
      "one": 659,
      "Ġenh": 660,
      "Ġgreatly": 661,
      "Ġmess": 662,
      "Ġbr": 663,
      "Ġver": 664,
      "Ġperform": 665,
      "ating": 666,
      "Ġbeen": 667,
      "Ġprocess": 668,
      "Ġteam": 669,
      "Ġpr": 670,
      "Ġreview": 671,
      "ĠIn": 672,
      "Ġdo": 673,
      "Ġguid": 674,
      "Ġthese": 675,
      "lud": 676,
      "Ġsub": 677,
      "ption": 678,
      "'s": 679,
      "Ġmanagement": 680,
      "Ġplatform": 681,
      "Ġbest": 682,
      "ident": 683,
      "Ġmarketing": 684,
      "Ġcurrent": 685,
      "Ġregarding": 686,
      "Ġinvestig": 687,
      "Ġinclud": 688,
      "Ġfrom": 689,
      "ĠThis": 690,
      "od": 691,
      "ning": 692,
      "ify": 693,
      "Ġforward": 694,
      "Ġaccount": 695,
      "tempt": 696,
      "tel": 697,
      "iled": 698,
      "Ġno": 699,
      "Ġresp": 700,
      "Ġavailable": 701,
      "Ġlea": 702,
      "Ġguidance": 703,
      "ailed": 704,
      "Ġ-": 705,
      "bo": 706,
      "ĠH": 707,
      "line": 708,
      "uring": 709,
      "ied": 710,
      "Ġrespon": 711,
      "arg": 712,
      "etw": 713,
      "Ġstrategies": 714,
      "sure": 715,
      "Ġho": 716,
      "Ġexper": 717,
      "row": 718,
      "ĠE": 719,
      "Ġspecific": 720,
      "Ġqu": 721,
      "bles": 722,
      "Ġserver": 723,
      "ected": 724,
      "Ġcl": 725,
      "'m": 726,
      "ip": 727,
      "Ġcheck": 728,
      "Ġreach": 729,
      "mber": 730,
      "Ġext": 731,
      "Ġaddress": 732,
      "Ġfr": 733,
      "iday": 734,
      "ĠSa": 735,
      "Ġinter": 736,
      "cing": 737,
      "aS": 738,
      "uesday": 739,
      "stand": 740,
      "ras": 741,
      "Ġsetting": 742,
      "mpa": 743,
      "Ġtuesday": 744,
      "mpaign": 745,
      "Ġapplic": 746,
      "urs": 747,
      "Ġro": 748,
      "use": 749,
      "Ġattempt": 750,
      "ade": 751,
      "Ġwed": 752,
      "ry": 753,
      "ĠVari": 754,
      "ypical": 755,
      "ĠN": 756,
      "ult": 757,
      "ek": 758,
      "Ġsche": 759,
      "Ġsolution": 760,
      "esp": 761,
      "Ġimpro": 762,
      "ĠAd": 763,
      "ĠSaaS": 764,
      "Ġsoon": 765,
      "ĠTypical": 766,
      "Ġrem": 767,
      "Ġunderstand": 768,
      "Ġresolution": 769,
      "ĠVariant": 770,
      "nesday": 771,
      "ous": 772,
      "Ġwednesday": 773,
      "Ġmon": 774,
      "Ġdear": 775,
      "Ġalso": 776,
      "Ġem": 777,
      "ful": 778,
      "fe": 779,
      "Ġtrou": 780,
      "de": 781,
      "Ġensure": 782,
      "Ġenhance": 783,
      "Ġpersist": 784,
      "ink": 785,
      "Ġbrand": 786,
      "Ġadditional": 787,
      "Ġencoun": 788,
      "cial": 789,
      "li": 790,
      "ĠB": 791,
      "ces": 792,
      "Ġthere": 793,
      "dule": 794,
      "Ġaffect": 795,
      "otential": 796,
      "fter": 797,
      "etwork": 798,
      "ursday": 799,
      "mit": 800,
      "Ġneeded": 801,
      "Ġthursday": 802,
      "Ġoffer": 803,
      "Ġfol": 804,
      "blesh": 805,
      "bleshoot": 806,
      "Ġag": 807,
      "Ġmay": 808,
      "ĠF": 809,
      "ore": 810,
      "Ġsystems": 811,
      "ays": 812,
      "Ġbre": 813,
      "Ġbet": 814,
      "ans": 815,
      "Ġtroubleshoot": 816,
      "umber": 817,
      "ages": 818,
      "Ġdetailed": 819,
      "Ġbetter": 820,
      "Ġfriday": 821,
      "Ġemail": 822,
      "Ġschedule": 823,
      "Ġnetwork": 824,
      "ll": 825,
      "Ġcampaign": 826,
      "ome": 827,
      "ibility": 828,
      "Ġcre": 829,
      "cy": 830,
      "Ġpas": 831,
      "Ġinto": 832,
      "cer": 833,
      "Ġover": 834,
      "Ġsettings": 835,
      "Ġservices": 836,
      "Ġpotential": 837,
      "lement": 838,
      "Ġshare": 839,
      "ise": 840,
      "Ġreceiv": 841,
      "Ġform": 842,
      "Ġprompt": 843,
      "Ġadv": 844,
      "up": 845,
      "Ġdec": 846,
      "gh": 847,
      "Ġpat": 848,
      "Ġengine": 849,
      "Ġtest": 850,
      "ough": 851,
      "Ġstill": 852,
      "Ġperformance": 853,
      "ence": 854,
      "Ġju": 855,
      "espite": 856,
      "Ġnumber": 857,
      "Ġjuly": 858,
      "ditional": 859,
      "aring": 860,
      "Ġact": 861,
      "Ġpur": 862,
      "Ġimplement": 863,
      "Ġusing": 864,
      "name": 865,
      "Ġback": 866,
      "ual": 867,
      "Ġimprove": 868,
      "ĠAdditional": 869,
      "itor": 870,
      "Ġassign": 871,
      "read": 872,
      "ick": 873,
      "ner": 874,
      "ĠAdditionally": 875,
      "Ġclient": 876,
      "rit": 877,
      "Ġ[": 878,
      "uth": 879,
      "Ġresponse": 880,
      "ced": 881,
      "spital": 882,
      "Ġmak": 883,
      "Ġdate": 884,
      "Ġla": 885,
      "Ġcard": 886,
      "Ġhigh": 887,
      "Ġhaving": 888,
      "ia": 889,
      "op": 890,
      "Ġke": 891,
      "ĠData": 892,
      "ending": 893,
      "Ġcaus": 894,
      "Ġexperien": 895,
      "ities": 896,
      "Ġfind": 897,
      "ace": 898,
      "Ġresolving": 899,
      "ted": 900,
      "Ġengineer": 901,
      "sul": 902,
      "ech": 903,
      "Ġwhen": 904,
      "ecess": 905,
      "rg": 906,
      "ffic": 907,
      "Ġconvenience": 908,
      "'ve": 909,
      "Ġchange": 910,
      "ached": 911,
      "Ġreaching": 912,
      "led": 913,
      "Ġpurch": 914,
      "Ġwas": 915,
      "Ġimpact": 916,
      "Ġac": 917,
      "Ġfac": 918,
      "tered": 919,
      "ivity": 920,
      "Ġproblems": 921,
      "Ġother": 922,
      "ention": 923,
      "Ġrestarting": 924,
      "Ġpersists": 925,
      "min": 926,
      "ized": 927,
      "ights": 928,
      "Ġimport": 929,
      "Ġmet": 930,
      "Ġdif": 931,
      "rowth": 932,
      "Ġdevices": 933,
      "rest": 934,
      "Ġrel": 935,
      "Ġresour": 936,
      "Ġhospital": 937,
      "Ġhapp": 938,
      "Ġmeas": 939,
      "Ġsa": 940,
      "Ġar": 941,
      "ĠU": 942,
      "sion": 943,
      "Ġlink": 944,
      "orre": 945,
      "Ġent": 946,
      "Ġnecess": 947,
      "ruct": 948,
      "Ġafter": 949,
      "Ġname": 950,
      "ready": 951,
      "ĠDespite": 952,
      "Ġworking": 953,
      "Ġph": 954,
      "ommend": 955,
      "ager": 956,
      "Ġlead": 957,
      "lu": 958,
      "Ġgo": 959,
      "Ġcle": 960,
      "vent": 961,
      "po": 962,
      "Ġrecommend": 963,
      "Ġalready": 964,
      "sw": 965,
      "xt": 966,
      "Ġmessage": 967,
      "cern": 968,
      "Ġget": 969,
      "ased": 970,
      "Ġfeat": 971,
      "ĠRe": 972,
      "Ġcomm": 973,
      "illing": 974,
      "ello": 975,
      "ior": 976,
      "Ġinterest": 977,
      "ost": 978,
      "ize": 979,
      "Ġfollow": 980,
      "Ġmeasures": 981,
      "res": 982,
      "ffor": 983,
      "Ġurg": 984,
      "Ġrequired": 985,
      "Ġinvestigate": 986,
      "ĠDear": 987,
      "Ġgrowth": 988,
      "Ġoptimization": 989,
      "Ġdisc": 990,
      "Ġcode": 991,
      "Ġorder": 992,
      "Ġstart": 993,
      "Ġtroubleshooting": 994,
      "Ġattached": 995,
      "ne": 996,
      "not": 997,
      "Ġsubmit": 998,
      "xp": 999,
      "ider": 1000,
      "irm": 1001,
      "Ġrelated": 1002,
      "Ġconvenient": 1003,
      "ues": 1004,
      "cation": 1005,
      "Ġdid": 1006,
      "Ġsuch": 1007,
      "ober": 1008,
      "ctober": 1009,
      "ory": 1010,
      "ĠPro": 1011,
      "Ġdocu": 1012,
      "Ġnecessary": 1013,
      "Ġsen": 1014,
      "ization": 1015,
      "Ġoctober": 1016,
      "Ġtake": 1017,
      "Ġpending": 1018,
      "Ġpart": 1019,
      "Ġ1": 1020,
      "utions": 1021,
      "echn": 1022,
      "istr": 1023,
      "orrect": 1024,
      "Ġsome": 1025,
      "Ġreceived": 1026,
      "ency": 1027,
      "ub": 1028,
      "fforts": 1029,
      "ĠOur": 1030,
      "Ġcras": 1031,
      "Ġcontin": 1032,
      "sword": 1033,
      "itive": 1034,
      "Ġcustomer": 1035,
      "Ġsenior": 1036,
      "Ġcol": 1037,
      "ccess": 1038,
      "Ġexperiencing": 1039,
      "Ġproducts": 1040,
      "Ġtried": 1041,
      "atibility": 1042,
      "Ġnove": 1043,
      "Ġapplication": 1044,
      "Ġnovember": 1045,
      "Ġ2": 1046,
      "board": 1047,
      "Ġvis": 1048,
      "ren": 1049,
      "ĠAn": 1050,
      "ability": 1051,
      "Ġoffic": 1052,
      "ĠIf": 1053,
      "Ġbreach": 1054,
      "Ġleaver": 1055,
      "Ġupdating": 1056,
      "ap": 1057,
      "Ġtaken": 1058,
      "Ġincluding": 1059,
      "Ġadmin": 1060,
      "uthor": 1061,
      "Ġtechn": 1062,
      "ers": 1063,
      "Ġmessages": 1064,
      "cri": 1065,
      "Ġremain": 1066,
      "Ġcause": 1067,
      "Ġresources": 1068,
      "Ġduring": 1069,
      "ĠL": 1070,
      "Ġnext": 1071,
      "Ġbec": 1072,
      "mm": 1073,
      "Ġencry": 1074,
      "Ġfeatures": 1075,
      "Ġsign": 1076,
      "Ġkindly": 1077,
      "Ġdes": 1078,
      "ask": 1079,
      "ĠK": 1080,
      "Ġmake": 1081,
      "ieve": 1082,
      "Ġcache": 1083,
      "Ġsolutions": 1084,
      "rupt": 1085,
      "Ġsens": 1086,
      "Ġuse": 1087,
      "Ġbilling": 1088,
      "ong": 1089,
      "Ġident": 1090,
      "Ġsuit": 1091,
      "toc": 1092,
      "Your": 1093,
      "own": 1094,
      "Ġdocument": 1095,
      "new": 1096,
      "Ġincident": 1097,
      "Ġchanges": 1098,
      "Ġpassword": 1099,
      "Ġcharg": 1100,
      "Ġfil": 1101,
      "mis": 1102,
      "yn": 1103,
      "Ġusers": 1104,
      "ĠIt": 1105,
      "Ġoper": 1106,
      "sis": 1107,
      "velo": 1108,
      "ator": 1109,
      "Ġcreate": 1110,
      "Ġsensitive": 1111,
      "Ġbo": 1112,
      "Ġurgent": 1113,
      "ĠG": 1114,
      "Ġtask": 1115,
      "load": 1116,
      "olved": 1117,
      "Ġadministr": 1118,
      "Ġinstall": 1119,
      "Ġupgr": 1120,
      "tocols": 1121,
      "Dear": 1122,
      "Ġeffect": 1123,
      "Ġbel": 1124,
      "Ġwell": 1125,
      "Ġpatient": 1126,
      "ular": 1127,
      "Ġanalyst": 1128,
      "ange": 1129,
      "Ġencryption": 1130,
      "Ġintegrating": 1131,
      "Ġdevice": 1132,
      "Ġocc": 1133,
      "gg": 1134,
      "tering": 1135,
      "lete": 1136,
      "Ġcons": 1137,
      "bilities": 1138,
      "Ġdevelo": 1139,
      "Ġleave": 1140,
      "Ġuna": 1141,
      "Ġsite": 1142,
      "xpected": 1143,
      "Ġservice": 1144,
      "Ġmod": 1145,
      "Ġreset": 1146,
      "Ġcontent": 1147,
      "Ġfin": 1148,
      "ons": 1149,
      "stall": 1150,
      "Ġsetup": 1151,
      "Ġcompatibility": 1152,
      "Ġengagement": 1153,
      "Ġbu": 1154,
      "Ġconnection": 1155,
      "Customer": 1156,
      "Ġport": 1157,
      "ish": 1158,
      "Ġmult": 1159,
      "Ġprote": 1160,
      "ĠCheck": 1161,
      "Ġprevent": 1162,
      "os": 1163,
      "box": 1164,
      "Ġupdated": 1165,
      "ross": 1166,
      "ast": 1167,
      "Ġprotocols": 1168,
      "Ġattention": 1169,
      "Ġaffected": 1170,
      "ems": 1171,
      "hes": 1172,
      "Ġdece": 1173,
      "bs": 1174,
      "Ġtool": 1175,
      "sions": 1176,
      "Ġdecember": 1177,
      "Ġgr": 1178,
      "Ġcontro": 1179,
      "Ġinf": 1180,
      "iple": 1181,
      "Ġsuitable": 1182,
      "Ġneeds": 1183,
      "Ġvari": 1184,
      "Ġaud": 1185,
      "unction": 1186,
      "arter": 1187,
      "Ġseek": 1188,
      "Ġanalysis": 1189,
      "wall": 1190,
      "irewall": 1191,
      "acle": 1192,
      "uthorized": 1193,
      "ys": 1194,
      "Ġune": 1195,
      "ep": 1196,
      "Ġresul": 1197,
      "acc": 1198,
      "Ġencountered": 1199,
      "Ġunexpected": 1200,
      "Ġstat": 1201,
      "Ġconcern": 1202,
      "Ġcampaigns": 1203,
      "Ġru": 1204,
      "Ġinterested": 1205,
      "Ġefforts": 1206,
      "ices": 1207,
      "Ġpurchase": 1208,
      "Ġcurrently": 1209,
      "install": 1210,
      "Ġfacing": 1211,
      "Ġstarter": 1212,
      "Ġintern": 1213,
      "alth": 1214,
      "luence": 1215,
      "here": 1216,
      "Ġprovid": 1217,
      "Ġwithin": 1218,
      "Ġref": 1219,
      "Ġfre": 1220,
      "Ġphone": 1221,
      "Ġdecis": 1222,
      "Ġimportance": 1223,
      "Ġlear": 1224,
      "ically": 1225,
      "ious": 1226,
      "Ġcannot": 1227,
      "ause": 1228,
      "Ġmonitor": 1229,
      "ix": 1230,
      "Ġwrit": 1231,
      "val": 1232,
      "Ġofficer": 1233,
      "Ġoptions": 1234,
      "Ġacross": 1235,
      "icket": 1236,
      "Ġremains": 1237,
      "Ġtarg": 1238,
      "iate": 1239,
      "ound": 1240,
      "Ġreceive": 1241,
      ">,": 1242,
      "abilities": 1243,
      "ab": 1244,
      "Ġmanager": 1245,
      "Ġinqu": 1246,
      "Ġdel": 1247,
      "urn": 1248,
      "Ġhappy": 1249,
      "Ġbecause": 1250,
      "Ġ3": 1251,
      "cies": 1252,
      "Ġprin": 1253,
      "Ġpay": 1254,
      "Ġreports": 1255,
      "Ġsi": 1256,
      "Ġticket": 1257,
      "ods": 1258,
      "Ġmultiple": 1259,
      "Ġshould": 1260,
      "Ġmail": 1261,
      "Ġwriting": 1262,
      "Ġcontacting": 1263,
      "Ġmem": 1264,
      "Ġeffective": 1265,
      "Ġdays": 1266,
      "Ġret": 1267,
      "ĠTeam": 1268,
      "cription": 1269,
      "Ġattempted": 1270,
      "Ġ4": 1271,
      "og": 1272,
      "rough": 1273,
      "ised": 1274,
      "Ġtrans": 1275,
      ">.": 1276,
      "Ġmarch": 1277,
      "care": 1278,
      "Ġtry": 1279,
      "Ġsecure": 1280,
      "Ġfirewall": 1281,
      "log": 1282,
      "Ġencountering": 1283,
      "Ġrun": 1284,
      "base": 1285,
      "Ġguide": 1286,
      "Ġstatus": 1287,
      "just": 1288,
      "reen": 1289,
      "Ġunauthorized": 1290,
      "Ġhard": 1291,
      "Ġincre": 1292,
      "Ġvarious": 1293,
      "ob": 1294,
      "althcare": 1295,
      "Ġlocation": 1296,
      "Ġapplications": 1297,
      "Ġsignific": 1298,
      "ructure": 1299,
      "Ġow": 1300,
      "Ġconfluence": 1301,
      "til": 1302,
      "Ġversion": 1303,
      "ime": 1304,
      "ash": 1305,
      "Ġconsider": 1306,
      "mmed": 1307,
      "Ġthrough": 1308,
      "mmediate": 1309,
      "Ġhearing": 1310,
      "Ġdisrupt": 1311,
      "Ġadvise": 1312,
      "Ġop": 1313,
      "ified": 1314,
      "loy": 1315,
      "Ġupgrade": 1316,
      "Ġnew": 1317,
      "very": 1318,
      "Ġadministrator": 1319,
      "Ġsignificant": 1320,
      "Ġadjust": 1321,
      "ĠHello": 1322,
      "Ġfail": 1323,
      "Ġlogs": 1324,
      "Ġcorrect": 1325,
      "Ġmeth": 1326,
      "bru": 1327,
      "bruary": 1328,
      "Ġfebruary": 1329,
      "ense": 1330,
      "Ġunable": 1331,
      "fic": 1332,
      "ication": 1333,
      "Ġsyn": 1334,
      "ancial": 1335,
      "Ġoccur": 1336,
      "Ġrecord": 1337,
      "ook": 1338,
      "Ġinclude": 1339,
      "ict": 1340,
      "Ġstor": 1341,
      "Ġsw": 1342,
      "Ġerrors": 1343,
      "Ġpract": 1344,
      "Ġconfid": 1345,
      "Ġaut": 1346,
      "Ġconfidential": 1347,
      "Ġins": 1348,
      "Ġsusp": 1349,
      "Ġaffecting": 1350,
      "Ġreinstall": 1351,
      "ashboard": 1352,
      "Ġoptimize": 1353,
      "Ġcaused": 1354,
      "access": 1355,
      "Ġwere": 1356,
      "Ġdiffe": 1357,
      "fer": 1358,
      "Ġassigned": 1359,
      "ice": 1360,
      "Ġexist": 1361,
      "ĠSer": 1362,
      "Ġcontrol": 1363,
      "rep": 1364,
      "resolved": 1365,
      "Ġunresolved": 1366,
      "irect": 1367,
      "Ġappreciated": 1368,
      "Ġmade": 1369,
      "Ġfix": 1370,
      "flow": 1371,
      "Ġrequirements": 1372,
      "io": 1373,
      "Ġdocumentation": 1374,
      "Ġimpacting": 1375,
      "Ġfollowing": 1376,
      "Ġsit": 1377,
      "Ġbelieve": 1378,
      "ince": 1379,
      "Ġask": 1380,
      "Ġmob": 1381,
      "rast": 1382,
      "Ġcommun": 1383,
      "Ġscreen": 1384,
      "Ġsubs": 1385,
      "Ġworkflow": 1386,
      "Ġwhat": 1387,
      "rastructure": 1388,
      "Ġhardware": 1389,
      "Ġpractices": 1390,
      "Ġpermis": 1391,
      "quest": 1392,
      "PI": 1393,
      "Ġmeeting": 1394,
      "ge": 1395,
      "Ġhealthcare": 1396,
      "Ġwant": 1397,
      "Ġnote": 1398,
      "Ġfiles": 1399,
      "ĠAPI": 1400,
      "Ġdifferent": 1401,
      "Ġinit": 1402,
      "Ġear": 1403,
      "rus": 1404,
      "Ġlist": 1405,
      "Ġweek": 1406,
      "ggest": 1407,
      "her": 1408,
      "irus": 1409,
      "Ġidentify": 1410,
      "Ġinfrastructure": 1411,
      "Ġseems": 1412,
      "Ġfinancial": 1413,
      "Ġlat": 1414,
      "Ġmailbox": 1415,
      "Ġplatforms": 1416,
      "Ġsuccess": 1417,
      "Ġprotect": 1418,
      "Ġearli": 1419,
      "Ġpres": 1420,
      "Ġsuggest": 1421,
      "Ġflo": 1422,
      "Ġcom": 1423,
      "Ġte": 1424,
      "Ġtyp": 1425,
      "Ġvia": 1426,
      "Ġquest": 1427,
      "cip": 1428,
      "Ġclo": 1429,
      "Ġbelow": 1430,
      "Ġlooking": 1431,
      "Ġfloor": 1432,
      "The": 1433,
      "Ġtheir": 1434,
      "repan": 1435,
      "lick": 1436,
      "Ġplan": 1437,
      "Ġmethods": 1438,
      "veral": 1439,
      "Ġagency": 1440,
      "ĠKind": 1441,
      "icro": 1442,
      "Ġoptimizing": 1443,
      "Ġclearing": 1444,
      "aly": 1445,
      "ptop": 1446,
      "Ġfut": 1447,
      "ceed": 1448,
      "Ġfuture": 1449,
      "Ġdashboard": 1450,
      "Ġrecommendations": 1451,
      "Ġpayment": 1452,
      "ssist": 1453,
      "lev": 1454,
      "ines": 1455,
      "Ġinformed": 1456,
      "tern": 1457,
      "ĠFor": 1458,
      "Ġold": 1459,
      "Ġsame": 1460,
      "Ġmain": 1461,
      "Ġmember": 1462,
      "'t": 1463,
      "ert": 1464,
      "ecurity": 1465,
      "aches": 1466,
      "ensive": 1467,
      "Ġverify": 1468,
      "ssistance": 1469,
      "Ġattempts": 1470,
      "Ġstrategy": 1471,
      "Ġshe": 1472,
      "ficult": 1473,
      "vers": 1474,
      "Ġdeveloper": 1475,
      "Ġearliest": 1476,
      "Ġrights": 1477,
      "Ġused": 1478,
      "Ġben": 1479,
      "Ġowner": 1480,
      "Ġfirm": 1481,
      "Ġonline": 1482,
      "Ġopen": 1483,
      "less": 1484,
      "Ġinsights": 1485,
      "air": 1486,
      "Ġconflic": 1487,
      "ification": 1488,
      "omp": 1489,
      "Ġtimes": 1490,
      "Ġautom": 1491,
      "ron": 1492,
      "Ġdifficult": 1493,
      "Ġarr": 1494,
      "ib": 1495,
      "Ġcost": 1496,
      "Ġstorage": 1497,
      "Ġfunction": 1498,
      "ritical": 1499,
      "ĠAnaly": 1500,
      "ĠKindly": 1501,
      "aining": 1502,
      "Ġdirect": 1503,
      "Ġperson": 1504,
      "ged": 1505,
      "Ġload": 1506,
      "Ġaccounts": 1507,
      "ifically": 1508,
      "erm": 1509,
      "Ġlearning": 1510,
      "Pro": 1511,
      "Ġexplo": 1512,
      "Ġhead": 1513,
      "Ġremo": 1514,
      "Ġdiscrepan": 1515,
      "Ġbus": 1516,
      "Ġcontinues": 1517,
      "Ġpromptly": 1518,
      "ulner": 1519,
      "iness": 1520,
      "levant": 1521,
      "ired": 1522,
      "Ġcausing": 1523,
      "soft": 1524,
      "icrosoft": 1525,
      "Ġrelevant": 1526,
      "reh": 1527,
      "Ġdri": 1528,
      "Ġstarted": 1529,
      "Ġcap": 1530,
      "Ġallow": 1531,
      "Ġann": 1532,
      "Ġimmediate": 1533,
      "Ġsocial": 1534,
      "ĠInte": 1535,
      "Ġid": 1536,
      "Ġone": 1537,
      "Ġreb": 1538,
      "cept": 1539,
      "uation": 1540,
      "Ġresolved": 1541,
      "Ġcompreh": 1542,
      "Ġenhan": 1543,
      "Ġbene": 1544,
      "ĠYour": 1545,
      "Ġinvestigation": 1546,
      "polog": 1547,
      "Ġdecisions": 1548,
      "com": 1549,
      "ates": 1550,
      "Ġconnectivity": 1551,
      "Ġagain": 1552,
      "liance": 1553,
      "Ġhis": 1554,
      "Ġval": 1555,
      "Ġadvice": 1556,
      "Ġcred": 1557,
      "Ġfree": 1558,
      "Ġwhile": 1559,
      "],": 1560,
      "Ġint": 1561,
      "ĠSt": 1562,
      "ract": 1563,
      "gram": 1564,
      "Ġall": 1565,
      "Ġmis": 1566,
      "Ġdr": 1567,
      "Ġcomprehensive": 1568,
      "Ġexplore": 1569,
      "Ġseveral": 1570,
      "Ġmonday": 1571,
      "oud": 1572,
      "Ġapolog": 1573,
      "Ġpermissions": 1574,
      "Ġhub": 1575,
      "mart": 1576,
      "ĠEn": 1577,
      "Ġtechnical": 1578,
      "Ġeffic": 1579,
      "Ġdatabase": 1580,
      "Ġcritical": 1581,
      "Ġbusiness": 1582,
      "Ġmobile": 1583,
      "Ġpartic": 1584,
      "iced": 1585,
      "Ġevery": 1586,
      "Ġproductivity": 1587,
      "Ġsecuring": 1588,
      "Ġcolle": 1589,
      "rics": 1590,
      "int": 1591,
      "vir": 1592,
      "Ġintegrations": 1593,
      "Ġvulner": 1594,
      "Ġreviewing": 1595,
      "Ġfar": 1596,
      "Ġguys": 1597,
      "rior": 1598,
      "viron": 1599,
      "Ġfolder": 1600,
      "Ġsituation": 1601,
      "its": 1602,
      "arch": 1603,
      "Ġapproval": 1604,
      "gan": 1605,
      "Ġtoday": 1606,
      "ĠAl": 1607,
      "Ġhop": 1608,
      "Ġproceed": 1609,
      "chron": 1610,
      "Ġkey": 1611,
      "Ġeach": 1612,
      "ogle": 1613,
      "Ġresults": 1614,
      "Ġreboot": 1615,
      "ĠIntegr": 1616,
      "Ġlic": 1617,
      "pl": 1618,
      "Ġroot": 1619,
      "Ġintegrity": 1620,
      "Ġreturn": 1621,
      "ivirus": 1622,
      "Ġdisruptions": 1623,
      "Ġdown": 1624,
      "Ġhelpful": 1625,
      "ently": 1626,
      "Ġproper": 1627,
      "Ġdep": 1628,
      "Ġdelays": 1629,
      "bsite": 1630,
      "outer": 1631,
      "Ġher": 1632,
      "Ġcards": 1633,
      "Ġmach": 1634,
      "nowled": 1635,
      "Ġslow": 1636,
      "Ġchecked": 1637,
      "Ġseeking": 1638,
      "Ġtw": 1639,
      "Ġnoticed": 1640,
      "Ġmin": 1641,
      "Ġsafe": 1642,
      "cknowled": 1643,
      "Ġemp": 1644,
      "Ġoperations": 1645,
      "ĠAnalytics": 1646,
      "ser": 1647,
      "iry": 1648,
      "ally": 1649,
      "Ġarrange": 1650,
      "Ġallo": 1651,
      "Ġcare": 1652,
      "Ġrecords": 1653,
      "ored": 1654,
      "edical": 1655,
      "Ġconfirm": 1656,
      "Ġcrash": 1657,
      "Ġmodel": 1658,
      "Ġenable": 1659,
      "Ġenviron": 1660,
      "Ġview": 1661,
      "ĠSystem": 1662,
      "itch": 1663,
      "Ġprior": 1664,
      "iven": 1665,
      "Ġmedia": 1666,
      "Ġind": 1667,
      "Ġappear": 1668,
      "ately": 1669,
      "Ġprogram": 1670,
      "Ġparticular": 1671,
      "Ġmal": 1672,
      "Ġitem": 1673,
      "Ġmetrics": 1674,
      "ative": 1675,
      "ĠSp": 1676,
      "vest": 1677,
      "Ġstre": 1678,
      "Ġcable": 1679,
      "Ġroom": 1680,
      "ose": 1681,
      "feren": 1682,
      "Ġcrashes": 1683,
      "Ġsect": 1684,
      "Ġfile": 1685,
      "ĠAfter": 1686,
      "allen": 1687,
      "onsist": 1688,
      "Ġconfigurations": 1689,
      "av": 1690,
      "Ġreporting": 1691,
      "icing": 1692,
      "Ġcredential": 1693,
      "hed": 1694,
      "Ġcolleag": 1695,
      "Ġlaptop": 1696,
      "Ġoverload": 1697,
      "ets": 1698,
      "ges": 1699,
      "ooth": 1700,
      "Ġdifficulties": 1701,
      "Ġprinter": 1702,
      "ding": 1703,
      "Ġtemp": 1704,
      "Ġinternet": 1705,
      "ĠName": 1706,
      "ĠCon": 1707,
      "ĠThese": 1708,
      "WS": 1709,
      "Hello": 1710,
      "Ġtrack": 1711,
      "Ġcredentials": 1712,
      "Ġcompliance": 1713,
      "Ġconfidentiality": 1714,
      "Ġdetected": 1715,
      "Ġrunning": 1716,
      "Ġlatest": 1717,
      "In": 1718,
      "Ġapologize": 1719,
      "Ġquestions": 1720,
      "ĠMedical": 1721,
      "Ġtesting": 1722,
      "Ġcontrols": 1723,
      "Ġinstallation": 1724,
      "QL": 1725,
      "Ġconflicts": 1726,
      "Ġwebsite": 1727,
      "Ġinconsist": 1728,
      "ever": 1729,
      "Ġannual": 1730,
      "ĠSecurity": 1731,
      "ĠSpec": 1732,
      "Ġrepl": 1733,
      "con": 1734,
      "Ġconnections": 1735,
      "Ġpol": 1736,
      "Ġhere": 1737,
      "Ġsynchron": 1738,
      "Ġutil": 1739,
      "br": 1740,
      "Ġreviewed": 1741,
      "Ġorgan": 1742,
      "Ġclients": 1743,
      "eak": 1744,
      "Ġbeing": 1745,
      "ener": 1746,
      "Ġconsul": 1747,
      "leted": 1748,
      "Ġchecking": 1749,
      "ructions": 1750,
      "Ġemploy": 1751,
      "Problem": 1752,
      "lab": 1753,
      "Ġeffectively": 1754,
      "ĠAssistance": 1755,
      "Ġrecei": 1756,
      "Ġcommunication": 1757,
      "Ġactions": 1758,
      "Ġtargeting": 1759,
      "Ġincrease": 1760,
      "labor": 1761,
      "Ġreas": 1762,
      "Ġant": 1763,
      "ĠApp": 1764,
      "Ġcontract": 1765,
      "Ġdiscrepancies": 1766,
      "ended": 1767,
      "Ġaccept": 1768,
      "Ġunderstanding": 1769,
      "Ġwhere": 1770,
      "itate": 1771,
      "Ġimplementing": 1772,
      "Ġreceipt": 1773,
      "rateful": 1774,
      "ĠUn": 1775,
      "Ġgrateful": 1776,
      "Ġthen": 1777,
      "Ġperi": 1778,
      "Ġconduct": 1779,
      "Ġcapabilities": 1780,
      "Ġbenef": 1781,
      "als": 1782,
      "Ġdelete": 1783,
      "Ġdi": 1784,
      "ĠRest": 1785,
      "Ġaudience": 1786,
      "Ġthem": 1787,
      "alled": 1788,
      "Ġapproved": 1789,
      "Ġbreaches": 1790,
      "Ġdiscussion": 1791,
      "Ġinstructions": 1792,
      "Ġreceiving": 1793,
      "ax": 1794,
      "Ġable": 1795,
      "any": 1796,
      "Ġtwo": 1797,
      "ĠSpecifically": 1798,
      "ĠSo": 1799,
      "Ġtester": 1800,
      "Ġincon": 1801,
      "Ġhol": 1802,
      "Ġgrou": 1803,
      "Ġhour": 1804,
      "Ġboost": 1805,
      "Ġrecently": 1806,
      "Ġfailed": 1807,
      "Ġinquire": 1808,
      "ĠIT": 1809,
      "Ġadvised": 1810,
      "ered": 1811,
      "Ġvery": 1812,
      "Ġcent": 1813,
      "Ġdoes": 1814,
      "Ġinvo": 1815,
      "Ġinconven": 1816,
      "Ġoccurred": 1817,
      "Ġurgently": 1818,
      "Ġsince": 1819,
      "Re": 1820,
      "gu": 1821,
      "ering": 1822,
      "Ġgener": 1823,
      "Ġpurchased": 1824,
      "Ġmembers": 1825,
      "Ġcase": 1826,
      "Ġinvestigating": 1827,
      "ait": 1828,
      "Ġcharging": 1829,
      "ĠRestart": 1830,
      "Ġprovided": 1831,
      "Ġdispl": 1832,
      "Ġchallen": 1833,
      "Ġexperience": 1834,
      "Ġactive": 1835,
      "den": 1836,
      "Ġconsult": 1837,
      "Ġmachine": 1838,
      "agn": 1839,
      "Ġcontinue": 1840,
      "put": 1841,
      "Ġfore": 1842,
      "Ġtrying": 1843,
      "Ġapprover": 1844,
      "ĠInvest": 1845,
      "Ġgive": 1846,
      ".\\": 1847,
      "guard": 1848,
      "Ġrequested": 1849,
      "Ġmaint": 1850,
      "Ġrestarted": 1851,
      "abl": 1852,
      "Ġsuspect": 1853,
      "uch": 1854,
      "Ġstud": 1855,
      "Ġstep": 1856,
      "ĠBest": 1857,
      "pro": 1858,
      "Ġadded": 1859,
      "Ġdiscip": 1860,
      "Ġenvironment": 1861,
      "Ġdrivers": 1862,
      "Ġsupp": 1863,
      "ĠDigital": 1864,
      "Ġcollabor": 1865,
      "Ġ20": 1866,
      "Ġhope": 1867,
      "Ġaccessing": 1868,
      "Ġproperly": 1869,
      "Ġinconvenience": 1870,
      "ĠIntegration": 1871,
      "Ġob": 1872,
      "ĠDe": 1873,
      "Ġspecial": 1874,
      "Ġapprove": 1875,
      "Ġdisplay": 1876,
      "oogle": 1877,
      "Ġservers": 1878,
      "Ġsubscription": 1879,
      "gor": 1880,
      "Ġsend": 1881,
      "Ġsubmitted": 1882,
      "Ġtype": 1883,
      "back": 1884,
      "uthent": 1885,
      "Ġscal": 1886,
      "Ġra": 1887,
      "Ġhours": 1888,
      "Ġlinks": 1889,
      "ĠMan": 1890,
      "Ġhappen": 1891,
      "hone": 1892,
      "Ġtasks": 1893,
      "Ġful": 1894,
      "ĠWould": 1895,
      "Ġsuccessful": 1896,
      "Ġcreated": 1897,
      "ĠMicrosoft": 1898,
      "Ġva": 1899,
      "Ġinstance": 1900,
      "Ġmaking": 1901,
      "lect": 1902,
      "Ġfailure": 1903,
      "ules": 1904,
      "ĠRec": 1905,
      "Ġsafeguard": 1906,
      "ĠJ": 1907,
      "We": 1908,
      "ials": 1909,
      "Ġexisting": 1910,
      "fol": 1911,
      "Ġsynchronization": 1912,
      "Ġwr": 1913,
      "Ġmuch": 1914,
      "Ġbrow": 1915,
      "mitt": 1916,
      "Ġfeed": 1917,
      "ĠCle": 1918,
      "Ġdiagn": 1919,
      "Ġimplemented": 1920,
      "Ġdisk": 1921,
      "Ġorganization": 1922,
      "Ġparticularly": 1923,
      "lines": 1924,
      "Ġcomplete": 1925,
      "ĠSmart": 1926,
      "ra": 1927,
      "Ġtarget": 1928,
      "Ġoracle": 1929,
      "Ġquer": 1930,
      "ĠAWS": 1931,
      "Ġprocessing": 1932,
      "Support": 1933,
      "by": 1934,
      "Ġhad": 1935,
      "Ġaccur": 1936,
      "Ġthink": 1937,
      "Ġauthent": 1938,
      "Ġacknowled": 1939,
      "Ġtail": 1940,
      "Ġmat": 1941,
      "Ġrepair": 1942,
      "Ġexact": 1943,
      "Ġperiod": 1944,
      "vel": 1945,
      "down": 1946,
      "Ġonly": 1947,
      "Ġcustom": 1948,
      "Ġworks": 1949,
      "Ġunexpectedly": 1950,
      "ithm": 1951,
      "Ġfound": 1952,
      "ifications": 1953,
      "gorithm": 1954,
      "Ġoption": 1955,
      "ging": 1956,
      "Ġeager": 1957,
      "Book": 1958,
      "Th": 1959,
      "aging": 1960,
      "Ġtraining": 1961,
      "Ġlim": 1962,
      "Ġdiscipline": 1963,
      "ily": 1964,
      "loud": 1965,
      "Ġthey": 1966,
      "isk": 1967,
      "Ġjo": 1968,
      "amp": 1969,
      "Ġsection": 1970,
      "Ġest": 1971,
      "Ġinitial": 1972,
      "rucial": 1973,
      "Ġrouter": 1974,
      "rely": 1975,
      "Ġchallenges": 1976,
      "Ġintermitt": 1977,
      "ives": 1978,
      "Ġsour": 1979,
      "Ġleading": 1980,
      "ference": 1981,
      "Ġpresence": 1982,
      "Ġcert": 1983,
      "Ġ(": 1984,
      "Ġanalyz": 1985,
      "sed": 1986,
      "istered": 1987,
      "Ġdescription": 1988,
      "orry": 1989,
      "Ġalgorithm": 1990,
      "Ġregistered": 1991,
      "Ġportfol": 1992,
      "Con": 1993,
      "ĠManagement": 1994,
      "Ġkeep": 1995,
      "Ġprof": 1996,
      "Ġits": 1997,
      "arketing": 1998,
      "Ġlicense": 1999,
      "sing": 2000,
      "Ġplu": 2001,
      "fort": 2002,
      "ards": 2003,
      "Ġavailability": 2004,
      "Ġstr": 2005,
      "Ġeven": 2006,
      "Ġappears": 2007,
      "Ġconsultant": 2008,
      "iency": 2009,
      "Ġprocesses": 2010,
      "Ġlimit": 2011,
      "Ġyet": 2012,
      "iqu": 2013,
      "ining": 2014,
      "Ġgood": 2015,
      "Ġdone": 2016,
      "Ġreplace": 2017,
      "Ġallocation": 2018,
      "ĠInvestment": 2019,
      "ness": 2020,
      "Ġreported": 2021,
      "Ġtickets": 2022,
      "Ġcrucial": 2023,
      "Name": 2024,
      "Ġcop": 2025,
      "Ġsearch": 2026,
      "Ġlogged": 2027,
      "Ġdetail": 2028,
      "Ġdecline": 2029,
      "fig": 2030,
      "Ġpricing": 2031,
      "Ġactiv": 2032,
      "OS": 2033,
      "Ġproviding": 2034,
      "Ġdevelop": 2035,
      "fore": 2036,
      "oracle": 2037,
      "Ġusage": 2038,
      "Request": 2039,
      "Ġvulnerabilities": 2040,
      "Ġproced": 2041,
      "ift": 2042,
      "Ġincomp": 2043,
      "Ġach": 2044,
      "ĠOn": 2045,
      "lock": 2046,
      "bu": 2047,
      "zure": 2048,
      "Ġbot": 2049,
      "Ġbl": 2050,
      "ĠProject": 2051,
      "Thank": 2052,
      "Ġverifying": 2053,
      "les": 2054,
      "Ġtransfer": 2055,
      "Ġsignificantly": 2056,
      "Ġantivirus": 2057,
      "Ġlast": 2058,
      "Ġway": 2059,
      "Ġcompany": 2060,
      "hing": 2061,
      "Ġstarting": 2062,
      "Ġmention": 2063,
      "Ġvide": 2064,
      "Ġrequests": 2065,
      "Ġchanged": 2066,
      "Ġforec": 2067,
      "ternal": 2068,
      "Ġplans": 2069,
      "Ġprefer": 2070,
      "Ġ'": 2071,
      "Ġsim": 2072,
      "ĠCloud": 2073,
      "Ġsee": 2074,
      "Ġaw": 2075,
      "acing": 2076,
      "ows": 2077,
      "Ġextens": 2078,
      "Ġwithout": 2079,
      "00": 2080,
      "Ġoutage": 2081,
      "Ġincluded": 2082,
      "Ġconcerns": 2083,
      "Ġregul": 2084,
      "Ġpolic": 2085,
      "Ġintegrate": 2086,
      "Ġfunctional": 2087,
      "Ġenhancing": 2088,
      "Ġsorry": 2089,
      "Ġtailored": 2090,
      "ĠZ": 2091,
      "Ġcomput": 2092,
      "Ġtra": 2093,
      "eek": 2094,
      "Ġgl": 2095,
      "Ġcolleagues": 2096,
      "essential": 2097,
      "Ġincorrect": 2098,
      "Ġcal": 2099,
      "lf": 2100,
      "ee": 2101,
      "Ġimplementation": 2102,
      "Ġtimec": 2103,
      "ĠService": 2104,
      "obe": 2105,
      "En": 2106,
      "Ġgroups": 2107,
      "Ġessential": 2108,
      "Ġsm": 2109,
      "Ġvisual": 2110,
      "attery": 2111,
      "ĠThere": 2112,
      "ĠAt": 2113,
      "SQL": 2114,
      "Ġaim": 2115,
      "Ġswitch": 2116,
      "een": 2117,
      "Ġefficiency": 2118,
      "Ġdisable": 2119,
      "etween": 2120,
      "Ġmonth": 2121,
      "Ġintended": 2122,
      "Ġpriority": 2123,
      "ured": 2124,
      "Ġvideo": 2125,
      "Ġjob": 2126,
      "more": 2127,
      "Ġquick": 2128,
      "Ġexam": 2129,
      "Ġaccord": 2130,
      "Ġplace": 2131,
      "Ġfacil": 2132,
      "Ġdef": 2133,
      "ising": 2134,
      "ruption": 2135,
      "Ġtop": 2136,
      "Ġregular": 2137,
      "Ġx": 2138,
      "Ġmark": 2139,
      "Ġcollaboration": 2140,
      "Ġhand": 2141,
      "ĠGoogle": 2142,
      "Ġclose": 2143,
      "Ġinvol": 2144,
      "Ġbetween": 2145,
      "app": 2146,
      "Ġdrive": 2147,
      "Ġprovider": 2148,
      "ĠUp": 2149,
      "Ġstream": 2150,
      "Ġcount": 2151,
      "Ġfrequ": 2152,
      "ared": 2153,
      "gin": 2154,
      "pri": 2155,
      "Ġexpense": 2156,
      "Ġenter": 2157,
      "Ġdesign": 2158,
      "Ġexamp": 2159,
      "Ġswift": 2160,
      "Ġmater": 2161,
      "ds": 2162,
      "Ġaccording": 2163,
      "Ġcod": 2164,
      "ĠReg": 2165,
      "Ġinstalled": 2166,
      "cerning": 2167,
      "ĠY": 2168,
      "get": 2169,
      "Ġinvestments": 2170,
      "ownt": 2171,
      "over": 2172,
      "ĠPl": 2173,
      "bser": 2174,
      "ĠMy": 2175,
      "ass": 2176,
      "Ġhear": 2177,
      "Ġrob": 2178,
      "gress": 2179,
      "ĠMarketing": 2180,
      "Ġrebooting": 2181,
      "time": 2182,
      "Ġmac": 2183,
      "fficient": 2184,
      "Ġcenter": 2185,
      "Ġdespite": 2186,
      "roid": 2187,
      "Ġright": 2188,
      "ooking": 2189,
      "ibly": 2190,
      "Ġexperienced": 2191,
      "Ġapproach": 2192,
      "Ġrisk": 2193,
      "Ġpersonal": 2194,
      "Ġautomat": 2195,
      "Ġdecision": 2196,
      "Ġevent": 2197,
      "Ġbring": 2198,
      "pportun": 2199,
      "Ġmalf": 2200,
      "quiry": 2201,
      "Ġuntil": 2202,
      "Ġstand": 2203,
      "Ġrules": 2204,
      "Ġspecialist": 2205,
      "encies": 2206,
      "Ġshared": 2207,
      "Ġloc": 2208,
      "owntime": 2209,
      "eed": 2210,
      "Ġclick": 2211,
      "omet": 2212,
      "face": 2213,
      "wer": 2214,
      "Ġconnecting": 2215,
      "Ġmanage": 2216,
      "eeking": 2217,
      "ĠYou": 2218,
      "atible": 2219,
      "Ġbrowser": 2220,
      "Ġbro": 2221,
      "Ġassess": 2222,
      "Ġfeedback": 2223,
      "ches": 2224,
      "Ġoutages": 2225,
      "Ġvisibility": 2226,
      "Ġarch": 2227,
      "Ġaware": 2228,
      "Ġexpl": 2229,
      "Ġcreation": 2230,
      "Could": 2231,
      "ales": 2232,
      "Ġprogress": 2233,
      "Ġimprovement": 2234,
      "ĠSoftware": 2235,
      "Ġholiday": 2236,
      "Ġcosts": 2237,
      "Ġboth": 2238,
      "iques": 2239,
      "Ġson": 2240,
      "ĠIss": 2241,
      "anced": 2242,
      "ilar": 2243,
      "Ġlong": 2244,
      "Ġlibr": 2245,
      "unately": 2246,
      "Ġmig": 2247,
      "Ġopportun": 2248,
      "iring": 2249,
      "redict": 2250,
      "Ġsimilar": 2251,
      "Up": 2252,
      "izing": 2253,
      "Ġmentioned": 2254,
      "Ġoverall": 2255,
      "Ġcomprom": 2256,
      "Ġtraffic": 2257,
      "me": 2258,
      "icious": 2259,
      "Ġconsideration": 2260,
      "Ġobser": 2261,
      "Ġlevel": 2262,
      "Ġreject": 2263,
      "fortunately": 2264,
      "Ġappropri": 2265,
      "Ġgetting": 2266,
      "Ġprom": 2267,
      "Ġexce": 2268,
      "Ġintermittent": 2269,
      "Ġshort": 2270,
      "Ġbuil": 2271,
      "Ġclear": 2272,
      "Ġportfolio": 2273,
      "Ġtechniques": 2274,
      "thing": 2275,
      "Ġ8": 2276,
      "Ġteams": 2277,
      "Ġpossibly": 2278,
      "Ġcodes": 2279,
      "Qu": 2280,
      "ampaign": 2281,
      "la": 2282,
      "Ġ\"": 2283,
      "Ġmeet": 2284,
      "Ġread": 2285,
      "Ġim": 2286,
      "Ġhaven": 2287,
      "Ġseam": 2288,
      "Ġbenefits": 2289,
      "ĠStrateg": 2290,
      "Ġexternal": 2291,
      "Ġversions": 2292,
      "Ġcomputer": 2293,
      "Ġtot": 2294,
      "Ġprotection": 2295,
      "Ġseamless": 2296,
      "Ġsomet": 2297,
      "Ġsur": 2298,
      "Ġserious": 2299,
      "Ġend": 2300,
      "ermine": 2301,
      "Ġreference": 2302,
      "Ġdetermine": 2303,
      "Concern": 2304,
      "Ġappropriate": 2305,
      "suring": 2306,
      "vious": 2307,
      "Ġinvoice": 2308,
      "Ġside": 2309,
      "Ġlearn": 2310,
      "ell": 2311,
      "IP": 2312,
      "Ġawait": 2313,
      "Fi": 2314,
      "Ġinvolved": 2315,
      "Ġdeploy": 2316,
      "Ġloss": 2317,
      "ses": 2318,
      "Ġorig": 2319,
      "Ġspace": 2320,
      "Ġkeen": 2321,
      "Ġoperation": 2322,
      "sh": 2323,
      "Ġsat": 2324,
      "Ġthan": 2325,
      "ounts": 2326,
      "Ġorigin": 2327,
      "Ġreal": 2328,
      "Ġconcerning": 2329,
      "Ġsud": 2330,
      "Ġincidents": 2331,
      "Ġprojects": 2332,
      "fact": 2333,
      "Ġtempor": 2334,
      "Ġwar": 2335,
      "Ġtracking": 2336,
      "irt": 2337,
      "Ġque": 2338,
      "ĠAttempt": 2339,
      "Ġsudden": 2340,
      "Ġperformed": 2341,
      "uck": 2342,
      "Ġfine": 2343,
      "ĠAdobe": 2344,
      "Ġexists": 2345,
      "AM": 2346,
      "Ġcopy": 2347,
      "Ġpeak": 2348,
      "Ġpresent": 2349,
      ",\\": 2350,
      "Ġresource": 2351,
      "Ġconnected": 2352,
      "Ġmanual": 2353,
      "Ġapply": 2354,
      "ined": 2355,
      "Ġdowntime": 2356,
      "ĠTools": 2357,
      "Ġauthentication": 2358,
      "icate": 2359,
      "Ġaddressing": 2360,
      "par": 2361,
      "Ġleft": 2362,
      "Ġnotification": 2363,
      "Ġcompleted": 2364,
      "Ġcorrectly": 2365,
      "Ġacknowledge": 2366,
      "Ġupload": 2367,
      "Ġpasswords": 2368,
      "Ġconcerned": 2369,
      "ublic": 2370,
      "ĠLooking": 2371,
      "Ġexpected": 2372,
      "Ġreinstalling": 2373,
      "Ġiniti": 2374,
      "ĠEfforts": 2375,
      "20": 2376,
      "Ġpredict": 2377,
      "Ġlikely": 2378,
      "Ġsmooth": 2379,
      "Ġattempting": 2380,
      "Ġmor": 2381,
      "Ġcreat": 2382,
      "step": 2383,
      "Ġpack": 2384,
      "Ġhim": 2385,
      "Ġfill": 2386,
      "Ġimportant": 2387,
      "Ġnow": 2388,
      "dered": 2389,
      "Ġidentified": 2390,
      "Ġfeel": 2391,
      "Ġmonitoring": 2392,
      "'re": 2393,
      "ote": 2394,
      "though": 2395,
      "Ġtower": 2396,
      "Ġattach": 2397,
      "Ġpotentially": 2398,
      "Ġmorning": 2399,
      "Ġestabl": 2400,
      "ĠOnline": 2401,
      "Ġfew": 2402,
      "Ġitems": 2403,
      "Ġresponding": 2404,
      "isc": 2405,
      "utor": 2406,
      "Ġmust": 2407,
      "Ġfirmware": 2408,
      "Ġmigr": 2409,
      "Ġqueue": 2410,
      "Ġlogin": 2411,
      "Ġinput": 2412,
      "ility": 2413,
      "Ġremote": 2414,
      "cket": 2415,
      "Ġreason": 2416,
      "Ġed": 2417,
      "Ġrequis": 2418,
      "indows": 2419,
      "Ġachieve": 2420,
      "Ġhind": 2421,
      "Ġmandat": 2422,
      "Ġrepos": 2423,
      "Ġbackup": 2424,
      "look": 2425,
      "Ġfinds": 2426,
      "Ġstate": 2427,
      "Ġcommit": 2428,
      "Ġmandatory": 2429,
      "Ġordered": 2430,
      "ips": 2431,
      "Ġbas": 2432,
      "self": 2433,
      "Ġarea": 2434,
      "Ġsumm": 2435,
      "Ġrepositor": 2436,
      "Ġmove": 2437,
      "Ġ202": 2438,
      "iar": 2439,
      "Ġvac": 2440,
      "ĠOut": 2441,
      "ĠNot": 2442,
      "Ġquickly": 2443,
      "Ġprint": 2444,
      "Ġonce": 2445,
      "Ġprevious": 2446,
      "Ġobserved": 2447,
      "Phone": 2448,
      "Ġz": 2449,
      "ĠPlatform": 2450,
      "Ġlost": 2451,
      "Ġtypes": 2452,
      "Ġscans": 2453,
      "Ġpast": 2454,
      "config": 2455,
      "Ġ,": 2456,
      "Ġability": 2457,
      "ĠDo": 2458,
      "ries": 2459,
      "Ġstudies": 2460,
      "Ġredu": 2461,
      "Ġunfortunately": 2462,
      "Ġimprovements": 2463,
      "Ġimpacted": 2464,
      "Ġlibrary": 2465,
      "Ġ6": 2466,
      "ors": 2467,
      "Ġreceipts": 2468,
      "Ġrestore": 2469,
      "Ġpublic": 2470,
      "Ġrequesting": 2471,
      "Ġentity": 2472,
      "Ġexpire": 2473,
      "Ġdiagnost": 2474,
      "Ġbased": 2475,
      "ĠSte": 2476,
      "ove": 2477,
      "etooth": 2478,
      "luetooth": 2479,
      "rop": 2480,
      "Ġefficient": 2481,
      "ĠSh": 2482,
      "Ġkeyboard": 2483,
      "Ġhost": 2484,
      "ann": 2485,
      "Ġfull": 2486,
      "Ġenhanced": 2487,
      "Ġadjustments": 2488,
      "formance": 2489,
      "Ġleader": 2490,
      "ĠCan": 2491,
      "ession": 2492,
      "Ġselect": 2493,
      "Ġcomments": 2494,
      "nI": 2495,
      "Ġfacilitate": 2496,
      "Ġtutor": 2497,
      "Ġrecip": 2498,
      "Ġsummary": 2499,
      "ited": 2500,
      "ireless": 2501,
      "ller": 2502,
      "ĠRequest": 2503,
      "Ġmalfunction": 2504,
      "ĠClick": 2505,
      "ond": 2506,
      "Ġrefres": 2507,
      "Ġworkflows": 2508,
      "ĠHow": 2509,
      "Ġloading": 2510,
      "aily": 2511,
      "Ġbattery": 2512,
      "Ġshow": 2513,
      "Ġcontain": 2514,
      "Ġrole": 2515,
      "Ġrecipient": 2516,
      "Ġine": 2517,
      "ĠRed": 2518,
      "RM": 2519,
      "Ġblock": 2520,
      "ode": 2521,
      "Ġmarket": 2522,
      "Ġcy": 2523,
      "Ġtimecard": 2524,
      "ĠAccess": 2525,
      "Ġenhancements": 2526,
      "ishing": 2527,
      "Ġentered": 2528,
      "Ġprocedures": 2529,
      "droid": 2530,
      "ring": 2531,
      "Ġide": 2532,
      "Ġsepar": 2533,
      "Ġgit": 2534,
      "Ġaccurate": 2535,
      "BM": 2536,
      "ĠClickUp": 2537,
      "ier": 2538,
      "ancing": 2539,
      "Ġpropo": 2540,
      "sufficient": 2541,
      "Ġinquiry": 2542,
      "Ġdem": 2543,
      "Ġpriv": 2544,
      "AP": 2545,
      "Ġdaily": 2546,
      "Ġcables": 2547,
      "ĠAs": 2548,
      "imize": 2549,
      "ĠInit": 2550,
      "Ġadministration": 2551,
      "Ġforecas": 2552,
      "Ġensuring": 2553,
      "ault": 2554,
      "Ġhes": 2555,
      "Ġrobust": 2556,
      "Ġrespons": 2557,
      "ĠCRM": 2558,
      "Ġcaches": 2559,
      "orough": 2560,
      "Ġthorough": 2561,
      "Ġbook": 2562,
      "Ġinconsistent": 2563,
      "Ġhesitate": 2564,
      "Ġobject": 2565,
      "Ġaccordingly": 2566,
      "Ġupgrad": 2567,
      "port": 2568,
      "Ġabs": 2569,
      "apter": 2570,
      "Best": 2571,
      "Ġclean": 2572,
      "ĠBre": 2573,
      "Ġdirectly": 2574,
      "Ġinconsistencies": 2575,
      "ĠAttempts": 2576,
      "aking": 2577,
      "Ġpip": 2578,
      "Ġdiscounts": 2579,
      "Ġrequisition": 2580,
      "go": 2581,
      "unch": 2582,
      "Ġbug": 2583,
      "add": 2584,
      "ĠSteps": 2585,
      "Ġextension": 2586,
      "Ġinsufficient": 2587,
      "ĠMac": 2588,
      "Ġincreased": 2589,
      "Ġwrite": 2590,
      "Ġfailures": 2591,
      "arily": 2592,
      "ĠCampaign": 2593,
      "Ġhighly": 2594,
      "Ġled": 2595,
      "change": 2596,
      "ĠBreach": 2597,
      "usion": 2598,
      "ccessful": 2599,
      "acy": 2600,
      "Ġunsu": 2601,
      "incerely": 2602,
      "Ġgoing": 2603,
      "Ġmisconfig": 2604,
      "Ġadvanced": 2605,
      "arding": 2606,
      "Ġtv": 2607,
      "Ġrecommended": 2608,
      "ĠInc": 2609,
      "vert": 2610,
      "Ġprograms": 2611,
      "Ġdevelopment": 2612,
      "going": 2613,
      "ings": 2614,
      "Ġgot": 2615,
      "tt": 2616,
      "Ġnotify": 2617,
      "Ġwants": 2618,
      "Ġpipel": 2619,
      "rib": 2620,
      "got": 2621,
      "ield": 2622,
      "Ġurgency": 2623,
      "An": 2624,
      "esk": 2625,
      "Ġcharges": 2626,
      "ĠInitial": 2627,
      "Ġlever": 2628,
      "Ġlimitations": 2629,
      "ctions": 2630,
      "Ġexec": 2631,
      "Ġgoals": 2632,
      "enses": 2633,
      "Ġreplacement": 2634,
      "gre": 2635,
      "ĠSc": 2636,
      "ĠIBM": 2637,
      "Ġclar": 2638,
      "Ġwireless": 2639,
      "Ġdeleted": 2640,
      "ĠOpt": 2641,
      "Ġ5": 2642,
      "accur": 2643,
      "dom": 2644,
      "Ġprodu": 2645,
      "ĠReport": 2646,
      "ternative": 2647,
      "Ġsta": 2648,
      "Ġimage": 2649,
      "ĠServices": 2650,
      "Ġhappened": 2651,
      "oid": 2652,
      "Ġprep": 2653,
      "ĠHowever": 2654,
      "Ġtren": 2655,
      "Ġscalability": 2656,
      "Ġtutorials": 2657,
      "Ġdeli": 2658,
      "Ġpolicies": 2659,
      "nity": 2660,
      "ĠFurther": 2661,
      "Ġmost": 2662,
      "Ġaudit": 2663,
      "amer": 2664,
      "Ġseparate": 2665,
      "rand": 2666,
      "Ġ36": 2667,
      "making": 2668,
      "Ġ{": 2669,
      "Ġdisruption": 2670,
      "Ġmoment": 2671,
      "Ġentries": 2672,
      "ĠWh": 2673,
      "Ġrestr": 2674,
      "Enh": 2675,
      "Sp": 2676,
      "station": 2677,
      "Ġopportunity": 2678,
      "PN": 2679,
      "ĠQu": 2680,
      "ees": 2681,
      "Ġadapter": 2682,
      "Ġcontacted": 2683,
      "Ġsources": 2684,
      "Ġunsuccessful": 2685,
      "Ġfollowed": 2686,
      "ĠRegarding": 2687,
      "Ġrepository": 2688,
      "ĠOS": 2689,
      "Ġlinked": 2690,
      "Ġavoid": 2691,
      "Ġfunctioning": 2692,
      "ĠRun": 2693,
      "ĠProblem": 2694,
      "ingdom": 2695,
      "itions": 2696,
      "Ġkingdom": 2697,
      "Ġet": 2698,
      "light": 2699,
      "Ġstreet": 2700,
      "oring": 2701,
      "Ġrecon": 2702,
      "ĠBrand": 2703,
      "AA": 2704,
      "Ġalong": 2705,
      "ĠEx": 2706,
      "mission": 2707,
      "Ġline": 2708,
      "Ġkb": 2709,
      "endar": 2710,
      "pped": 2711,
      "Ġmaintain": 2712,
      "Ġpatches": 2713,
      "Ġcho": 2714,
      "wards": 2715,
      "Ġrequires": 2716,
      "ĠNo": 2717,
      "IPAA": 2718,
      "Ġsize": 2719,
      "ĠClear": 2720,
      "Ġbroad": 2721,
      "Ġdecre": 2722,
      "Ġquery": 2723,
      "Ġplanning": 2724,
      "Ġongoing": 2725,
      "Ġvalid": 2726,
      "Ġpc": 2727,
      "aged": 2728,
      "ĠHIPAA": 2729,
      "be": 2730,
      "icip": 2731,
      "ished": 2732,
      "astic": 2733,
      "onitor": 2734,
      "Ġready": 2735,
      "Ġfunctionality": 2736,
      "Ġinvolving": 2737,
      "Ġlogging": 2738,
      "ĠZo": 2739,
      "ably": 2740,
      "Ġlg": 2741,
      "Ġpromot": 2742,
      "Ġqueries": 2743,
      "ian": 2744,
      "Ġsony": 2745,
      "Ġbucket": 2746,
      "There": 2747,
      "ather": 2748,
      "ower": 2749,
      "ĠAzure": 2750,
      "Ġfeature": 2751,
      "Ġhowever": 2752,
      "Ġmemory": 2753,
      "Ġexpert": 2754,
      "Ġtotal": 2755,
      "ĠPost": 2756,
      "Ġfails": 2757,
      "ants": 2758,
      "ĠRecent": 2759,
      "Ġtrends": 2760,
      "ature": 2761,
      "Ġstaff": 2762,
      "Ġ.": 2763,
      "ĠStrategies": 2764,
      "Ġautomatically": 2765,
      "**": 2766,
      "Ġlock": 2767,
      "ntivirus": 2768,
      "Ġimmediately": 2769,
      "Ġstuck": 2770,
      "Ġtempl": 2771,
      "dr": 2772,
      "ĠClean": 2773,
      "Ġtopic": 2774,
      "Ġwhy": 2775,
      "ffice": 2776,
      "most": 2777,
      "ĠUnable": 2778,
      "itect": 2779,
      "Ġsuspected": 2780,
      "Ġcalendar": 2781,
      "Ġrejected": 2782,
      "Ġsubmitting": 2783,
      "Ġvalue": 2784,
      "lication": 2785,
      "ĠVM": 2786,
      "net": 2787,
      "ĠWi": 2788,
      "Books": 2789,
      "ickBooks": 2790,
      "she": 2791,
      "Ġinaccur": 2792,
      "Ġemployees": 2793,
      "lex": 2794,
      "ĠmacOS": 2795,
      "orrow": 2796,
      "Ġassets": 2797,
      "quate": 2798,
      "Ġseeing": 2799,
      "let": 2800,
      "Ġmicrosoft": 2801,
      "ordin": 2802,
      "Ġsched": 2803,
      "amera": 2804,
      "sers": 2805,
      "ried": 2806,
      "ĠOffice": 2807,
      "Ġagre": 2808,
      "Ġlaunch": 2809,
      "Ġ2021": 2810,
      "Ġoperating": 2811,
      "Ġpost": 2812,
      "Ġregulations": 2813,
      "Ġoperational": 2814,
      "can": 2815,
      "ead": 2816,
      "olog": 2817,
      "Ġsays": 2818,
      "Ġcontroller": 2819,
      "Ġlow": 2820,
      "greSQL": 2821,
      "Ġnor": 2822,
      "ĠServer": 2823,
      "Ġquestion": 2824,
      "ases": 2825,
      "ĠQuickBooks": 2826,
      "Ġcour": 2827,
      "Ġverified": 2828,
      "Ġvisitor": 2829,
      "Ġarchitect": 2830,
      "ĠPostgreSQL": 2831,
      "Ġweeks": 2832,
      "Ġeveryone": 2833,
      "Ġprofile": 2834,
      "oci": 2835,
      "ird": 2836,
      "ton": 2837,
      "Ġassoci": 2838,
      "Ġeverything": 2839,
      "Ġpar": 2840,
      "Ġvisible": 2841,
      "Ġidentifying": 2842,
      "Ġtaking": 2843,
      "gether": 2844,
      "Ġaid": 2845,
      "ĠImmediate": 2846,
      "sheet": 2847,
      "lastic": 2848,
      "Ġvulnerability": 2849,
      "Iss": 2850,
      "quired": 2851,
      "ĠVer": 2852,
      "Ġhindering": 2853,
      "ribut": 2854,
      "Ġstandards": 2855,
      "atch": 2856,
      "Ġcoordin": 2857,
      "sole": 2858,
      "cker": 2859,
      "Ġdesired": 2860,
      "Ġcharge": 2861,
      "product": 2862,
      "Ġassociated": 2863,
      "Ġwon": 2864,
      "Ġfact": 2865,
      "ester": 2866,
      "Ġcustomers": 2867,
      "imes": 2868,
      "Ġminimize": 2869,
      "Ġfurn": 2870,
      "search": 2871,
      "imal": 2872,
      "Ġzone": 2873,
      "Ġplay": 2874,
      "comes": 2875,
      "vd": 2876,
      "Ġalert": 2877,
      "Ġequ": 2878,
      "Ġtimeline": 2879,
      "ĠMe": 2880,
      "Ġrange": 2881,
      "Ġfurnish": 2882,
      "ouch": 2883,
      "Ġlarg": 2884,
      "Ġblvd": 2885,
      "Ġbreak": 2886,
      "Ġutilize": 2887,
      "ipment": 2888,
      "Ġtogether": 2889,
      "Ġmigration": 2890,
      "ĠSAP": 2891,
      "ĠOr": 2892,
      "Ġpurpo": 2893,
      "ogn": 2894,
      "Our": 2895,
      "Ġdriver": 2896,
      "Ġsupply": 2897,
      "lasticsearch": 2898,
      "Ġbefore": 2899,
      "Ġweb": 2900,
      "Ġforms": 2901,
      "Ġfaced": 2902,
      "Ġwrong": 2903,
      "Ġexample": 2904,
      "Ġtom": 2905,
      "Ġlonger": 2906,
      "Ġstreamline": 2907,
      "Ġpipeline": 2908,
      "action": 2909,
      "Ġseem": 2910,
      "ansion": 2911,
      "Ġcolleague": 2912,
      "isfact": 2913,
      "grade": 2914,
      "Ġbenefit": 2915,
      "Ġjoin": 2916,
      "Ġplugin": 2917,
      "Ġmodifications": 2918,
      "ship": 2919,
      "Ġabsence": 2920,
      "Ġtimeout": 2921,
      "ling": 2922,
      "Ġetc": 2923,
      "pr": 2924,
      "Ġsales": 2925,
      "Ġintegrated": 2926,
      "Ġnotice": 2927,
      "ospital": 2928,
      "Ġmaternity": 2929,
      "asing": 2930,
      "inter": 2931,
      "issu": 2932,
      "Ġsto": 2933,
      "ĠElasticsearch": 2934,
      "cript": 2935,
      "Ġunp": 2936,
      "Ġoffers": 2937,
      "coming": 2938,
      "Ġimproved": 2939,
      "Ġms": 2940,
      "Ġlot": 2941,
      "Ġspecify": 2942,
      "Ġgrant": 2943,
      "Ġutilizing": 2944,
      "Ġwarning": 2945,
      "Ġfit": 2946,
      "Ġoutcomes": 2947,
      "Ġadjusting": 2948,
      "Ġsource": 2949,
      "esterday": 2950,
      "ived": 2951,
      "Ġ19": 2952,
      "Ġdelay": 2953,
      "Ġalloc": 2954,
      "Ġbringing": 2955,
      "Ġreached": 2956,
      "ĠER": 2957,
      "Facing": 2958,
      "Ġflow": 2959,
      "Ġyesterday": 2960,
      "Ġdownload": 2961,
      "Ġseriously": 2962,
      "ten": 2963,
      "other": 2964,
      "Ġattachments": 2965,
      "Ġprob": 2966,
      "Ġanalyze": 2967,
      "ves": 2968,
      "Ġsmart": 2969,
      "orad": 2970,
      "Ġcreating": 2971,
      "Ġunre": 2972,
      "ĠOracle": 2973,
      "Assistance": 2974,
      "Ġbad": 2975,
      "Ġactivities": 2976,
      "Ġthough": 2977,
      "Seeking": 2978,
      "Ġinade": 2979,
      "Ġstudio": 2980,
      "Ġkeys": 2981,
      "Ġstore": 2982,
      "ffective": 2983,
      "Ġtouch": 2984,
      "rgent": 2985,
      "pping": 2986,
      "Ġperforming": 2987,
      "ret": 2988,
      "Ġsporad": 2989,
      "SS": 2990,
      "Ġconsole": 2991,
      "Ġsure": 2992,
      "Ġpatience": 2993,
      "ĠDatabase": 2994,
      "Ġconducting": 2995,
      "ĠPer": 2996,
      "Ġinadequate": 2997,
      "az": 2998,
      "Ġasap": 2999,
      "Ġawareness": 3000,
      "urrently": 3001,
      "Ġmyself": 3002,
      "Ġpages": 3003,
      "ĠAb": 3004,
      "Ġmean": 3005,
      "ĠERP": 3006,
      "Ġupcoming": 3007,
      "Ġimproving": 3008,
      "--": 3009,
      "Ġsuggestions": 3010,
      "Ġeagerly": 3011,
      "resent": 3012,
      "Ġconducted": 3013,
      "rem": 3014,
      "gged": 3015,
      "Ġautomation": 3016,
      "ĠFurthermore": 3017,
      "ĠX": 3018,
      "Ġpress": 3019,
      "Ġcrashing": 3020,
      "Ġwait": 3021,
      "Ġfusion": 3022,
      "Ġthreat": 3023,
      "Ġassignment": 3024,
      "RA": 3025,
      "Ġgal": 3026,
      "ĠAbout": 3027,
      "Ġapple": 3028,
      "Ġinquiring": 3029,
      "peration": 3030,
      "ĠVerify": 3031,
      "Ġresetting": 3032,
      "please": 3033,
      "Ġconfigured": 3034,
      "Ġoutput": 3035,
      "Ġremoved": 3036,
      "Ġdrop": 3037,
      "Ġdocuments": 3038,
      "Ġfrequent": 3039,
      "Ġago": 3040,
      "Ġclosed": 3041,
      "ake": 3042,
      "Ġcharger": 3043,
      "hop": 3044,
      "Ġscalable": 3045,
      "Ġsound": 3046,
      "Ġreply": 3047,
      "ĠIssue": 3048,
      "Ġtomorrow": 3049,
      "Ġoriginal": 3050,
      "Ġbud": 3051,
      "axy": 3052,
      "Ġspeak": 3053,
      "Ġcertific": 3054,
      "Ġcompromised": 3055,
      "etings": 3056,
      "ken": 3057,
      "ho": 3058,
      "Ġsecond": 3059,
      "Ġplugged": 3060,
      "Ġreturns": 3061,
      "Ġhappening": 3062,
      "Ġcoo": 3063,
      "Ġ7": 3064,
      "cal": 3065,
      "Ġretr": 3066,
      "ĠEnc": 3067,
      "ĠDocker": 3068,
      "Ġdecrease": 3069,
      "orp": 3070,
      "Ġthird": 3071,
      "aming": 3072,
      "Ġdidn": 3073,
      "Ġsurve": 3074,
      "actics": 3075,
      "unctions": 3076,
      "Ġexpect": 3077,
      "Ġmodels": 3078,
      "//": 3079,
      "ĠVPN": 3080,
      "Ġgalaxy": 3081,
      "Ġformul": 3082,
      "iveness": 3083,
      "Ġrepresent": 3084,
      "Ġopin": 3085,
      "orpor": 3086,
      "lack": 3087,
      "Ġcauses": 3088,
      "Ġraise": 3089,
      "Ġcooperation": 3090,
      "Ġremind": 3091,
      "Ġshortly": 3092,
      "Ġcamera": 3093,
      "Ġbreakdown": 3094,
      "Ġsporadic": 3095,
      "phone": 3096,
      "Ġscan": 3097,
      "ĠHospital": 3098,
      "Ġrecogn": 3099,
      "Ġwor": 3100,
      "ĠThey": 3101,
      "Ġencounter": 3102,
      "Ġleg": 3103,
      "Ġefficiently": 3104,
      "Ġsometimes": 3105,
      "Ġbutton": 3106,
      "Ġsheet": 3107,
      "uration": 3108,
      "Ġvirus": 3109,
      "Ġinterface": 3110,
      "Ġscheduled": 3111,
      "aph": 3112,
      "Ġcome": 3113,
      "Ġdetect": 3114,
      "ĠSincerely": 3115,
      "way": 3116,
      "Ġenhancement": 3117,
      "Ġanother": 3118,
      "ĠSQL": 3119,
      "Ġamount": 3120,
      "Ġprivile": 3121,
      "Ġsave": 3122,
      "Inquiry": 3123,
      "ĠRedis": 3124,
      "Ġlocked": 3125,
      "Ġrev": 3126,
      "Ġmer": 3127,
      "Ġassessment": 3128,
      "icipated": 3129,
      "Ġguidelines": 3130,
      "abling": 3131,
      "Un": 3132,
      "Rep": 3133,
      "Ġ13": 3134,
      "irtual": 3135,
      "ĠExp": 3136,
      "Ġma": 3137,
      "Ġreasons": 3138,
      "ĠNeed": 3139,
      "point": 3140,
      "Ġraised": 3141,
      "Ġincompatible": 3142,
      "10": 3143,
      "pas": 3144,
      "Ġnetworks": 3145,
      "Ġsync": 3146,
      "igate": 3147,
      "Ġfinal": 3148,
      "Ġaudits": 3149,
      "Ġsubsid": 3150,
      "Report": 3151,
      "Ġcorre": 3152,
      "uling": 3153,
      "Ġtemporary": 3154,
      "bit": 3155,
      "spons": 3156,
      "Ġ10": 3157,
      "Ġunderper": 3158,
      "Ġauthor": 3159,
      "Ġrecover": 3160,
      "Ġinterrupt": 3161,
      "ĠMacBook": 3162,
      "Ġsuppli": 3163,
      "Ġalgorithms": 3164,
      "Ġexamine": 3165,
      "Ġforecasts": 3166,
      "Ġinstead": 3167,
      "Ġremove": 3168,
      "ternatively": 3169,
      "ĠBluetooth": 3170,
      "Ġsuccessfully": 3171,
      "iaries": 3172,
      "Ġsubsidiaries": 3173,
      "LA": 3174,
      "icated": 3175,
      "Ġleaving": 3176,
      "osed": 3177,
      "Ġequipment": 3178,
      "ĠPotential": 3179,
      "Ġtimely": 3180,
      "Ġrd": 3181,
      "ĠRequired": 3182,
      "Ġlarge": 3183,
      "ially": 3184,
      "ommer": 3185,
      "Ġsy": 3186,
      "Ġown": 3187,
      "criptions": 3188,
      "Ġcountry": 3189,
      "azon": 3190,
      "Ġincludes": 3191,
      "Ġvalu": 3192,
      "ĠAlso": 3193,
      "ommerce": 3194,
      "cel": 3195,
      "Ġdepend": 3196,
      "Ġcommitted": 3197,
      "Ġtoo": 3198,
      "ĠBilling": 3199,
      "Ġdiscrepancy": 3200,
      "ĠDesk": 3201,
      "ĠEnh": 3202,
      "Ġestablish": 3203,
      "Ġformula": 3204,
      "atives": 3205,
      "Ġspecifically": 3206,
      "Ġmainten": 3207,
      "Ġunrespons": 3208,
      "ĠOptimiz": 3209,
      "Ġmaintenance": 3210,
      "Ġcanon": 3211,
      "Ġdefault": 3212,
      "gth": 3213,
      "Ġvisit": 3214,
      "Ġgoal": 3215,
      "Ġfirewalls": 3216,
      "Ġmeetings": 3217,
      "Ġroll": 3218,
      "Ġaris": 3219,
      "udio": 3220,
      "Ġexplorer": 3221,
      "part": 3222,
      "Ġhist": 3223,
      "Ġopinions": 3224,
      "IRA": 3225,
      "Ġgather": 3226,
      "Ġlif": 3227,
      "Ġcompatible": 3228,
      "Ġresult": 3229,
      "://": 3230,
      "Ġareas": 3231,
      "Ġanymore": 3232,
      "Ġglad": 3233,
      "man": 3234,
      "Ġadvert": 3235,
      "Ġasking": 3236,
      "Ġincompatibility": 3237,
      "Ġfixed": 3238,
      "Ġnotified": 3239,
      "aced": 3240,
      "Ġvirtual": 3241,
      "Ġexamples": 3242,
      "Ġexpress": 3243,
      "Ġconfirmed": 3244,
      "Ġineffective": 3245,
      "].": 3246,
      "lim": 3247,
      "Ġdeployment": 3248,
      "Ġterm": 3249,
      "Ġpath": 3250,
      "Ġconsist": 3251,
      "ĠMySQL": 3252,
      "Ġamazon": 3253,
      "Ġindust": 3254,
      "formation": 3255,
      "ĠAcknowled": 3256,
      "Ġmanaged": 3257,
      "ĠSmartsheet": 3258,
      "Ġpermission": 3259,
      "Ġseen": 3260,
      "Ġagainst": 3261,
      "Ġpriorit": 3262,
      "ĠJIRA": 3263,
      "Ġspecif": 3264,
      "force": 3265,
      "Ġhighlight": 3266,
      "und": 3267,
      "Ġcrashed": 3268,
      "ĠUpdate": 3269,
      "Ġexcel": 3270,
      "Ġnest": 3271,
      "ĠFacing": 3272,
      "rence": 3273,
      "ĠIssues": 3274,
      "Ġcourse": 3275,
      "Ġspecifics": 3276,
      "ng": 3277,
      "Ġmsg": 3278,
      "ĠPerformance": 3279,
      "Ġreduce": 3280,
      "Ġsn": 3281,
      "Ġred": 3282,
      "Ġtowards": 3283,
      "ribu": 3284,
      "Ġscheduling": 3285,
      "ribute": 3286,
      "Ġdiscon": 3287,
      "Ġaddresses": 3288,
      "Ġsatisfact": 3289,
      "arm": 3290,
      "ents": 3291,
      "Ġfully": 3292,
      "Ġanalyzing": 3293,
      "annel": 3294,
      "Ġdeliver": 3295,
      "âĢ": 3296,
      "ĠAndroid": 3297,
      "Ġdra": 3298,
      "Ġrestrict": 3299,
      "Ġ365": 3300,
      "Ġche": 3301,
      "Ġnone": 3302,
      "oss": 3303,
      "Ġpos": 3304,
      "ynam": 3305,
      "Ġunresponsive": 3306,
      "Ġes": 3307,
      "Ġmine": 3308,
      "Ġalign": 3309,
      "Ġalthough": 3310,
      "Ġ40": 3311,
      "Ġlicenses": 3312,
      "Ġawaiting": 3313,
      "js": 3314,
      "Ġarisen": 3315,
      "Ġ$": 3316,
      "ĠSeeking": 3317,
      "Ġrefresh": 3318,
      "Ġguides": 3319,
      "ĠLet": 3320,
      "Ġregret": 3321,
      "Ġgoogle": 3322,
      "ĠGiven": 3323,
      "Ġwhose": 3324,
      "Ġfilled": 3325,
      "Ġslowdown": 3326,
      "Ġvisualization": 3327,
      "alk": 3328,
      "Ġfreez": 3329,
      "Ġtemplate": 3330,
      "cul": 3331,
      "idden": 3332,
      "ĠDet": 3333,
      "Ġmodify": 3334,
      "Ġdisconnect": 3335,
      "uum": 3336,
      "Ġbecome": 3337,
      "ĠSystems": 3338,
      "Ġcloud": 3339,
      "ficial": 3340,
      "Ġbeneficial": 3341,
      "lied": 3342,
      "overy": 3343,
      "Ġlooks": 3344,
      "Ġwish": 3345,
      "Ġcalls": 3346,
      "rength": 3347,
      "inary": 3348,
      "Ġnature": 3349,
      "Ġoffered": 3350,
      "Ġspecifications": 3351,
      "Ġcyber": 3352,
      "Ġpolicy": 3353,
      "Ġvacuum": 3354,
      "Ġpatch": 3355,
      "ĠAlternatively": 3356,
      "Ġglitch": 3357,
      "Ġheav": 3358,
      "Ġstrong": 3359,
      "otos": 3360,
      "Ġrooms": 3361,
      "Ġstopped": 3362,
      "mb": 3363,
      "nThank": 3364,
      "Ġpot": 3365,
      "work": 3366,
      "Ġesp": 3367,
      "sung": 3368,
      "ĠThanks": 3369,
      "ĠStudio": 3370,
      "amet": 3371,
      "ĠCurrently": 3372,
      "Ġknown": 3373,
      "amsung": 3374,
      "Ġrespond": 3375,
      "MA": 3376,
      "Ġboot": 3377,
      "Ġcleared": 3378,
      "Ġdisrupting": 3379,
      "Ġdiagnostics": 3380,
      "Can": 3381,
      "Ġtactics": 3382,
      "ĠNumber": 3383,
      "Ġaccepted": 3384,
      "ĠZoho": 3385,
      "ns": 3386,
      "Ġprec": 3387,
      "Ġeffectiveness": 3388,
      "eps": 3389,
      "endo": 3390,
      "Ġtechnolog": 3391,
      "Ġos": 3392,
      "Ġnorm": 3393,
      "Ġgranted": 3394,
      "Ġinde": 3395,
      "Ġcontinu": 3396,
      "Ġexception": 3397,
      "ĠRestarting": 3398,
      "Ġobjectives": 3399,
      "ned": 3400,
      "Ġcheers": 3401,
      "Ġnoted": 3402,
      "Ġfees": 3403,
      "mitted": 3404,
      "ĠSto": 3405,
      "Ġstop": 3406,
      "sequ": 3407,
      "Ġswiftly": 3408,
      "ional": 3409,
      "ĠTr": 3410,
      "Ġsupplier": 3411,
      "vo": 3412,
      "Ġ9": 3413,
      "Ġweekly": 3414,
      "Ġmanaging": 3415,
      "ercial": 3416,
      "ecially": 3417,
      "Ġcommercial": 3418,
      "Ġworried": 3419,
      "ician": 3420,
      "book": 3421,
      "ecessary": 3422,
      "Ġlisted": 3423,
      "Ġpoll": 3424,
      "Ġfield": 3425,
      "Ġkeeps": 3426,
      "Ġresulting": 3427,
      "Ġespecially": 3428,
      "System": 3429,
      "Ġweak": 3430,
      "Ġalmost": 3431,
      "Ġmeant": 3432,
      "Ġsomething": 3433,
      "ouse": 3434,
      "Ġstrength": 3435,
      "Ġhoping": 3436,
      "Ġbasic": 3437,
      "Ġtherm": 3438,
      "Ġeas": 3439,
      "Ġchannel": 3440,
      "Ġblocking": 3441,
      "ĠComp": 3442,
      "ĠInst": 3443,
      "set": 3444,
      "Ġsolve": 3445,
      "Ġcertificate": 3446,
      "ĠHe": 3447,
      "Ġchoose": 3448,
      "rences": 3449,
      "Ġtemporarily": 3450,
      "tr": 3451,
      "Ġestim": 3452,
      "Ġbit": 3453,
      "ĠIS": 3454,
      "Ġexpand": 3455,
      "Ġsyncing": 3456,
      "vail": 3457,
      "lomb": 3458,
      "utes": 3459,
      "Ġunn": 3460,
      "Ġxbox": 3461,
      "ĠRouter": 3462,
      "Ġfitbit": 3463,
      "Ġprobably": 3464,
      "ĠMon": 3465,
      "Ġacts": 3466,
      "Ġplaystation": 3467,
      "lying": 3468,
      "ccount": 3469,
      "Ġpredictive": 3470,
      "Ġunnecessary": 3471,
      "ances": 3472,
      "ĠTech": 3473,
      "ither": 3474,
      "ĠRes": 3475,
      "ĠAPIs": 3476,
      "Ġminutes": 3477,
      "ocu": 3478,
      "Ġexploring": 3479,
      "ĠOptimization": 3480,
      "Ġcolomb": 3481,
      "ĠAlthough": 3482,
      "Ġmist": 3483,
      "Ġproduction": 3484,
      "Ġsurvey": 3485,
      "bidden": 3486,
      "Ġgop": 3487,
      "Ġunit": 3488,
      "Ġgopro": 3489,
      "ality": 3490,
      "mpro": 3491,
      "Ġtechnician": 3492,
      "Ġprocedure": 3493,
      "Ġmaterials": 3494,
      "Ġedit": 3495,
      "Ġdistr": 3496,
      "Ġattack": 3497,
      "ĠInquiry": 3498,
      "party": 3499,
      "Ġtit": 3500,
      "leased": 3501,
      "Ġsites": 3502,
      "Ġgroup": 3503,
      "Ġextensions": 3504,
      "Ġadvertising": 3505,
      "ĠCV": 3506,
      "apier": 3507,
      "stant": 3508,
      "Ġactivity": 3509,
      "Ġothers": 3510,
      "ĠZapier": 3511,
      "isco": 3512,
      "no": 3513,
      "tain": 3514,
      "ĠFe": 3515,
      "Ġprivileged": 3516,
      "ĠStore": 3517,
      "Ġbuy": 3518,
      "ĠCisco": 3519,
      "irtable": 3520,
      "AT": 3521,
      "Ġsnow": 3522,
      "actions": 3523,
      "reetings": 3524,
      "Ġfl": 3525,
      "Ġoverhe": 3526,
      "Ġemployee": 3527,
      "Ġhistory": 3528,
      "Ġindustry": 3529,
      "Ġforecast": 3530,
      "mail": 3531,
      "ĠIs": 3532,
      "Ġdesk": 3533,
      "ibilities": 3534,
      "ĠGrowth": 3535,
      "Ġoccas": 3536,
      "Ġleverage": 3537,
      "driven": 3538,
      "Ġenabling": 3539,
      "usp": 3540,
      "Enhancing": 3541,
      "Ġstrengthen": 3542,
      "Ġdistrict": 3543,
      "Ġflick": 3544,
      "ĠAirtable": 3545,
      "Ġexport": 3546,
      "Ġagile": 3547,
      "Ġcertain": 3548,
      "request": 3549,
      "ouble": 3550,
      "Ġwhe": 3551,
      "ceived": 3552,
      "Ġbose": 3553,
      "Ġincreasing": 3554,
      "Ġplanned": 3555,
      "Concerns": 3556,
      "Ġcolombia": 3557,
      "wants": 3558,
      "Ġescal": 3559,
      "Ġcommunity": 3560,
      "Ġusu": 3561,
      "Ġmethod": 3562,
      "Ġowners": 3563,
      "ched": 3564,
      "Ġbegin": 3565,
      "cho": 3566,
      "Ġseve": 3567,
      "Ġchanging": 3568,
      "Ġsafeguarding": 3569,
      "Ġleast": 3570,
      "intendo": 3571,
      "Ġpredictions": 3572,
      "active": 3573,
      "Ġapproaches": 3574,
      "Ġbelgrade": 3575,
      "Ġresulted": 3576,
      "Ġideas": 3577,
      "Ġnintendo": 3578,
      "Ġexpired": 3579,
      "Ġfiltering": 3580,
      "Mac": 3581,
      "ĠCras": 3582,
      "ĠCont": 3583,
      "Ġagree": 3584,
      "uber": 3585,
      "ĠDevice": 3586,
      "Ġformat": 3587,
      "netes": 3588,
      "ubernetes": 3589,
      "Ġcr": 3590,
      "Ġapps": 3591,
      "Ġshown": 3592,
      "Ġofficial": 3593,
      "Ġinaccurate": 3594,
      "liminary": 3595,
      "Ġheavily": 3596,
      "Ġwhether": 3597,
      "Ġsamsung": 3598,
      "ĠKubernetes": 3599,
      "Ġinfo": 3600,
      "atory": 3601,
      "Ġrelease": 3602,
      "Ġstrict": 3603,
      "Issue": 3604,
      "Ġoverheating": 3605,
      "Ġpin": 3606,
      "ety": 3607,
      "Ġmonthly": 3608,
      "Ġresponsible": 3609,
      "cannot": 3610,
      "Ġgate": 3611,
      "Ġframe": 3612,
      "project": 3613,
      "..": 3614,
      "ale": 3615,
      "Ġansw": 3616,
      "Ġvol": 3617,
      "Ġrecovery": 3618,
      "top": 3619,
      "Ġhold": 3620,
      "ĠPy": 3621,
      "TT": 3622,
      "Ġtips": 3623,
      "Ġones": 3624,
      "lish": 3625,
      "Ġsubscriptions": 3626,
      "Ġindic": 3627,
      "AS": 3628,
      "Ġsending": 3629,
      "ĠDisc": 3630,
      "Ġlists": 3631,
      "ferences": 3632,
      "Ġinitiatives": 3633,
      "Ġlife": 3634,
      "ossible": 3635,
      "oint": 3636,
      "Ġsubmission": 3637,
      "Ġdiagnostic": 3638,
      "Ġspeed": 3639,
      "Ġentry": 3640,
      "Ġfolders": 3641,
      "ences": 3642,
      "ĠApplication": 3643,
      "201": 3644,
      "Ġrate": 3645,
      "ĠTool": 3646,
      "Ġcalcul": 3647,
      "Ġtrouble": 3648,
      "osing": 3649,
      "Ġcustomized": 3650,
      "Ġbuilding": 3651,
      "ĠSusp": 3652,
      "Ġ*": 3653,
      "initions": 3654,
      "Ġrefer": 3655,
      "Ġcustomization": 3656,
      "Ġfunctionalities": 3657,
      "rinter": 3658,
      "ivid": 3659,
      "ĠIncident": 3660,
      "Ġsole": 3661,
      "Ġfrequently": 3662,
      "Ġpromotions": 3663,
      "inning": 3664,
      "Ġthose": 3665,
      "Ġsaving": 3666,
      "Ġprotecting": 3667,
      "Slow": 3668,
      "Ġcalled": 3669,
      "Ġadvance": 3670,
      "Ġtimelines": 3671,
      "Ġshut": 3672,
      "Ġoccurring": 3673,
      "Ġpa": 3674,
      "Ġdead": 3675,
      "ĠRecently": 3676,
      "Ġyear": 3677,
      "Ġlater": 3678,
      "DB": 3679,
      "cle": 3680,
      "ĠCh": 3681,
      "Ġaccountant": 3682,
      "Ġoccurs": 3683,
      "Ġinterns": 3684,
      "ral": 3685,
      "Ġmax": 3686,
      "Ġthread": 3687,
      "Ġbeh": 3688,
      "Ġdirector": 3689,
      "Ġmalicious": 3690,
      "Ġmen": 3691,
      "Ġdisclo": 3692,
      "eper": 3693,
      "ermin": 3694,
      "Ġsession": 3695,
      "Ġwho": 3696,
      "Ġautomated": 3697,
      "Ġmonths": 3698,
      "ĠReceived": 3699,
      "otoshop": 3700,
      "Ġflickering": 3701,
      "Ġsolely": 3702,
      "rr": 3703,
      "Ġsay": 3704,
      "Ġlocations": 3705,
      "eared": 3706,
      "Ġcance": 3707,
      "Ġdom": 3708,
      "acity": 3709,
      "Ġplugins": 3710,
      "ĠInformation": 3711,
      "Ġpreferred": 3712,
      "ĠShould": 3713,
      "__": 3714,
      "Ġmailing": 3715,
      "ividual": 3716,
      "ones": 3717,
      "urch": 3718,
      "Ġdeeper": 3719,
      "Ġupgrading": 3720,
      "vailable": 3721,
      "Ġaccuracy": 3722,
      "Ġauthenticate": 3723,
      "ination": 3724,
      "Ġpair": 3725,
      "Ġeval": 3726,
      "Is": 3727,
      "Ġsomeone": 3728,
      "Ġmissing": 3729,
      "Ġindividual": 3730,
      "aps": 3731,
      "rel": 3732,
      "Ġcover": 3733,
      "ĠDuring": 3734,
      "Ġprovides": 3735,
      "Ġexecut": 3736,
      "ins": 3737,
      "ume": 3738,
      "Ġmaybe": 3739,
      "Ġparamet": 3740,
      "requ": 3741,
      "rodu": 3742,
      "Ġunderlying": 3743,
      "Ġexpansion": 3744,
      "Ġmalware": 3745,
      "ĠAir": 3746,
      "Ġanything": 3747,
      "Ġcompon": 3748,
      "Ġpersonalized": 3749,
      "LAB": 3750,
      "ĠRAM": 3751,
      "Ġmodule": 3752,
      "iving": 3753,
      "Ġcate": 3754,
      "Ġenough": 3755,
      "Ġinvent": 3756,
      "obot": 3757,
      "Ġachie": 3758,
      "Ġdomain": 3759,
      "Ġrect": 3760,
      "Ġdisapp": 3761,
      "irst": 3762,
      "unable": 3763,
      "Ġdashboards": 3764,
      "Ġautomatic": 3765,
      "Ġreminder": 3766,
      "ĠAct": 3767,
      "ĠMAT": 3768,
      "Ġput": 3769,
      "rome": 3770,
      "Ġgets": 3771,
      "aphics": 3772,
      "ĠMATLAB": 3773,
      "Ġknowing": 3774,
      "Ġdirectory": 3775,
      "Ġbudget": 3776,
      "Ġmit": 3777,
      "Ġbul": 3778,
      "Ġtimecards": 3779,
      "Ġmeantime": 3780,
      "Ġinventory": 3781,
      "Security": 3782,
      "essage": 3783,
      "spect": 3784,
      "Ġjust": 3785,
      "Ġdisabled": 3786,
      "Ġpackage": 3787,
      "Ġrecognize": 3788,
      "SG": 3789,
      "Ġinterruptions": 3790,
      "Ġindicate": 3791,
      "Ġprofession": 3792,
      "Ġcoordinator": 3793,
      "hib": 3794,
      "term": 3795,
      "andra": 3796,
      "Ġdoing": 3797,
      "Ġentire": 3798,
      "assandra": 3799,
      "Ġpropos": 3800,
      "Ġfactory": 3801,
      "lea": 3802,
      "Ġrenew": 3803,
      "Ġstored": 3804,
      "Ġmoved": 3805,
      "Ġexpertise": 3806,
      "Printer": 3807,
      "Ġreturned": 3808,
      "Ġtitle": 3809,
      "Ġrisks": 3810,
      "Ġface": 3811,
      "ĠProduct": 3812,
      "Ġconfirmation": 3813,
      "Ġdisplayed": 3814,
      "Ġcopying": 3815,
      "MC": 3816,
      "ightness": 3817,
      "ĠMal": 3818,
      "Ġprioritize": 3819,
      "reate": 3820,
      "urring": 3821,
      "Ġlay": 3822,
      "Ġ11": 3823,
      "Ġcorresp": 3824,
      "ios": 3825,
      "Ġmb": 3826,
      "ĠHub": 3827,
      "apid": 3828,
      "Ġfailing": 3829,
      "imum": 3830,
      "ĠAny": 3831,
      "account": 3832,
      "Ġinvoices": 3833,
      "ĠAccount": 3834,
      "Ġbrightness": 3835,
      "Ġhandling": 3836,
      "pack": 3837,
      "pache": 3838,
      "Ġturn": 3839,
      "Ġbal": 3840,
      "Ġmachines": 3841,
      "ĠConnect": 3842,
      "Not": 3843,
      "Ġcapacity": 3844,
      "Ġmouse": 3845,
      "Ġgiven": 3846,
      "ĠCassandra": 3847,
      "Ġamong": 3848,
      "conf": 3849,
      "ints": 3850,
      "ĠDef": 3851,
      "Ġtargeted": 3852,
      "Ġinitiated": 3853,
      "Data": 3854,
      "ĠIP": 3855,
      "Ġpossibility": 3856,
      "Ġjoining": 3857,
      "pending": 3858,
      "purch": 3859,
      "uid": 3860,
      "ups": 3861,
      "Ġprice": 3862,
      "Ġbasis": 3863,
      "Ġadjusted": 3864,
      "Ġenvironments": 3865,
      "Ġmenu": 3866,
      "hishing": 3867,
      "Ġdup": 3868,
      "Ġwired": 3869,
      "Ġvital": 3870,
      "ountered": 3871,
      "urday": 3872,
      "Ġaround": 3873,
      "Ġshowing": 3874,
      "Ġfocu": 3875,
      "ĠAntivirus": 3876,
      "Ġcloses": 3877,
      "ĠSMC": 3878,
      "Ġapplied": 3879,
      "Ġprogramme": 3880,
      "Ġsaturday": 3881,
      "Google": 3882,
      "ĠWord": 3883,
      "Ġabove": 3884,
      "Ġrectify": 3885,
      "Ġboard": 3886,
      "Ġregulatory": 3887,
      "Ġblack": 3888,
      "Ġthreats": 3889,
      "To": 3890,
      "ms": 3891,
      "wise": 3892,
      "Ġdates": 3893,
      "'.": 3894,
      "ĠAc": 3895,
      "Ġsector": 3896,
      "App": 3897,
      "oup": 3898,
      "fr": 3899,
      "ĠIAM": 3900,
      "Ġinstalling": 3901,
      "Ġcomment": 3902,
      "Ġsonar": 3903,
      "Ġlegally": 3904,
      "Ġnormal": 3905,
      "lining": 3906,
      "Ġcontribute": 3907,
      "Ġrecal": 3908,
      "Ġoptimal": 3909,
      "Ex": 3910,
      "Ġtrig": 3911,
      "laptop": 3912,
      "Azure": 3913,
      "anticipated": 3914,
      "ongo": 3915,
      "ĠGit": 3916,
      "AWS": 3917,
      "Ġpresentation": 3918,
      "ba": 3919,
      "gment": 3920,
      "yx": 3921,
      "Ġpass": 3922,
      "Ġcontractor": 3923,
      "ongoDB": 3924,
      "pers": 3925,
      "Ġquality": 3926,
      "Ġbuild": 3927,
      "Ġterms": 3928,
      "Ġrely": 3929,
      "ĠiPhone": 3930,
      "Ġcool": 3931,
      "Ġscri": 3932,
      "Ġotherwise": 3933,
      "Ġpairing": 3934,
      "Bl": 3935,
      "Phishing": 3936,
      "message": 3937,
      "Ġaccessible": 3938,
      "espected": 3939,
      "Ġscript": 3940,
      "Blue": 3941,
      "PU": 3942,
      "Ġgenerating": 3943,
      "Ġ403": 3944,
      "Ġfreezes": 3945,
      "ĠInstance": 3946,
      "Ġparameters": 3947,
      "ĠDefinitions": 3948,
      "Firewall": 3949,
      "Tr": 3950,
      "Tel": 3951,
      "ĠMongoDB": 3952,
      "Ġrespect": 3953,
      "Ġchecks": 3954,
      "ĠSuspicious": 3955,
      "Antivirus": 3956,
      "Bluetooth": 3957,
      "Ġcolum": 3958,
      "ĠForbidden": 3959,
      "Android": 3960,
      "iPhone": 3961,
      "ntu": 3962,
      "ĠNSG": 3963,
      "Ġprinting": 3964,
      "ĠOutbox": 3965,
      "Ġdemand": 3966,
      "Ġunpair": 3967,
      "Ġtreat": 3968,
      "teryx": 3969,
      "buntu": 3970,
      "Ġexamining": 3971,
      "ĠSE": 3972,
      "Ġliability": 3973,
      "orporate": 3974,
      "Ġframework": 3975,
      "Ġportal": 3976,
      "Ġoverview": 3977,
      "Ġfinding": 3978,
      "Ġ14": 3979,
      "ĠConcern": 3980,
      "ttps": 3981,
      "oc": 3982,
      "ph": 3983,
      "ĠHad": 3984,
      "Ġestablished": 3985,
      "ĠUbuntu": 3986,
      "Ġgrade": 3987,
      "Ġcompromise": 3988,
      "password": 3989,
      "Ġsing": 3990,
      "Ġexposed": 3991,
      "Ġannoun": 3992,
      "Ġdesigned": 3993,
      "Ġrecalib": 3994,
      "Robot": 3995,
      "Ġafterward": 3996,
      "Ġpayments": 3997,
      "Ġprecise": 3998,
      "oop": 3999,
      "ission": 4000,
      "urning": 4001,
      "Ġel": 4002,
      "Ġencrypt": 4003,
      "ĠAlteryx": 4004,
      "hibited": 4005,
      "windows": 4006,
      "used": 4007,
      "ords": 4008,
      "Ġattribut": 4009,
      "Ġoccurrences": 4010,
      "Ġmodeling": 4011,
      "confluence": 4012,
      "Ġtel": 4013,
      "Ġvacation": 4014,
      "ynamics": 4015,
      "quiring": 4016,
      "Ġroles": 4017,
      "ultiple": 4018,
      "Ġactively": 4019,
      "inu": 4020,
      "Ġdam": 4021,
      "Ġsubject": 4022,
      "Ġbulk": 4023,
      "ery": 4024,
      "Ġcoup": 4025,
      "Ġpopping": 4026,
      "Ġaudio": 4027,
      "Ġdoesn": 4028,
      "ĠSyn": 4029,
      "Ġprepare": 4030,
      "ĠHadoop": 4031,
      "Ġshows": 4032,
      "Ġquite": 4033,
      "Ġdiagnose": 4034,
      "mat": 4035,
      "ĠSec": 4036,
      "Ġparty": 4037,
      "issue": 4038,
      "Ġpec": 4039,
      "uliar": 4040,
      "Ġprohibited": 4041,
      "Ġprofessional": 4042,
      "Ġpeculiar": 4043,
      "IL": 4044,
      "arest": 4045,
      "Ġamend": 4046,
      "Ġprotected": 4047,
      "Ġmaintaining": 4048,
      "ĠStrategy": 4049,
      "Ġpreviously": 4050,
      "ĠWindows": 4051,
      "Ġexc": 4052,
      "Ġmisconfigured": 4053,
      "Ġpurpose": 4054,
      "Ġreally": 4055,
      "Ġways": 4056,
      "Ġsatisfaction": 4057,
      "ute": 4058,
      "Ġtable": 4059,
      "Ġreli": 4060,
      "Ġeither": 4061,
      "Ġpreliminary": 4062,
      "run": 4063,
      "Ġsimp": 4064,
      "Ġ'{": 4065,
      "Ġmistake": 4066,
      "leaver": 4067,
      "rror": 4068,
      "}'.": 4069,
      "ĠNeeded": 4070,
      "Ġstable": 4071,
      "Ġart": 4072,
      "Ġfirst": 4073,
      "Ġstructure": 4074,
      "Ġlatency": 4075,
      "law": 4076,
      "Ġgateway": 4077,
      "based": 4078,
      "Ġpict": 4079,
      "Ġdat": 4080,
      "Ġaddressed": 4081,
      "uidance": 4082,
      "Ġpleased": 4083,
      "Ġsaved": 4084,
      "Ġpromote": 4085,
      "rant": 4086,
      "Ġded": 4087,
      "ĠSales": 4088,
      "Ġstories": 4089,
      "Ġtab": 4090,
      "Ġcat": 4091,
      "ĠDevices": 4092,
      "Ġopportunities": 4093,
      "Det": 4094,
      "Ġunavailable": 4095,
      "ĠEng": 4096,
      "Ġposition": 4097,
      "ex": 4098,
      "ium": 4099,
      "ark": 4100,
      "Ġnotifications": 4101,
      "appro": 4102,
      "Ġmanually": 4103,
      "Ġinputs": 4104,
      "Ġclarification": 4105,
      "apt": 4106,
      "Ġgain": 4107,
      "Ġrout": 4108,
      "ĠNoted": 4109,
      "Ġcontracts": 4110,
      "Ġexplain": 4111,
      "Ġlayout": 4112,
      "everal": 4113,
      "erative": 4114,
      "Ġgrow": 4115,
      "oms": 4116,
      "ĠNode": 4117,
      "ĠNAS": 4118,
      "Ġimported": 4119,
      "Ġsincerely": 4120,
      "Ġconfe": 4121,
      "Ġapprovals": 4122,
      "Ġactivate": 4123,
      "Ġestimated": 4124,
      "gency": 4125,
      "ĠCPU": 4126,
      "Ġpropose": 4127,
      "ave": 4128,
      "Ġpage": 4129,
      "ĠToday": 4130,
      "ĠIntegrating": 4131,
      "eop": 4132,
      "tes": 4133,
      "Ġden": 4134,
      "Ġscore": 4135,
      "ovo": 4136,
      "Ġleak": 4137,
      "ĠDell": 4138,
      "Ġoccasional": 4139,
      "Ġcouple": 4140,
      "enovo": 4141,
      "Ġforgot": 4142,
      "formed": 4143,
      "ĠPossible": 4144,
      "activ": 4145,
      "ĠDashboard": 4146,
      "Ġoffice": 4147,
      "Commerce": 4148,
      "imp": 4149,
      "the": 4150,
      "Ġconsiderable": 4151,
      "Ġlocated": 4152,
      "Ġstrictly": 4153,
      "EMA": 4154,
      "Ġtax": 4155,
      "Ġpatter": 4156,
      "Ġdon": 4157,
      "Ġnecessarily": 4158,
      "Ġphishing": 4159,
      "Ġleveraging": 4160,
      "aster": 4161,
      "Ġinternship": 4162,
      "Ġintermittently": 4163,
      "ape": 4164,
      "EMAIL": 4165,
      "nWe": 4166,
      "ollow": 4167,
      "Ġpurposes": 4168,
      "Ġsympt": 4169,
      "inux": 4170,
      "link": 4171,
      "Ġhappens": 4172,
      "Ġself": 4173,
      "Ġsharing": 4174,
      "Ġdelve": 4175,
      "Impro": 4176,
      "Ġconvers": 4177,
      "ĠImp": 4178,
      "Ġpreventing": 4179,
      "Ġweekend": 4180,
      "Ġdepart": 4181,
      "Ġretrieve": 4182,
      "Ġconfiguring": 4183,
      "ĠUrgent": 4184,
      "Ġcompet": 4185,
      "Ġrates": 4186,
      "Ġmulti": 4187,
      "Ġchannels": 4188,
      "tim": 4189,
      "reg": 4190,
      "Ġcell": 4191,
      "Ġaddressee": 4192,
      "Ġdatas": 4193,
      "ik": 4194,
      "Ġdisrupted": 4195,
      "Ġsymptoms": 4196,
      "perien": 4197,
      "ira": 4198,
      "Ġsolved": 4199,
      "Ġtransaction": 4200,
      "Ġcommitments": 4201,
      "ĠSalesforce": 4202,
      "Ġmeans": 4203,
      "Ġstem": 4204,
      "Ġextra": 4205,
      "Ġbecom": 4206,
      "letion": 4207,
      "Ġexpressed": 4208,
      "did": 4209,
      "Ġnam": 4210,
      "Ġemer": 4211,
      "prise": 4212,
      "ger": 4213,
      "iner": 4214,
      "forming": 4215,
      "ĠAv": 4216,
      "ffort": 4217,
      "Ġanswer": 4218,
      "Ġmitigate": 4219,
      "ĠSol": 4220,
      "ommission": 4221,
      "Point": 4222,
      "Urgent": 4223,
      "Ġeffort": 4224,
      "Ġcommon": 4225,
      "ĠProte": 4226,
      "Ġprod": 4227,
      "Ġworked": 4228,
      "Ġtherefore": 4229,
      "Ġguest": 4230,
      "Ġroaming": 4231,
      "Ġportfolios": 4232,
      "ĠHealthcare": 4233,
      "Ġmails": 4234,
      "ĠDynamics": 4235,
      "ĠFollow": 4236,
      "Ġexplan": 4237,
      "Ġapprox": 4238,
      "ĠContact": 4239,
      "Ġshutdown": 4240,
      "ĠâĢ": 4241,
      "ĠLinux": 4242,
      "Ġintrodu": 4243,
      "ĠJira": 4244,
      "Ġcandid": 4245,
      "ĠFire": 4246,
      "ĠUsers": 4247,
      "Ġrobot": 4248,
      "Ġapplying": 4249,
      "ĠEngagement": 4250,
      "Ġ#": 4251,
      "Ġair": 4252,
      "Ġextended": 4253,
      "Ġdisplaying": 4254,
      "ites": 4255,
      "Ġbase": 4256,
      "Ġenglish": 4257,
      "Ġrestrictions": 4258,
      "hip": 4259,
      "Ġsupported": 4260,
      "Ġcoming": 4261,
      "Ġemployed": 4262,
      "Ġhandle": 4263,
      "Ġdisclosure": 4264,
      "Ġdist": 4265,
      "essions": 4266,
      "ĠSub": 4267,
      "Ġsow": 4268,
      "Ġlack": 4269,
      "Ġassignee": 4270,
      "Ġmeasure": 4271,
      "Ġwro": 4272,
      "ground": 4273,
      "Ġcompan": 4274,
      "Ġrule": 4275,
      "Ġmisconfiguration": 4276,
      "Ġwrote": 4277,
      "inancial": 4278,
      "ĠID": 4279,
      "Ġclarify": 4280,
      "related": 4281,
      "Miner": 4282,
      "ways": 4283,
      "Ġtrust": 4284,
      "Ġfilter": 4285,
      "Ġtele": 4286,
      "Enhance": 4287,
      "Ġevalu": 4288,
      "apidMiner": 4289,
      "ĠSEO": 4290,
      "Ġtech": 4291,
      "Ġpoint": 4292,
      "Ġtalk": 4293,
      "Ġcum": 4294,
      "Ġrein": 4295,
      "Ġeos": 4296,
      "Ġloop": 4297,
      "Ġbackpack": 4298,
      "Ġsingle": 4299,
      "iles": 4300,
      "Ġconfigure": 4301,
      "Ġsubstant": 4302,
      "Ġbackups": 4303,
      "ĠRapidMiner": 4304,
      "Ġreconfig": 4305,
      "Ġediting": 4306,
      "Ġdedicated": 4307,
      "Ġcompanies": 4308,
      "Ġnotes": 4309,
      "Ġidea": 4310,
      "gory": 4311,
      "Ġadapt": 4312,
      "ĠAppreci": 4313,
      "ĠWhat": 4314,
      "hest": 4315,
      "Ġsuddenly": 4316,
      "atures": 4317,
      "ief": 4318,
      "Ġwaiting": 4319,
      "Please": 4320,
      "Ġwid": 4321,
      "charest": 4322,
      "Ġdecommission": 4323,
      "Ġbucharest": 4324,
      "Ġsuspicious": 4325,
      "owerPoint": 4326,
      "ĠAcknowledging": 4327,
      "31": 4328,
      "Ġtook": 4329,
      "istics": 4330,
      "Ġconsidering": 4331,
      "Ġdraft": 4332,
      "Ġconver": 4333,
      "Ġnothing": 4334,
      "ĠBlack": 4335,
      "Ġcomb": 4336,
      "Ġapproxim": 4337,
      "ood": 4338,
      "ĠDataRobot": 4339,
      "Ġ37": 4340,
      "ĠProblems": 4341,
      "nel": 4342,
      "Ġsessions": 4343,
      "Ġoutline": 4344,
      "ĠError": 4345,
      "ostat": 4346,
      "Ġbellow": 4347,
      "Ġconflicting": 4348,
      "ĠWeb": 4349,
      "Ġpoints": 4350,
      "ody": 4351,
      "Ġsuits": 4352,
      "Ġlevels": 4353,
      "Ġdouble": 4354,
      "Ġallocate": 4355,
      "Ġfie": 4356,
      "def": 4357,
      "Ġ28": 4358,
      "ĠFirebase": 4359,
      "Digital": 4360,
      "Ġaddition": 4361,
      "Ġhelping": 4362,
      "jor": 4363,
      "Ġnav": 4364,
      "ĠOnce": 4365,
      "Ġsubstantial": 4366,
      "Ġtermin": 4367,
      "Ġyield": 4368,
      "alls": 4369,
      "ipher": 4370,
      "Ġutilized": 4371,
      "Ġforecasting": 4372,
      "ĠSafe": 4373,
      "Ġ12": 4374,
      "ĠAnalysis": 4375,
      "Ġbegan": 4376,
      "mpty": 4377,
      "Ġtext": 4378,
      "Invest": 4379,
      "Ġmarked": 4380,
      "Spot": 4381,
      "issues": 4382,
      "----": 4383,
      "Ġconte": 4384,
      "orton": 4385,
      "fully": 4386,
      "Ġ24": 4387,
      "Ġreflect": 4388,
      "Ġannounce": 4389,
      "ĠMonitor": 4390,
      "Ġ15": 4391,
      "Ġleavers": 4392,
      "Ġtransactions": 4393,
      "ĠUpdat": 4394,
      "ision": 4395,
      "agent": 4396,
      "Ġperman": 4397,
      "Ġthermostat": 4398,
      "ai": 4399,
      "cl": 4400,
      "my": 4401,
      "Ġfunctions": 4402,
      "seen": 4403,
      "Ġpoor": 4404,
      "Ġusually": 4405,
      "Ġbehav": 4406,
      "Ġandroid": 4407,
      "Ġunlock": 4408,
      "Ġcontribut": 4409,
      "ĠOver": 4410,
      "Ġresponsibility": 4411,
      "Ġarchitecture": 4412,
      "nBest": 4413,
      "opt": 4414,
      "Ġworkstation": 4415,
      "Ġlimited": 4416,
      "Ġbadge": 4417,
      "Ġcancel": 4418,
      "ĠAppreciate": 4419,
      "Ġtoken": 4420,
      "licate": 4421,
      "Ġapplicable": 4422,
      "gota": 4423,
      "ĠExcel": 4424,
      "Ġcar": 4425,
      "Ġgraphics": 4426,
      "Ġhero": 4427,
      "Ġproviders": 4428,
      "rid": 4429,
      "Ġempty": 4430,
      "Ġunanticipated": 4431,
      "ĠNorton": 4432,
      "Ġbackground": 4433,
      "foreseen": 4434,
      "Ġnon": 4435,
      "Ġ201": 4436,
      "authorized": 4437,
      "Ġhome": 4438,
      "Ġpop": 4439,
      "Ġmessaging": 4440,
      "Ġports": 4441,
      "Ġreass": 4442,
      "factor": 4443,
      "remove": 4444,
      "Ġwind": 4445,
      "Ġaffects": 4446,
      "Ġholidays": 4447,
      "know": 4448,
      "Ġcompli": 4449,
      "Ġperiods": 4450,
      "ĠHubSpot": 4451,
      "Ġexplanation": 4452,
      "So": 4453,
      "Ġvaluable": 4454,
      "sa": 4455,
      "Ġwin": 4456,
      "known": 4457,
      "43": 4458,
      "Ġcentral": 4459,
      "Ġunderperforming": 4460,
      "Ġconsistently": 4461,
      "Ġsal": 4462,
      "Ġfal": 4463,
      "aries": 4464,
      "Ġstay": 4465,
      "Ġrecurring": 4466,
      "Ġspend": 4467,
      "Ġemails": 4468,
      "echnical": 4469,
      "ĠTeams": 4470,
      "ĠConsul": 4471,
      "problem": 4472,
      "Ġrestric": 4473,
      "Ġexchange": 4474,
      "Ġanyone": 4475,
      "12": 4476,
      "ĠApache": 4477,
      "Ġaler": 4478,
      "Ġcompl": 4479,
      "Ġdiscussed": 4480,
      "Ġcredit": 4481,
      "Ġbroken": 4482,
      "Ġmajor": 4483,
      "45": 4484,
      "PSS": 4485,
      "onding": 4486,
      "Ġvalued": 4487,
      "Ġhealth": 4488,
      "Ġrestarts": 4489,
      "ixel": 4490,
      "Ġupgraded": 4491,
      "hot": 4492,
      "site": 4493,
      "Ġpixel": 4494,
      "ĠSPSS": 4495,
      "ibm": 4496,
      "Ġevents": 4497,
      "Ġcategory": 4498,
      "head": 4499,
      "Ġlights": 4500,
      "Ġcompletion": 4501,
      "Problems": 4502,
      "Ġvolume": 4503,
      "'ll": 4504,
      "IM": 4505,
      "Ġbogota": 4506,
      "ĠMonday": 4507,
      "Ġtell": 4508,
      "ĠDis": 4509,
      "Ġ25": 4510,
      "Ġuseful": 4511,
      "Ġgenerate": 4512,
      "Ġdelivery": 4513,
      "Ġindex": 4514,
      "create": 4515,
      "aken": 4516,
      "monitor": 4517,
      "ration": 4518,
      "Ġconsequ": 4519,
      "Ġactual": 4520,
      "Ġobtain": 4521,
      "Ġpersistent": 4522,
      "Ġadapters": 4523,
      "Ġdatasets": 4524,
      "Ġcontext": 4525,
      "Ġbehavior": 4526,
      "Ġcommand": 4527,
      "Ġrefund": 4528,
      "Ġtransition": 4529,
      "Query": 4530,
      "ĠZoom": 4531,
      "Ġcorresponding": 4532,
      "ĠConsulting": 4533,
      "PS": 4534,
      "informed": 4535,
      "ont": 4536,
      "Ġinterference": 4537,
      "Ġmalfunctions": 4538,
      "eli": 4539,
      "Inc": 4540,
      "trl": 4541,
      "ey": 4542,
      "sc": 4543,
      "Ġreferences": 4544,
      "Ġmind": 4545,
      "Ġhp": 4546,
      "Ġiphone": 4547,
      "Ġexped": 4548,
      "Ġinstability": 4549,
      "Ġprocessed": 4550,
      "Ġprim": 4551,
      "Ġphys": 4552,
      "Ġauthority": 4553,
      "Ġconversation": 4554,
      "St": 4555,
      "pad": 4556,
      "Ġcore": 4557,
      "ĠBI": 4558,
      "Ġwindow": 4559,
      "Ġrise": 4560,
      "Ġgeneration": 4561,
      "Ġpreparing": 4562,
      "Ġexecuted": 4563,
      "there": 4564,
      "Ġecho": 4565,
      "Ġlines": 4566,
      "Ġfalse": 4567,
      "Ġbig": 4568,
      "Ġdoor": 4569,
      "Ġphil": 4570,
      "align": 4571,
      "ĠSur": 4572,
      "Ġnotable": 4573,
      "Ġbusinesses": 4574,
      "acies": 4575,
      "ryption": 4576,
      "ĠReinstall": 4577,
      "Ġallocated": 4578,
      "ĠIDE": 4579,
      "'d": 4580,
      "Sincerely": 4581,
      "Ġresu": 4582,
      "Ġhdr": 4583,
      "ĠSign": 4584,
      "Ġtransmission": 4585,
      "Ġstatement": 4586,
      "Ġwindows": 4587,
      "around": 4588,
      "Ġhelps": 4589,
      "Ġhelped": 4590,
      "outlook": 4591,
      "ĠFail": 4592,
      "ledge": 4593,
      "Ġsurface": 4594,
      "ĠScreen": 4595,
      "Ġspeaker": 4596,
      "Ġctrl": 4597,
      "Ġii": 4598,
      "grad": 4599,
      "lications": 4600,
      "Ġknowledge": 4601,
      "ĠLog": 4602,
      "Ch": 4603,
      "list": 4604,
      "pods": 4605,
      "side": 4606,
      "Ġalt": 4607,
      "Ġchrome": 4608,
      "Ġarchive": 4609,
      "Ġagreed": 4610,
      "Issues": 4611,
      "Ġretrie": 4612,
      "Ġcomponents": 4613,
      "Ġairpods": 4614,
      "ĠSurface": 4615,
      "Ġti": 4616,
      "Ġhue": 4617,
      "ĠBit": 4618,
      "Ġcustomiz": 4619,
      "Ġcompliant": 4620,
      "Ġphilips": 4621,
      "ender": 4622,
      "Ġfault": 4623,
      "Ġconc": 4624,
      "ĠSend": 4625,
      "Ġseat": 4626,
      "ĠNetwork": 4627,
      "missions": 4628,
      "Ġcommunic": 4629,
      "ĠCampaigns": 4630,
      "sl": 4631,
      "peria": 4632,
      "Ġxperia": 4633,
      "ĠOutlook": 4634,
      "Ġprivacy": 4635,
      "Ġelect": 4636,
      "Ġwashing": 4637,
      "Ġreferr": 4638,
      "Ġslowdowns": 4639,
      "requis": 4640,
      "ma": 4641,
      "Ġupon": 4642,
      "Ġadding": 4643,
      "Ġinflu": 4644,
      "Ġtechnologies": 4645,
      "ĠProtection": 4646,
      "Campaign": 4647,
      "ww": 4648,
      "Ġsd": 4649,
      "Ġforum": 4650,
      "Ġgar": 4651,
      "Ġoften": 4652,
      "ĠPay": 4653,
      "Ġfollows": 4654,
      "Ġsecured": 4655,
      "ooks": 4656,
      "Ġcertifications": 4657,
      "come": 4658,
      "Ġoled": 4659,
      "ĠAre": 4660,
      "izes": 4661,
      "Ġclass": 4662,
      "Ġdiscover": 4663,
      "Ġapologies": 4664,
      "Ġpackages": 4665,
      "Ġyes": 4666,
      "Ġ27": 4667,
      "Ġrebooted": 4668,
      "Ġgeneric": 4669,
      "Ġdesktop": 4670,
      "Ġreliance": 4671,
      "Ġroomba": 4672,
      "Ġinvoicing": 4673,
      "Ġselected": 4674,
      "Ġcleanup": 4675,
      "ĠReset": 4676,
      "Ġseverely": 4677,
      "runner": 4678,
      "Software": 4679,
      "Ġcame": 4680,
      "urt": 4681,
      "ĠCC": 4682,
      "Ġqui": 4683,
      "Ġextend": 4684,
      "ĠFinancial": 4685,
      "Ġmisalign": 4686,
      "Ġprofiles": 4687,
      "Ġrefreshing": 4688,
      "Ġartic": 4689,
      "Ġmap": 4690,
      "Ġalternative": 4691,
      "Ġundert": 4692,
      "Ġforerunner": 4693,
      "Enc": 4694,
      "Ġgarmin": 4695,
      "ky": 4696,
      "ises": 4697,
      "ante": 4698,
      "arante": 4699,
      "angu": 4700,
      "Ġstrange": 4701,
      "Ġachieving": 4702,
      "ana": 4703,
      "Ġdil": 4704,
      "ĠPrem": 4705,
      "Ġoptimized": 4706,
      "open": 4707,
      "Ġanalyzed": 4708,
      "Ġdilig": 4709,
      "Sign": 4710,
      "Ġcor": 4711,
      "Ġinfluen": 4712,
      "check": 4713,
      "Ġpad": 4714,
      "sus": 4715,
      "ull": 4716,
      "crib": 4717,
      "Ġownership": 4718,
      "Ġdemo": 4719,
      "pal": 4720,
      "Ġdial": 4721,
      "Ġlangu": 4722,
      "Ġassisting": 4723,
      "Ġinteraction": 4724,
      "Ġagent": 4725,
      "Ġwarrant": 4726,
      "Ġcycle": 4727,
      "ĠSecuring": 4728,
      "Ġalerts": 4729,
      "gets": 4730,
      "Ġworkaround": 4731,
      "Ġenclo": 4732,
      "Ġbecomes": 4733,
      "Ġdsl": 4734,
      "Ġinternal": 4735,
      "Ġinaccuracies": 4736,
      "Ġdslr": 4737,
      "For": 4738,
      "ane": 4739,
      "ankf": 4740,
      "pth": 4741,
      "Ġmoving": 4742,
      "Ġshi": 4743,
      "ĠInter": 4744,
      "ĠISR": 4745,
      "ĠAvast": 4746,
      "4331": 4747,
      "watch": 4748,
      "ĠMultiple": 4749,
      "ĠHi": 4750,
      "update": 4751,
      "Ġpartition": 4752,
      "Ġopening": 4753,
      "ĠDetails": 4754,
      "ankfurt": 4755,
      "arent": 4756,
      "vern": 4757,
      "Ġluck": 4758,
      "Ġperipher": 4759,
      "Ġaccessed": 4760,
      "ĠMagent": 4761,
      "Ġsaid": 4762,
      "Ġadjustment": 4763,
      "regular": 4764,
      "ĠSolutions": 4765,
      "ĠMagento": 4766,
      "Ġsort": 4767,
      "Ġhey": 4768,
      "Ġgenerated": 4769,
      "Ġaimed": 4770,
      "ikon": 4771,
      "lined": 4772,
      "Ġic": 4773,
      "Ġtm": 4774,
      "Ġflex": 4775,
      "Ġnikon": 4776,
      "ĠDocu": 4777,
      "Ġexecution": 4778,
      "Ġpus": 4779,
      "Ġut": 4780,
      "Ġscre": 4781,
      "ĠRestarted": 4782,
      "ĠExpansion": 4783,
      "ĠCVSS": 4784,
      "Ġpinpoint": 4785,
      "rregular": 4786,
      "Ġforced": 4787,
      "Ġswap": 4788,
      "Ġinitiate": 4789,
      "Sphere": 4790,
      "Ġhal": 4791,
      "ava": 4792,
      "Ġinvolves": 4793,
      "Ġlosses": 4794,
      "ĠEncountered": 4795,
      "ĠEncryption": 4796,
      "Ġmerge": 4797,
      "co": 4798,
      "Ġdele": 4799,
      "Ġunused": 4800,
      "Ġmode": 4801,
      "Ġkindle": 4802,
      "Ġpersons": 4803,
      "lugg": 4804,
      "Ġfixes": 4805,
      "Ġpicture": 4806,
      "Ġinspect": 4807,
      "Ġapprovers": 4808,
      "Ġfrankfurt": 4809,
      "Ġredirect": 4810,
      "Grid": 4811,
      "Ġpav": 4812,
      "igation": 4813,
      "Ġnever": 4814,
      "Ġasp": 4815,
      "Ġrog": 4816,
      "Ġcleaner": 4817,
      "Ġconsequences": 4818,
      "Ġthings": 4819,
      "urations": 4820,
      "Ġexpectations": 4821,
      "Ġunderperformance": 4822,
      "Ġattributed": 4823,
      "Improve": 4824,
      "ĠSendGrid": 4825,
      "Ġdebu": 4826,
      "Ġuns": 4827,
      "Ġconflict": 4828,
      "ĠStat": 4829,
      "Ġexamined": 4830,
      "ttp": 4831,
      "Ġpatterns": 4832,
      "Ġbank": 4833,
      "Ġthing": 4834,
      "Ġwhenever": 4835,
      "rating": 4836,
      "Ġnight": 4837,
      "Ġsoundlink": 4838,
      "Application": 4839,
      "Investment": 4840,
      "13": 4841,
      "Ġlag": 4842,
      "Ġdelayed": 4843,
      "eople": 4844,
      "Ġdiligently": 4845,
      "luggish": 4846,
      "Rec": 4847,
      "Ġdys": 4848,
      "Ġunknown": 4849,
      "Ġalarm": 4850,
      "odesk": 4851,
      "Ġtests": 4852,
      "Ġautoc": 4853,
      "Ġraising": 4854,
      "anned": 4855,
      "Ġautocad": 4856,
      "aspers": 4857,
      "Ġguarante": 4858,
      "Ġversa": 4859,
      "Ġfront": 4860,
      "Ġbuff": 4861,
      "Ġautodesk": 4862,
      "chronization": 4863,
      "Ġstreamlining": 4864,
      "ĠNotion": 4865,
      "ĠCrash": 4866,
      "Ġpermanent": 4867,
      "aspersky": 4868,
      "Ad": 4869,
      "Ġ**": 4870,
      "rey": 4871,
      "ĠSet": 4872,
      "Ġless": 4873,
      "Ġcontents": 4874,
      "Ġpayable": 4875,
      "Ġsmoothly": 4876,
      "ĠFeatures": 4877,
      "Ġdyson": 4878,
      "bar": 4879,
      "Ġprerequis": 4880,
      "Ġentities": 4881,
      "ĠAsana": 4882,
      "Ġcooling": 4883,
      "Ġrestricted": 4884,
      "kit": 4885,
      "ifi": 4886,
      "Ġsever": 4887,
      "espread": 4888,
      "Ġpaste": 4889,
      "Ġ22": 4890,
      "Ġgeneral": 4891,
      "Ġinvolve": 4892,
      "Ġbuyer": 4893,
      "Ġalways": 4894,
      "space": 4895,
      "ĠKaspersky": 4896,
      "Ġazure": 4897,
      "Ġasus": 4898,
      "ilion": 4899,
      "Ġdell": 4900,
      "Ġmacbook": 4901,
      "Ġwidespread": 4902,
      "Ġutmost": 4903,
      "Ġscreens": 4904,
      "Ġpavilion": 4905,
      "Ġhum": 4906,
      "lose": 4907,
      "Ġconsultation": 4908,
      "Ġxps": 4909,
      "Ġperipherals": 4910,
      "Ġpartner": 4911,
      "overed": 4912,
      "Ġtemplates": 4913,
      "Ġsmartwatch": 4914,
      "Ġcalculation": 4915,
      "Ġunforeseen": 4916,
      "Ġaccomm": 4917,
      "Ġvs": 4918,
      "ĠAcknowledged": 4919,
      ").": 4920,
      "Ġcases": 4921,
      "ĠSince": 4922,
      "ĠCreat": 4923,
      "Ġkick": 4924,
      "Ġexpo": 4925,
      "ĠInstall": 4926,
      "ĠNest": 4927,
      "Ġallowed": 4928,
      "comfort": 4929,
      "oubleshoot": 4930,
      "Ġuses": 4931,
      "ĠSeveral": 4932,
      "55": 4933,
      "Ġreaches": 4934,
      "asures": 4935,
      "loc": 4936,
      "Ġadobe": 4937,
      "Ġ18": 4938,
      "Ġ30": 4939,
      "Ġdependencies": 4940,
      "Ġwarranty": 4941,
      "Ġseverity": 4942,
      "ĠSome": 4943,
      "Ġstability": 4944,
      "uster": 4945,
      "Ġmonitors": 4946,
      "ĠRecords": 4947,
      "Ġexposure": 4948,
      "body": 4949,
      "Ġsaf": 4950,
      "ĠShop": 4951,
      "ĠProducts": 4952,
      "ĠWebSphere": 4953,
      "cceed": 4954,
      "Ġnj": 4955,
      "Ġsucceed": 4956,
      "ĠMet": 4957,
      "ĠHigh": 4958,
      "Ġoffering": 4959,
      "Ġphotoshop": 4960,
      "Ġdiagnosing": 4961,
      "Ġdisappeared": 4962,
      "bel": 4963,
      "Ġhang": 4964,
      "ĠSS": 4965,
      "ĠSlack": 4966,
      "Ġoutlook": 4967,
      "rupal": 4968,
      "ĠXPS": 4969,
      "Ġscanner": 4970,
      "Ġrenewal": 4971,
      "Ġcomplain": 4972,
      "Ġprerequisites": 4973,
      "au": 4974,
      "Ġphase": 4975,
      "Ġvariety": 4976,
      "Ġwanted": 4977,
      "ĠEnhancing": 4978,
      "ĠCVE": 4979,
      "Ġdamage": 4980,
      "Ġsalary": 4981,
      "Ġphysical": 4982,
      "Ġ\\": 4983,
      "ĠDrupal": 4984,
      "Ġadministrators": 4985,
      "Ġaccurately": 4986,
      "Marketing": 4987,
      "security": 4988,
      "Ġimped": 4989,
      "ĠMore": 4990,
      "Ġ16": 4991,
      "Ġwarnings": 4992,
      "Ġpaper": 4993,
      "Ġquiet": 4994,
      "Ġinfluencer": 4995,
      "Ġlenovo": 4996,
      "Ġund": 4997,
      "Ġclosing": 4998,
      "Ġsheets": 4999,
      "Ġthinkpad": 5000,
      "Ġauditing": 5001,
      "Ġcustomizable": 5002,
      "Ġwilling": 5003,
      "Ġimpacts": 5004,
      "Ġstartup": 5005,
      "Ġenabled": 5006,
      "ĠMeasures": 5007,
      "perienced": 5008,
      "Ġcommunications": 5009,
      "NS": 5010,
      "Ġcord": 5011,
      "Ġul": 5012,
      "Ġcond": 5013,
      "Ġstage": 5014,
      "chimp": 5015,
      "Ġtray": 5016,
      "ĠRails": 5017,
      "Ġinstances": 5018,
      "ĠNet": 5019,
      "ĠProv": 5020,
      "Ġgrad": 5021,
      "Ġopened": 5022,
      "apping": 5023,
      "Ġlanguage": 5024,
      "fill": 5025,
      "Ġsluggish": 5026,
      "ailchimp": 5027,
      "imon": 5028,
      "Ġpert": 5029,
      "Ġguess": 5030,
      "Ġhospitals": 5031,
      "Ġvalues": 5032,
      "Ġcandidate": 5033,
      "Ġforums": 5034,
      "CV": 5035,
      "Ġday": 5036,
      "Ġinval": 5037,
      "Ġcomply": 5038,
      "Ġtestimon": 5039,
      "Ġguarantee": 5040,
      "inting": 5041,
      "ero": 5042,
      "Ġinstaller": 5043,
      "Ġthoroughly": 5044,
      "Ġrolling": 5045,
      "Cannot": 5046,
      "ĠCreative": 5047,
      "Ġquietcomfort": 5048,
      "Ġtestimonials": 5049,
      "oy": 5050,
      "Ġahead": 5051,
      "itored": 5052,
      "ĠWifi": 5053,
      "ĠIntel": 5054,
      "Ġmonitored": 5055,
      "Ġofferings": 5056,
      "Ġtransmitted": 5057,
      "Ġcorrective": 5058,
      "service": 5059,
      "ĠStatistics": 5060,
      "Ġcd": 5061,
      "ild": 5062,
      "Ġev": 5063,
      "ĠMailchimp": 5064,
      "ĠEven": 5065,
      "Ġfirms": 5066,
      "ĠUnauthorized": 5067,
      "Ġdraw": 5068,
      "BS": 5069,
      "uby": 5070,
      "connect": 5071,
      "Ġmerci": 5072,
      "ĠMalware": 5073,
      "oubleshooting": 5074,
      "Ġanom": 5075,
      "ellow": 5076,
      "nexpected": 5077,
      "Ġmalfunctioning": 5078,
      "Ġsoundbar": 5079,
      "310": 5080,
      "gent": 5081,
      "Ġuninstall": 5082,
      "Ġrepe": 5083,
      "Ġcentre": 5084,
      "Ġreassign": 5085,
      "tle": 5086,
      "Ġpower": 5087,
      "chang": 5088,
      "Ġsupports": 5089,
      "ĠIncorrect": 5090,
      "Ġescalate": 5091,
      ",[": 5092,
      "Ġvend": 5093,
      "ĠBy": 5094,
      "ought": 5095,
      "Ġunapp": 5096,
      "Ġ9310": 5097,
      "activate": 5098,
      "ĠBIOS": 5099,
      "17": 5100,
      "Ġce": 5101,
      "Ġexpenses": 5102,
      "ĠProcess": 5103,
      "ĠRedu": 5104,
      "Ġexcited": 5105,
      "Ġarticle": 5106,
      "ĠInstallation": 5107,
      "izations": 5108,
      "ĠPort": 5109,
      "rupted": 5110,
      "Ġtransf": 5111,
      "Ġfixing": 5112,
      "Ġjobs": 5113,
      "Out": 5114,
      "bmit": 5115,
      "Ġsla": 5116,
      "isual": 5117,
      "Ġspread": 5118,
      "ĠRuby": 5119,
      "Ġremaining": 5120,
      "Ġagreement": 5121,
      "Wh": 5122,
      "ansp": 5123,
      "Ġcaps": 5124,
      "Ġtakes": 5125,
      "bytes": 5126,
      "purchased": 5127,
      "Ġapproximately": 5128,
      "Ser": 5129,
      "aptop": 5130,
      "oo": 5131,
      "usu": 5132,
      "Ġ0": 5133,
      "ects": 5134,
      "ensor": 5135,
      "Ġhigher": 5136,
      "ĠGreetings": 5137,
      "Ġboosting": 5138,
      "Ġlibraries": 5139,
      "Ġbooting": 5140,
      "ĠConnectivity": 5141,
      "ĠMalwarebytes": 5142,
      "Monitor": 5143,
      "Users": 5144,
      "orth": 5145,
      "Ġcomplex": 5146,
      "Ġoffline": 5147,
      "ĠOBS": 5148,
      "Ġdoc": 5149,
      "ĠRegards": 5150,
      "Ġreser": 5151,
      "charg": 5152,
      "ighted": 5153,
      "Ġforwarder": 5154,
      "Ġsaying": 5155,
      "Ġomitted": 5156,
      "quare": 5157,
      "Ġexcept": 5158,
      "Ġaccident": 5159,
      "Ġextract": 5160,
      "gered": 5161,
      "Ġsuggested": 5162,
      "Ġreconnect": 5163,
      "ĠSynchronization": 5164,
      "Ġconference": 5165,
      "oost": 5166,
      "Ġsk": 5167,
      "Ġwalk": 5168,
      "ĠMode": 5169,
      "Ġminimal": 5170,
      "Ġexpedite": 5171,
      "Ġthus": 5172,
      "Ġsus": 5173,
      "ĠPre": 5174,
      "ĠDue": 5175,
      "ĠNum": 5176,
      "ĠProtocols": 5177,
      "ĠLag": 5178,
      "ĠMeet": 5179,
      "Ġtechnology": 5180,
      "Ġdeadlines": 5181,
      "Ġshutdowns": 5182,
      "eliver": 5183,
      "Ġhuman": 5184,
      "RAM": 5185,
      "Ġtape": 5186,
      "thernet": 5187,
      "Ġmodified": 5188,
      "Ġstatements": 5189,
      "Ġcoordinate": 5190,
      "Ġproposal": 5191,
      "Ġencrypting": 5192,
      "Ġcontributing": 5193,
      "Ġhangs": 5194,
      "vention": 5195,
      "Ġmigrated": 5196,
      "ĠDiscord": 5197,
      "ĠMoreover": 5198,
      "Ġsuscept": 5199,
      "xus": 5200,
      "Ġoffices": 5201,
      "Ġheadset": 5202,
      "Ġwonder": 5203,
      "Ġthought": 5204,
      "Ġsusceptible": 5205,
      "VPN": 5206,
      "Ġgone": 5207,
      "Ġgerm": 5208,
      "Ġassistants": 5209,
      "Ġforwarded": 5210,
      "Ġanticipated": 5211,
      "Ġpressing": 5212,
      "Ġroutine": 5213,
      "Ġcurs": 5214,
      "ĠEvern": 5215,
      "Ġtested": 5216,
      "Ġsigned": 5217,
      "Ġstoring": 5218,
      "ĠWhile": 5219,
      "Unable": 5220,
      "eliverable": 5221,
      "ĠEvernote": 5222,
      "function": 5223,
      "esh": 5224,
      "Ġbrowsers": 5225,
      "Ġendpoint": 5226,
      "Ġtriggered": 5227,
      "eyboard": 5228,
      "04": 5229,
      "duction": 5230,
      "ĠBooks": 5231,
      "Ġarising": 5232,
      "Ġdelighted": 5233,
      "Reported": 5234,
      "âĢĻ": 5235,
      "ĠActive": 5236,
      "Ġ:": 5237,
      "Ġpurchases": 5238,
      "ĠReview": 5239,
      "boarding": 5240,
      "ĠLow": 5241,
      "Ġ48": 5242,
      "Ġmissed": 5243,
      "Ġcontains": 5244,
      "><": 5245,
      "ables": 5246,
      "wh": 5247,
      "Ġfilling": 5248,
      "ara": 5249,
      "Ġirregular": 5250,
      "ĠEm": 5251,
      "echan": 5252,
      "Ġreboots": 5253,
      "Ġregularly": 5254,
      "Ġreduced": 5255,
      "Ġproducing": 5256,
      "Ġcontinuous": 5257,
      "itches": 5258,
      "Ġdro": 5259,
      "Ġlate": 5260,
      "ĠPh": 5261,
      "Ġinterruption": 5262,
      "rested": 5263,
      "ID": 5264,
      "Ġloud": 5265,
      "Ġneg": 5266,
      "Ġprocessor": 5267,
      "Ġsevere": 5268,
      "Ġball": 5269,
      "ntax": 5270,
      "ĠDNS": 5271,
      "ĠRespected": 5272,
      "ĠExpress": 5273,
      "Ġpolls": 5274,
      "Ġattacks": 5275,
      "ooCommerce": 5276,
      "ĠActiveCampaign": 5277,
      "Tor": 5278,
      "Ġmechan": 5279,
      "ili": 5280,
      "Ġspecified": 5281,
      "rowser": 5282,
      "Ġtailor": 5283,
      "Ġviruses": 5284,
      "Ġsyntax": 5285,
      "ĠPyTor": 5286,
      "Ġdeadline": 5287,
      "Ġmaximum": 5288,
      "____": 5289,
      "ĠAcme": 5290,
      "Ġcolumn": 5291,
      "ĠPhotoshop": 5292,
      "ĠPyTorch": 5293,
      "inent": 5294,
      "Ġwider": 5295,
      "ĠCent": 5296,
      "Ġvat": 5297,
      "Ġincorpor": 5298,
      "ĠShort": 5299,
      "Ġgermany": 5300,
      "onst": 5301,
      "ĠClose": 5302,
      "ĠWork": 5303,
      "Ġ17": 5304,
      "ĠUnder": 5305,
      "Ġdetecting": 5306,
      "Ġpertinent": 5307,
      "Ġcursor": 5308,
      "Ġpeople": 5309,
      "acker": 5310,
      "Ġquote": 5311,
      "standing": 5312,
      "Ġidentification": 5313,
      "Ġactivation": 5314,
      "Ġdemonst": 5315,
      "haps": 5316,
      "https": 5317,
      "inc": 5318,
      "Ġmicro": 5319,
      "Ġhig": 5320,
      "need": 5321,
      "ĠEnsure": 5322,
      "Ġevening": 5323,
      "Ġthermal": 5324,
      "Ġhighest": 5325,
      "wd": 5326,
      "Ġwent": 5327,
      "Ġll": 5328,
      "ĠWooCommerce": 5329,
      "Ġnexus": 5330,
      "ango": 5331,
      "Ġsubsequ": 5332,
      "ĠHP": 5333,
      "Ġquit": 5334,
      "Ġbelie": 5335,
      "Program": 5336,
      "ĠDelete": 5337,
      "Ġxx": 5338,
      "Ġeasy": 5339,
      "He": 5340,
      "ream": 5341,
      "Ġlit": 5342,
      "Ġcapt": 5343,
      "Ġphones": 5344,
      "Ġcharged": 5345,
      "Ġearlier": 5346,
      "ĠDiscrepan": 5347,
      "ĠActivity": 5348,
      "Ġlayouts": 5349,
      "Ġnamed": 5350,
      "Wi": 5351,
      "Ġdb": 5352,
      "stood": 5353,
      "Ġ32": 5354,
      "allenges": 5355,
      "Ġschedules": 5356,
      "usual": 5357,
      "50": 5358,
      "Drop": 5359,
      "ashes": 5360,
      "ĠSu": 5361,
      "Ġcommunicate": 5362,
      "Ġcareer": 5363,
      "Ġseamlessly": 5364,
      "Ġmisconfigurations": 5365,
      "Ġdetection": 5366,
      "Ġflashes": 5367,
      "MacBook": 5368,
      "Excel": 5369,
      "Ġdebug": 5370,
      "jango": 5371,
      "Ġcorporate": 5372,
      "Ġtransp": 5373,
      "Ġdiscussing": 5374,
      "Ġcontacts": 5375,
      "ĠLara": 5376,
      "Ġsmall": 5377,
      "Ġbooking": 5378,
      "ĠLaravel": 5379,
      "Greetings": 5380,
      "HP": 5381,
      "lear": 5382,
      "ĠActions": 5383,
      "ember": 5384,
      "ĠPHP": 5385,
      "ĠDjango": 5386,
      "Ġvents": 5387,
      "Ġiterative": 5388,
      "istration": 5389,
      "],\\": 5390,
      "Ġclosely": 5391,
      "Ġspinning": 5392,
      "ĠBl": 5393,
      "Ġupgrades": 5394,
      "ĠFeel": 5395,
      "Ġyears": 5396,
      "Ġbalance": 5397,
      "Ġcompetitive": 5398,
      "Ġslave": 5399,
      "ĠEmails": 5400,
      "Technical": 5401,
      "Ġbeach": 5402,
      "Ġstalls": 5403,
      "Ġscale": 5404,
      "Ġadvant": 5405,
      "notification": 5406,
      "Ġinside": 5407,
      "ĠCannot": 5408,
      "ĠOptions": 5409,
      "Ġ50": 5410,
      "lawful": 5411,
      "cribed": 5412,
      "Ġultim": 5413,
      "Outlook": 5414,
      "Ġmechanis": 5415,
      "Battery": 5416,
      "Keyboard": 5417,
      "gear": 5418,
      "Ġ|": 5419,
      "Ġbill": 5420,
      "Ġdeal": 5421,
      "ype": 5422,
      "ĠBattery": 5423,
      "Ġblank": 5424,
      "IME": 5425,
      "Laptop": 5426,
      "Word": 5427,
      "mpor": 5428,
      "Ġadhe": 5429,
      "ĠPRAM": 5430,
      "pos": 5431,
      "ĠAccounting": 5432,
      "Ġbuffering": 5433,
      "ĠReduce": 5434,
      "ĠBlank": 5435,
      "11": 5436,
      "Disk": 5437,
      "PowerPoint": 5438,
      "Ġinduction": 5439,
      "ountering": 5440,
      "ĠFan": 5441,
      "ĠForce": 5442,
      "ĠISP": 5443,
      "Ġdiscoverable": 5444,
      "Air": 5445,
      "Browser": 5446,
      "Ethernet": 5447,
      "ric": 5448,
      "onds": 5449,
      "eras": 5450,
      "Ġtold": 5451,
      "ĠSage": 5452,
      "Ġunlawful": 5453,
      "Ġmeets": 5454,
      "iencies": 5455,
      "Ġrather": 5456,
      "Ġdraining": 5457,
      "Ġminimum": 5458,
      "Spinning": 5459,
      "Incident": 5460,
      "CVE": 5461,
      "ĠLagging": 5462,
      "AirDrop": 5463,
      "SE": 5464,
      "Ġregain": 5465,
      "Ġpatients": 5466,
      "Ġrefine": 5467,
      "Ġreturning": 5468,
      "ĠUnfortunately": 5469,
      "ĠJo": 5470,
      "ĠScore": 5471,
      "Ġduplicate": 5472,
      "Ġprimary": 5473,
      "ĠNetgear": 5474,
      "Ġconst": 5475,
      "Ġnom": 5476,
      "ĠMesh": 5477,
      "Ġmakes": 5478,
      "Noted": 5479,
      "Ġenclosed": 5480,
      "Forgot": 5481,
      "ony": 5482,
      "igma": 5483,
      "Ġengaging": 5484,
      "ĠKe": 5485,
      "Ġmodules": 5486,
      "ĠInterested": 5487,
      "Ġintroduced": 5488,
      "30": 5489,
      "Ġrever": 5490,
      "Ġonboarding": 5491,
      "Ġchart": 5492,
      "valid": 5493,
      "Ġforgotten": 5494,
      "pu": 5495,
      "Ġpil": 5496,
      "Ġappeared": 5497,
      "Ġnear": 5498,
      "ĠLo": 5499,
      "Ġjoined": 5500,
      "Ġimages": 5501,
      "Ġ2019": 5502,
      "Ġsafety": 5503,
      ":**": 5504,
      "where": 5505,
      "Ġkindest": 5506,
      "Ġdisciplines": 5507,
      "Ġineffic": 5508,
      "Ġpilot": 5509,
      "NIME": 5510,
      "ĠQ": 5511,
      "tegr": 5512,
      "ading": 5513,
      "ĠKeras": 5514,
      "Ġmatch": 5515,
      "ships": 5516,
      "ĠKeep": 5517,
      "tical": 5518,
      "Ġaims": 5519,
      "Ġenterprise": 5520,
      "Ġbugs": 5521,
      "Ġvalidation": 5522,
      "Ġoutputs": 5523,
      "roved": 5524,
      "Ġtrue": 5525,
      "ĠKNIME": 5526,
      "Ġparticip": 5527,
      "YP": 5528,
      "atibilities": 5529,
      "ĠGuidance": 5530,
      "Project": 5531,
      "Ġchallenge": 5532,
      "Ġfrequency": 5533,
      "ĠRequesting": 5534,
      "Ġreliable": 5535,
      "Flow": 5536,
      "SB": 5537,
      "ĠTensor": 5538,
      "ĠSci": 5539,
      "Ġ49": 5540,
      "Ġproposals": 5541,
      "Ġundeliverable": 5542,
      "ĠTensorFlow": 5543,
      "ree": 5544,
      "Ġseconds": 5545,
      "Ġappreciates": 5546,
      "Ġfeas": 5547,
      "Ġanticip": 5548,
      "raft": 5549,
      "Ġacknowledgment": 5550,
      "Ġincompatibilities": 5551,
      "Ġlittle": 5552,
      "ES": 5553,
      "Respected": 5554,
      "Ġadopt": 5555,
      "iries": 5556,
      "Ġhosting": 5557,
      "Ġcas": 5558,
      "edon": 5559,
      "Ġplaced": 5560,
      "Ġdiscovered": 5561,
      "planned": 5562,
      "Ġmacedon": 5563,
      "ĠEnhance": 5564,
      "learn": 5565,
      "32": 5566,
      "FTT": 5567,
      "dent": 5568,
      "Ġdc": 5569,
      "ĠIFTT": 5570,
      "iend": 5571,
      "Ġinteractive": 5572,
      "atively": 5573,
      "Ġscaling": 5574,
      "Ġlocal": 5575,
      "Ġchoices": 5576,
      "Ġexpanding": 5577,
      "Strateg": 5578,
      "ĠIFTTT": 5579,
      "sel": 5580,
      "Ġbrief": 5581,
      "liJ": 5582,
      "Ġafterno": 5583,
      "Ġleaders": 5584,
      "Ġresets": 5585,
      "ĠUpdates": 5586,
      "Ġaccidentally": 5587,
      "ĠScikit": 5588,
      "Ġafternoon": 5589,
      "Looking": 5590,
      "ty": 5591,
      "Ġhttps": 5592,
      "quire": 5593,
      "Ġresolver": 5594,
      "Ġactivated": 5595,
      "Ġdepartment": 5596,
      "Ġmisalignment": 5597,
      "exp": 5598,
      "Ġauthorized": 5599,
      "Ġstack": 5600,
      "Ġ35": 5601,
      "Ġtwice": 5602,
      "Ġmini": 5603,
      "Ġsatisfactory": 5604,
      "phones": 5605,
      "aneous": 5606,
      "roll": 5607,
      "ĠTYP": 5608,
      "Ġperhaps": 5609,
      "Ġplus": 5610,
      "user": 5611,
      "Ġ47": 5612,
      "Ġtransferred": 5613,
      "ĠUpon": 5614,
      "Ġrepositories": 5615,
      "ĠImpact": 5616,
      "ĠMetrics": 5617,
      "Ġunapproved": 5618,
      "aid": 5619,
      "rain": 5620,
      "erous": 5621,
      "hel": 5622,
      "ecure": 5623,
      "ĠMQ": 5624,
      "Ġpossibilities": 5625,
      "ĠVR": 5626,
      "Ġengineering": 5627,
      "Ġ44": 5628,
      "Ġreplaced": 5629,
      "Ġsupposed": 5630,
      "Ġmigrate": 5631,
      "Ġblocked": 5632,
      "Guidance": 5633,
      "Ġturning": 5634,
      "ĠWebsite": 5635,
      "Ġwhom": 5636,
      "Ġaccessibility": 5637,
      "Ġremember": 5638,
      "Ġrefining": 5639,
      "Ġincorrectly": 5640,
      "Ġshipping": 5641,
      "ĠUser": 5642,
      "Ġleads": 5643,
      "Ġ43": 5644,
      "Ġassessments": 5645,
      "Ġpartnerships": 5646,
      "ĠIntelliJ": 5647,
      "Ġvendor": 5648,
      "Ġinefficiencies": 5649,
      "witch": 5650,
      "Ġtun": 5651,
      "Ġpan": 5652,
      "Ġfwd": 5653,
      "Ġregistration": 5654,
      "Ġnewly": 5655,
      "Ġasked": 5656,
      "Ġallows": 5657,
      "Ġcopied": 5658,
      "Ġhosted": 5659,
      "Ġyielded": 5660,
      "athe": 5661,
      "Ġcpu": 5662,
      "thon": 5663,
      "ĠDel": 5664,
      "Ġvan": 5665,
      "Ġentering": 5666,
      "of": 5667,
      "Ġcur": 5668,
      "Ġeel": 5669,
      "Ġrequester": 5670,
      "Ġ23": 5671,
      "bex": 5672,
      "defender": 5673,
      "ĠBitdefender": 5674,
      "ĠPayment": 5675,
      ".\"": 5676,
      "erse": 5677,
      "Ġrevert": 5678,
      "Ġdynam": 5679,
      "ster": 5680,
      "ĠWill": 5681,
      "ĠWebex": 5682,
      "Ġoutside": 5683,
      "Ġconfusion": 5684,
      "rugg": 5685,
      "0000": 5686,
      "Ġwhole": 5687,
      "Ġemergency": 5688,
      "ON": 5689,
      "Ġpen": 5690,
      "Ġband": 5691,
      "elp": 5692,
      "Ġedition": 5693,
      "Ġcalendars": 5694,
      "Ġpaid": 5695,
      "Ġtransfers": 5696,
      "ĠTYPO": 5697,
      "Ġnull": 5698,
      "Ġunderstood": 5699,
      "resh": 5700,
      "ators": 5701,
      "Ġplacements": 5702,
      "Ġprepared": 5703,
      "Ġdisconnecting": 5704,
      "Ġusual": 5705,
      "ĠCrashes": 5706,
      "Ġcombination": 5707,
      "ks": 5708,
      "ubl": 5709,
      "Ġdest": 5710,
      "Ġlabel": 5711,
      "Ġ26": 5712,
      "Ġcollaborate": 5713,
      "Ġcreative": 5714,
      "Ġconsistent": 5715,
      "Ġfocus": 5716,
      "Strategies": 5717,
      "Ġenj": 5718,
      "Ġextensive": 5719,
      "Ġ29": 5720,
      "Ġcompletely": 5721,
      "Ġcontained": 5722,
      "Ġmaximize": 5723,
      "Ġjustification": 5724,
      "Ġspreadsheet": 5725,
      "Ġrack": 5726,
      "solete": 5727,
      "Ġinteractions": 5728,
      "Ġinefficient": 5729,
      "Ġpipelines": 5730,
      "ĠIDEA": 5731,
      "estion": 5732,
      "ĠOne": 5733,
      "Ġjerse": 5734,
      "Ġinstit": 5735,
      "Ġ31": 5736,
      "ĠEnhanced": 5737,
      "Ġresubmit": 5738,
      "Ġaspects": 5739,
      "Ġjersey": 5740,
      "enk": 5741,
      "Ġfast": 5742,
      "ĠWith": 5743,
      "ĠPr": 5744,
      "Ġrequirement": 5745,
      "Ġabsences": 5746,
      "Ġbudgets": 5747,
      "Ġelectron": 5748,
      "Ġflexible": 5749,
      "Ġtransport": 5750,
      "bon": 5751,
      "Ġcir": 5752,
      "Ġduration": 5753,
      "ica": 5754,
      "illed": 5755,
      "Ġtrip": 5756,
      "Ġstates": 5757,
      "Ġ41": 5758,
      "Ġintru": 5759,
      "ĠPython": 5760,
      "Tracker": 5761,
      "aw": 5762,
      "comp": 5763,
      "Ġfig": 5764,
      "Ġnum": 5765,
      "old": 5766,
      "Ġstrugg": 5767,
      "Ġsegment": 5768,
      "Ġspare": 5769,
      "license": 5770,
      "Ġcluster": 5771,
      "Ġconfirming": 5772,
      "Ġcreatives": 5773,
      "Ġevaluate": 5774,
      "lost": 5775,
      "Ġ21": 5776,
      "ternet": 5777,
      "Ġobsolete": 5778,
      "ique": 5779,
      "ĠAcross": 5780,
      "Ġmechanisms": 5781,
      "ext": 5782,
      "mark": 5783,
      "wid": 5784,
      "mental": 5785,
      "Ġtrial": 5786,
      "missing": 5787,
      "Ġdefin": 5788,
      "ĠCanon": 5789,
      "Ġmacedonia": 5790,
      "Hub": 5791,
      "Ġflaw": 5792,
      "Ġbrands": 5793,
      "mailbox": 5794,
      "Ġrecalibrate": 5795,
      "36": 5796,
      "igating": 5797,
      "Ġisol": 5798,
      "ĠDec": 5799,
      "Ġovertime": 5800,
      "Ġovercharg": 5801,
      "Ġ33": 5802,
      "Ġbench": 5803,
      "ĠDetected": 5804,
      "Ġinvalid": 5805,
      "Ġceased": 5806,
      "IX": 5807,
      "Ġren": 5808,
      "Ġyellow": 5809,
      "Ġconstant": 5810,
      "ĠAgency": 5811,
      "Ġincorporate": 5812,
      "Ġrand": 5813,
      "Ġprem": 5814,
      "Ġimproper": 5815,
      "tocol": 5816,
      "Ġpromoting": 5817,
      "width": 5818,
      "27": 5819,
      "ories": 5820,
      "location": 5821,
      "Ġunique": 5822,
      "Ġitself": 5823,
      "Ġsupporting": 5824,
      "Ġdecreased": 5825,
      "Ġsimpl": 5826,
      "approval": 5827,
      "Ġenjoy": 5828,
      "enkins": 5829,
      "21": 5830,
      "how": 5831,
      "Ġfax": 5832,
      "Ġmid": 5833,
      "Ġhit": 5834,
      "aces": 5835,
      "Ġtimed": 5836,
      "ĠInternet": 5837,
      "Ġremed": 5838,
      "ĠUSB": 5839,
      "Ġtiers": 5840,
      "Ġvanished": 5841,
      "report": 5842,
      "Ġcompromising": 5843,
      "Ġtelephone": 5844,
      "Ġretrieval": 5845,
      "Ġconstrain": 5846,
      "Ġcasc": 5847,
      "Ġintrusion": 5848,
      "endit": 5849,
      "Ġ46": 5850,
      "Ġaway": 5851,
      "ĠExam": 5852,
      "Ġrevised": 5853,
      "Ġannouncement": 5854,
      "ĠSetting": 5855,
      "wr": 5856,
      "invalid": 5857,
      "Ġvo": 5858,
      "Ġresponses": 5859,
      "ĠFirm": 5860,
      "Ġ42": 5861,
      "Ġsecurely": 5862,
      "Cont": 5863,
      "ĠScal": 5864,
      "ĠTrans": 5865,
      "apshot": 5866,
      "Ġdynamic": 5867,
      "ming": 5868,
      "terey": 5869,
      "Ġimperative": 5870,
      "Ġ34": 5871,
      "Ġ39": 5872,
      "Ġ45": 5873,
      "Inquiring": 5874,
      "ĠJenkins": 5875,
      "ĠMonterey": 5876,
      "Medical": 5877,
      "internal": 5878,
      "Ġcross": 5879,
      "ars": 5880,
      "Ġads": 5881,
      "Ġinforming": 5882,
      "Ġexpendit": 5883,
      "ĠFigma": 5884,
      "Ġrefers": 5885,
      "Ġheads": 5886,
      "ĠTroubleshooting": 5887,
      "ĠMalfunction": 5888,
      "Ġbandwidth": 5889,
      "oute": 5890,
      "Ġmobility": 5891,
      "Ġ38": 5892,
      "ulnerabilities": 5893,
      "Ġfacility": 5894,
      "ĠMeetings": 5895,
      "Ġeasier": 5896,
      "while": 5897,
      "Ġbelieved": 5898,
      "Ġcascade": 5899,
      "Ġanalytical": 5900,
      "Ġinvestigations": 5901,
      "Ġpassed": 5902,
      "Ġstandard": 5903,
      "Ġobjective": 5904,
      "Ġcorrection": 5905,
      "Ġdelivering": 5906,
      "Ġindicates": 5907,
      "Ġcomponent": 5908,
      "Detected": 5909,
      "Ġnumerous": 5910,
      "Would": 5911,
      "iFi": 5912,
      "Ġunusual": 5913,
      "Ġnoises": 5914,
      "Ġfrust": 5915,
      "cont": 5916,
      "Ġreconci": 5917,
      "Ġrespective": 5918,
      "Ġgrowing": 5919,
      "Ġrandom": 5920,
      "AC": 5921,
      "lit": 5922,
      "Ġaward": 5923,
      "loys": 5924,
      "Ġaccomp": 5925,
      "Ġresolutions": 5926,
      "rypt": 5927,
      "ĠUniFi": 5928,
      "Ġaiming": 5929,
      "ology": 5930,
      "Ġreconfiguring": 5931,
      "Ġprotocol": 5932,
      "ĠHome": 5933,
      "ĠRegular": 5934,
      "ĠWhen": 5935,
      "Ġachieved": 5936,
      "ĠGitHub": 5937,
      "Ġdeleg": 5938,
      "Link": 5939,
      "atisfact": 5940,
      "ishes": 5941,
      "Ġcolor": 5942,
      "Ġexactly": 5943,
      "annual": 5944,
      "Ġproposed": 5945,
      "Ġrepresentative": 5946,
      "Ġpositive": 5947,
      "Ġdemands": 5948,
      "Ġreliability": 5949,
      "Details": 5950,
      "==": 5951,
      "bases": 5952,
      "Ġhr": 5953,
      "Ġadhere": 5954,
      "Ġinstru": 5955,
      "Ġjoiners": 5956,
      "Ġnavigate": 5957,
      "ĠDocuSign": 5958,
      "##": 5959,
      "rive": 5960,
      "Ġ>": 5961,
      "Ġheight": 5962,
      "Ġtimefr": 5963,
      "Ġscen": 5964,
      "ultaneous": 5965,
      "Ġsignature": 5966,
      "Ġstatuses": 5967,
      "Ġbott": 5968,
      "exchange": 5969,
      "Ġconversion": 5970,
      "Ġicon": 5971,
      "Ġrepeated": 5972,
      "dentified": 5973,
      "Ġtill": 5974,
      "reme": 5975,
      "ater": 5976,
      "Ġmaster": 5977,
      "sured": 5978,
      "Ġonto": 5979,
      "Ġdatabases": 5980,
      "iration": 5981,
      "ĠMathe": 5982,
      "Ġinvestigated": 5983,
      "Ġinconsistency": 5984,
      "Ġbuilder": 5985,
      "ĠOutage": 5986,
      "matica": 5987,
      "ĠLogin": 5988,
      "ĠMathematica": 5989,
      "Ġrow": 5990,
      "Ġfat": 5991,
      "Ġinca": 5992,
      "Ġpreferences": 5993,
      "ĠInquiring": 5994,
      "Ġafterwards": 5995,
      "Ġsearching": 5996,
      "Ġbuilt": 5997,
      "Ġrollback": 5998,
      "Ġimpeding": 5999,
      "uations": 6000,
      "Ġ}": 6001,
      "Ġpick": 6002,
      "Ġexceed": 6003,
      "Ġchat": 6004,
      "iere": 6005,
      "Ġgoods": 6006,
      "Ġcleaning": 6007,
      "Ġsnapshot": 6008,
      "Ġfaulty": 6009,
      "Ġdemonstrate": 6010,
      "Ġxxx": 6011,
      "Ġexpenditure": 6012,
      "TS": 6013,
      "customer": 6014,
      "iser": 6015,
      "ĠSy": 6016,
      "Ġcalling": 6017,
      "Ġcorrected": 6018,
      "Ġsuggestion": 6019,
      "Ġremotely": 6020,
      "Ġtimeouts": 6021,
      "ĠXero": 6022,
      "Ġscripts": 6023,
      "Ġadaptor": 6024,
      "ĠPremiere": 6025,
      "Jet": 6026,
      "Ġsplit": 6027,
      "Ġrecorded": 6028,
      "ĠManager": 6029,
      "Ġacknowledges": 6030,
      "Ġplug": 6031,
      "ĠFailure": 6032,
      "Ġpow": 6033,
      "alies": 6034,
      "support": 6035,
      "Ġensured": 6036,
      "Ġunplanned": 6037,
      "Ġroute": 6038,
      "Ġextreme": 6039,
      "certain": 6040,
      "Integr": 6041,
      "Ġorganizations": 6042,
      "Ġstreamlined": 6043,
      "Ġcolumns": 6044,
      "Ġterminal": 6045,
      "Ġaccommo": 6046,
      "Ġstory": 6047,
      "Ġserial": 6048,
      "ĠEffect": 6049,
      "ĠEnsuring": 6050,
      "ĠIntegrations": 6051,
      "Ġtotals": 6052,
      "ĠDesktop": 6053,
      "ĠDeskJet": 6054,
      "ĠChallenges": 6055,
      "Ġsimple": 6056,
      "Ġ3755": 6057,
      "Ġcapture": 6058,
      "Ġdeep": 6059,
      "Ġdepth": 6060,
      "ĠDowntime": 6061,
      "Ġmanner": 6062,
      "Ġconnectors": 6063,
      "Ġprett": 6064,
      ">,\\": 6065,
      "print": 6066,
      "Ġgranting": 6067,
      "Ġreconcile": 6068,
      "Ġpretty": 6069,
      "vise": 6070,
      "Ġ+": 6071,
      "tec": 6072,
      "ĠBus": 6073,
      "Ġexperiences": 6074,
      "Ġpractice": 6075,
      "Ġcybersecurity": 6076,
      "ĠChrome": 6077,
      "Ġreferring": 6078,
      "Ġsubsequent": 6079,
      "card": 6080,
      "mas": 6081,
      "enish": 6082,
      "edia": 6083,
      "Ġbid": 6084,
      "Ġstation": 6085,
      "Ġade": 6086,
      "Ġimplementations": 6087,
      "Ġdescribed": 6088,
      "Ġfinished": 6089,
      "000": 6090,
      "Ġdefined": 6091,
      "Ġoriginating": 6092,
      "Ġvalidate": 6093,
      "Ġfields": 6094,
      "...": 6095,
      "Ġconstraints": 6096,
      "Ġvoice": 6097,
      "Router": 6098,
      "Ġrom": 6099,
      "ernity": 6100,
      "ĠImpro": 6101,
      "ĠPas": 6102,
      "Ġinterview": 6103,
      "Ġbox": 6104,
      "Ġcomes": 6105,
      "Ġemploys": 6106,
      "LAN": 6107,
      "Ġfocusing": 6108,
      "Ġnegatively": 6109,
      "Ã¼": 6110,
      "lection": 6111,
      "Ġconsu": 6112,
      "terprise": 6113,
      "Ġlove": 6114,
      "Ġrelations": 6115,
      "Ġhereby": 6116,
      "Ġbalancing": 6117,
      "Ġwi": 6118,
      "ĠCert": 6119,
      "Ġlogo": 6120,
      "Ġhighlighted": 6121,
      "Ġemerged": 6122,
      "Ġextremely": 6123,
      "your": 6124,
      "Ġaff": 6125,
      "Ġintel": 6126,
      "ruit": 6127,
      "Ġprojections": 6128,
      "Ġdeveloping": 6129,
      "Requesting": 6130,
      "Ġsimultaneous": 6131,
      "Ġcertificates": 6132,
      "mantec": 6133,
      "Ġpush": 6134,
      "Ġsucceeded": 6135,
      "awk": 6136,
      "ĠSymantec": 6137,
      "Ġaccommodate": 6138,
      "fi": 6139,
      "Ġmobil": 6140,
      "Ġexpiration": 6141,
      "Ġengage": 6142,
      "ipse": 6143,
      "Ġintervention": 6144,
      "Ġarise": 6145,
      "Ġrecalibrating": 6146,
      "Encountered": 6147,
      "ĠShopify": 6148,
      "ties": 6149,
      "Ġpubl": 6150,
      "leting": 6151,
      "cting": 6152,
      "urgent": 6153,
      "ĠiOS": 6154,
      "thawk": 6155,
      "ighthawk": 6156,
      "Ġquot": 6157,
      "ĠNighthawk": 6158,
      "ĠLTS": 6159,
      "Ġdevelopers": 6160,
      "Ġconsulting": 6161,
      "ĠSubs": 6162,
      "Ġwide": 6163,
      "ĠTe": 6164,
      "erra": 6165,
      "Ġcla": 6166,
      "Ġidentity": 6167,
      "abber": 6168,
      "ĠApple": 6169,
      "Ġtopics": 6170,
      "Update": 6171,
      "letin": 6172,
      "ĠCompatibility": 6173,
      "Ġindicating": 6174,
      "Ġpopul": 6175,
      "Ġgradu": 6176,
      "Ġtimeframe": 6177,
      "Boost": 6178,
      "Ġtag": 6179,
      "atient": 6180,
      "Ġsr": 6181,
      "Ġword": 6182,
      "admin": 6183,
      "server": 6184,
      "Ġinitially": 6185,
      "Ġexecute": 6186,
      "approved": 6187,
      "ĠImplement": 6188,
      "--------": 6189,
      "quarespace": 6190,
      "ĠPricing": 6191,
      "Exp": 6192,
      "http": 6193,
      "match": 6194,
      "},": 6195,
      "ĠSquarespace": 6196,
      "Ġreplying": 6197,
      "Ġnames": 6198,
      "Ġreinfor": 6199,
      "xy": 6200,
      "Ġcart": 6201,
      "ĠAut": 6202,
      "Ġintegrates": 6203,
      "riority": 6204,
      "Ġsynchronize": 6205,
      "Ġindexing": 6206,
      "Ġconditions": 6207,
      "Ġanomalies": 6208,
      "ĠPassword": 6209,
      "ĠCertain": 6210,
      "cloud": 6211,
      "night": 6212,
      "Ġbag": 6213,
      "Ġomissions": 6214,
      "ĠVarious": 6215,
      "Ġlaun": 6216,
      "Ġautomate": 6217,
      "ĠConnection": 6218,
      "Ġskill": 6219,
      "Ġconstantly": 6220,
      "ĠSettings": 6221,
      "ew": 6222,
      "pa": 6223,
      "priority": 6224,
      "Ġtypical": 6225,
      "ened": 6226,
      "Ġrename": 6227,
      "Ġreopen": 6228,
      "ĠSD": 6229,
      "Ġassume": 6230,
      "ĠCurrent": 6231,
      "emy": 6232,
      "iences": 6233,
      "Ġverification": 6234,
      "Ġextent": 6235,
      "Ġdriving": 6236,
      "Ġfeeds": 6237,
      "Ġpresentations": 6238,
      "Ġcyc": 6239,
      "Ġjoiner": 6240,
      "Ġauthorization": 6241,
      "Ġcategor": 6242,
      "Ġundertaken": 6243,
      "ĠDiscrepancies": 6244,
      "ĠQN": 6245,
      "Ġanticipate": 6246,
      "Ġpanel": 6247,
      "ĠEffects": 6248,
      "bian": 6249,
      "Ġerr": 6250,
      "Ġign": 6251,
      "Ġinactive": 6252,
      "Ġtoward": 6253,
      "ĠCommerce": 6254,
      "ĠWLAN": 6255,
      "Ġdecommissioned": 6256,
      "ĠImpacting": 6257,
      "Ġelectronic": 6258,
      "Lab": 6259,
      "gi": 6260,
      "Ġreper": 6261,
      "ural": 6262,
      "verse": 6263,
      "Ġchr": 6264,
      "Ġcompleting": 6265,
      "cussions": 6266,
      "Ġnumbers": 6267,
      "Ġdefect": 6268,
      "Ġclicking": 6269,
      "Trouble": 6270,
      "Ġdenied": 6271,
      "ĠâĢ¢": 6272,
      "filler": 6273,
      "connection": 6274,
      "Ġrepercussions": 6275,
      "OD": 6276,
      "nCould": 6277,
      "Ġwishes": 6278,
      "ĠAlex": 6279,
      "ĠPIX": 6280,
      "Ġtrain": 6281,
      "ĠEnd": 6282,
      "ĠEnterprise": 6283,
      "raw": 6284,
      "Ġ360": 6285,
      "Ġunpaid": 6286,
      "ĠGitLab": 6287,
      "ĠPIXMA": 6288,
      "rec": 6289,
      "rease": 6290,
      "orage": 6291,
      "Ġhamp": 6292,
      "Ġrestoring": 6293,
      "Ġlooked": 6294,
      "fficiency": 6295,
      "Ġdisconnections": 6296,
      "ĠCertainly": 6297,
      "order": 6298,
      "Ġcut": 6299,
      "istmas": 6300,
      "Ġneither": 6301,
      "Ġjabber": 6302,
      "Ġsomehow": 6303,
      "velop": 6304,
      "Ġrebu": 6305,
      "Ġreplenish": 6306,
      "Ġescalated": 6307,
      "Ġdemogr": 6308,
      "Ġhalted": 6309,
      "Ġunsatisfact": 6310,
      "Ġincorporating": 6311,
      "Ġunsatisfactory": 6312,
      "Ġflight": 6313,
      "email": 6314,
      "uma": 6315,
      "umes": 6316,
      "Ġabrupt": 6317,
      "achine": 6318,
      "Ġbeginning": 6319,
      "Ġreinst": 6320,
      "Ġscenari": 6321,
      "Press": 6322,
      "Ġlose": 6323,
      "Ġcontaining": 6324,
      "oke": 6325,
      "Ġbelong": 6326,
      "Ġuploaded": 6327,
      "Ġbroader": 6328,
      "Ġwebin": 6329,
      "cgi": 6330,
      "xforce": 6331,
      "atched": 6332,
      "Ġgiving": 6333,
      "Ġsuper": 6334,
      "Ġmoder": 6335,
      "Ġposing": 6336,
      "Ġoptimizations": 6337,
      "Ġnetworking": 6338,
      "Ġinquiries": 6339,
      "Ġindicated": 6340,
      "2017": 6341,
      "clipse": 6342,
      "www": 6343,
      "ĠSSD": 6344,
      "Note": 6345,
      "Ġpare": 6346,
      "Ġpuma": 6347,
      "ĠCol": 6348,
      "Ġdegrad": 6349,
      "Ġseries": 6350,
      "udden": 6351,
      "Ġshall": 6352,
      "Ġsold": 6353,
      "ope": 6354,
      "Ġfinish": 6355,
      "Ġuploading": 6356,
      "Ġbooked": 6357,
      "Ġreminders": 6358,
      "nov": 6359,
      "Ġexecuting": 6360,
      "ĠWordPress": 6361,
      "Ġscreenshot": 6362,
      "ĠOneNote": 6363,
      "gestion": 6364,
      "vulnerabilities": 6365,
      "Ġ/": 6366,
      "Ġelabor": 6367,
      "ĠSk": 6368,
      "Ġapparent": 6369,
      "ada": 6370,
      "Ġali": 6371,
      "Ġallowing": 6372,
      "**:": 6373,
      "Ġspeaking": 6374,
      "Ġvolumes": 6375,
      "ĠUpdating": 6376,
      "Ġpe": 6377,
      "Ġbund": 6378,
      "Ġcongestion": 6379,
      "ĠPower": 6380,
      "ĠPowerPoint": 6381,
      "Ġattend": 6382,
      "Ġfindings": 6383,
      "Ġhopefully": 6384,
      "Ġmaps": 6385,
      "Ġfilters": 6386,
      "Ġconcurrent": 6387,
      "erraform": 6388,
      "Ġchristmas": 6389,
      "99": 6390,
      "Ġinaccess": 6391,
      "Ġwithd": 6392,
      "Ġuninter": 6393,
      "ulletin": 6394,
      "Ġcomplications": 6395,
      "Ġjour": 6396,
      "Ġscanning": 6397,
      "purchase": 6398,
      "ibmcloud": 6399,
      "Ġundertake": 6400,
      "Ġuninterrupted": 6401,
      "ram": 6402,
      "Ġslo": 6403,
      "anner": 6404,
      "Ġfam": 6405,
      "ception": 6406,
      "olving": 6407,
      "ĠTerraform": 6408,
      "ames": 6409,
      "ĠCo": 6410,
      "Ġlight": 6411,
      "ĠRA": 6412,
      "ĠCustomers": 6413,
      "ĠLear": 6414,
      "Ġviews": 6415,
      "Ġstring": 6416,
      "Ġseriousness": 6417,
      "Ġedge": 6418,
      "Ġledger": 6419,
      "mporary": 6420,
      "yper": 6421,
      "Ġcrit": 6422,
      "Ġmime": 6423,
      "Ġbought": 6424,
      "Ġlower": 6425,
      "Ġrecurrent": 6426,
      "ĠThrough": 6427,
      "Ġpreparer": 6428,
      "Ġcarried": 6429,
      "Ġwebinars": 6430,
      "uide": 6431,
      "Ġton": 6432,
      "Ġreleased": 6433,
      "iti": 6434,
      "Ġfed": 6435,
      "Ġproactive": 6436,
      "Ġuncertain": 6437,
      "Ġcab": 6438,
      "aching": 6439,
      "Ġreviews": 6440,
      "ĠBulletin": 6441,
      "ually": 6442,
      "Ġdifference": 6443,
      "Ġolder": 6444,
      "Ġremoving": 6445,
      "ĠPlatforms": 6446,
      "Ġmalfunctioned": 6447,
      "Ġcorrespond": 6448,
      "ĠEndpoint": 6449,
      "ina": 6450,
      "ides": 6451,
      "Ġyourself": 6452,
      "ĠReb": 6453,
      "reset": 6454,
      "Ġbusy": 6455,
      "Ġreading": 6456,
      "address": 6457,
      "Ġattributes": 6458,
      "Ġreconfigure": 6459,
      "Ġclaim": 6460,
      "gers": 6461,
      "mer": 6462,
      "roller": 6463,
      "ĠDrive": 6464,
      "Ġchar": 6465,
      "Ġaccesses": 6466,
      "ĠEd": 6467,
      "Ġkeeping": 6468,
      "Ġnavigation": 6469,
      "Ġcomplaint": 6470,
      "Ġaccomplish": 6471,
      ".<": 6472,
      "Ġamp": 6473,
      "lean": 6474,
      "Ġie": 6475,
      "Ġrecruit": 6476,
      "Ġsell": 6477,
      "Ġspr": 6478,
      "imizing": 6479,
      "earch": 6480,
      "Ġgreater": 6481,
      "ĠEfficiency": 6482,
      "Ġstarts": 6483,
      "ĠEnviron": 6484,
      "Ġregulation": 6485,
      "Ġcontinued": 6486,
      "ĠFollowing": 6487,
      "ĠBlackboard": 6488,
      "TI": 6489,
      "aving": 6490,
      "code": 6491,
      "gments": 6492,
      "isable": 6493,
      "Ġmir": 6494,
      "Ġhire": 6495,
      "Ġinvite": 6496,
      "Ġsegments": 6497,
      "onsider": 6498,
      "Ġconsiderations": 6499,
      "Ġsectors": 6500,
      "Ġhandled": 6501,
      "Ġrefreshed": 6502,
      "Ġposted": 6503,
      "timec": 6504,
      "changes": 6505,
      "Ġcycles": 6506,
      "chest": 6507,
      "Ġny": 6508,
      "Ġwel": 6509,
      "ĠPatient": 6510,
      "venue": 6511,
      "ĠMin": 6512,
      "ĠOff": 6513,
      "Ġbackend": 6514,
      "Ġoverloads": 6515,
      "Ġprinters": 6516,
      "Ġreconc": 6517,
      "ĠProcessing": 6518,
      "Ġreconnecting": 6519,
      "Ġpremium": 6520,
      "Ġlaunched": 6521,
      "Ġelaborate": 6522,
      "Ġwithdraw": 6523,
      ">?": 6524,
      "iling": 6525,
      "Ġcanada": 6526,
      "Ġamounts": 6527,
      "Ġserve": 6528,
      "ifying": 6529,
      "ĠLenovo": 6530,
      "Ġpersonnel": 6531,
      "Ġmismatch": 6532,
      "Ġutilization": 6533,
      "Ġeasily": 6534,
      "Ġdenmark": 6535,
      "ĠFailures": 6536,
      "ĠPremium": 6537,
      "rafting": 6538,
      "Ġinstitution": 6539,
      "Ġstruggling": 6540,
      "Afe": 6541,
      "Access": 6542,
      "CA": 6543,
      "cAfe": 6544,
      "Ġissued": 6545,
      "Ġdisabling": 6546,
      "Ġjam": 6547,
      "ĠRequire": 6548,
      "Ġspecialists": 6549,
      "Ġdepends": 6550,
      "Ġnormally": 6551,
      "Ġpinpo": 6552,
      "cAfee": 6553,
      "DF": 6554,
      "Several": 6555,
      "nTo": 6556,
      "pend": 6557,
      "Ġfro": 6558,
      "Ġsufficient": 6559,
      "usive": 6560,
      "ĠMachine": 6561,
      "Ġbran": 6562,
      "Ġreceivable": 6563,
      "Ġprompted": 6564,
      "Ġsaw": 6565,
      "ruptions": 6566,
      "Ġdifficulty": 6567,
      "Ġintend": 6568,
      "Ġformats": 6569,
      "problems": 6570,
      "ĠJoh": 6571,
      "ĠBusiness": 6572,
      "ĠRAID": 6573,
      "ĠReboot": 6574,
      "Unexpected": 6575,
      "critical": 6576,
      "network": 6577,
      "Ġtight": 6578,
      "Ġsick": 6579,
      "Ġmapping": 6580,
      "ĠPDF": 6581,
      "ĠMcAfee": 6582,
      "Ġrestored": 6583,
      "Ġmatters": 6584,
      "Ġquiz": 6585,
      "Ġthereby": 6586,
      "Ġbrowsing": 6587,
      "Ġmaintained": 6588,
      "Ġcontinuity": 6589,
      "123": 6590,
      "Ġdocs": 6591,
      "selves": 6592,
      "3620": 6593,
      "Ġrelationship": 6594,
      "sible": 6595,
      "Ġapache": 6596,
      "itation": 6597,
      "Ġproxy": 6598,
      "Ġstaging": 6599,
      "ĠMG": 6600,
      "ĠInvo": 6601,
      "Ġindepend": 6602,
      "screen": 6603,
      "ĠLearn": 6604,
      "Ġbar": 6605,
      "Ġkale": 6606,
      "Ġdetermin": 6607,
      "Ġdiscussions": 6608,
      "Ġcallback": 6609,
      "Ġbytes": 6610,
      "Ġfinally": 6611,
      "Ġwritten": 6612,
      "Ġprobable": 6613,
      "fram": 6614,
      "Ġwondering": 6615,
      "iendly": 6616,
      "67": 6617,
      "Pad": 6618,
      "dle": 6619,
      "uitive": 6620,
      "idered": 6621,
      "Ġunsure": 6622,
      "ĠPC": 6623,
      "Ġrequiring": 6624,
      "Ġrecreate": 6625,
      "aShop": 6626,
      "restaShop": 6627,
      "ĠAnsible": 6628,
      "Ġconsidered": 6629,
      "Ġnews": 6630,
      "Ġintuitive": 6631,
      "Ġminute": 6632,
      "Ġ2024": 6633,
      "Ġsurveys": 6634,
      "Ġrevamp": 6635,
      "Ġdisconnected": 6636,
      "Ġdisappear": 6637,
      "Ġcatal": 6638,
      "ĠExamine": 6639,
      "ĠQNAP": 6640,
      "::": 6641,
      "inted": 6642,
      "arp": 6643,
      "olfram": 6644,
      "Ġlite": 6645,
      "ĠWolfram": 6646,
      "Ġscope": 6647,
      "Ġstatist": 6648,
      "Ġemployment": 6649,
      "ĠExperienced": 6650,
      "clear": 6651,
      "Ġcooler": 6652,
      "Ġexplained": 6653,
      "Ġadvantages": 6654,
      "Ġreplenishment": 6655,
      "01": 6656,
      "800": 6657,
      "iting": 6658,
      "ĠIdentified": 6659,
      "semin": 6660,
      "Ġdissemin": 6661,
      "ustr": 6662,
      "ĠVisual": 6663,
      "ĠHave": 6664,
      "depth": 6665,
      "ĠConfig": 6666,
      "Ġsynchronized": 6667,
      "This": 6668,
      "Ġobserving": 6669,
      "Ġdeploying": 6670,
      "2021": 6671,
      "Ġoccasion": 6672,
      "Ġindicators": 6673,
      "ĠâĢĮ": 6674,
      "located": 6675,
      "SET": 6676,
      "\",": 6677,
      "vis": 6678,
      "Ã¤": 6679,
      "Ġwatch": 6680,
      "Ġborrow": 6681,
      "Ġunclear": 6682,
      "Ġsolving": 6683,
      "ĠEclipse": 6684,
      "Ġoverl": 6685,
      "ĠUnexpected": 6686,
      "Ġsomebody": 6687,
      "Ġarrived": 6688,
      "Ġheadphones": 6689,
      "Enquiry": 6690,
      "Ġexcell": 6691,
      "Ġevaluation": 6692,
      "Ġturned": 6693,
      "Ġpopular": 6694,
      "ĠPortal": 6695,
      "Ġreserved": 6696,
      "Ġcharact": 6697,
      "sApp": 6698,
      "visual": 6699,
      "Ġfoot": 6700,
      "Ġinnov": 6701,
      "Ġsocket": 6702,
      "Ġlive": 6703,
      "ĠAru": 6704,
      "Ġpurchasing": 6705,
      "ĠUsing": 6706,
      "Ġsigning": 6707,
      "Ġregulated": 6708,
      "ĠPlus": 6709,
      "ĠReports": 6710,
      "Ġmodifying": 6711,
      "ĠWhatsApp": 6712,
      "Ġgraduates": 6713,
      "ĠAruba": 6714,
      "block": 6715,
      "we": 6716,
      "atic": 6717,
      "Ġland": 6718,
      "Ġassistant": 6719,
      "Ġexperts": 6720,
      "ĠESET": 6721,
      "ĠAdjust": 6722,
      "Ġtroubles": 6723,
      "Ġovernight": 6724,
      "Ġglitches": 6725,
      "Ġresponsibilities": 6726,
      "Ġinterrupted": 6727,
      "ĠConcerns": 6728,
      "Ġconversions": 6729,
      "ĠMini": 6730,
      "Ġnorth": 6731,
      "cribe": 6732,
      "assign": 6733,
      "Ġselecting": 6734,
      "Ġpictures": 6735,
      "help": 6736,
      "Ġaffili": 6737,
      "15": 6738,
      "LS": 6739,
      "pm": 6740,
      "Ġcoun": 6741,
      "Ġforbidden": 6742,
      "Ġelev": 6743,
      "ĠTactics": 6744,
      "Ġrecur": 6745,
      "Ġaccessories": 6746,
      "using": 6747,
      "ĠLive": 6748,
      "Ġthroughout": 6749,
      "Ġcollect": 6750,
      "ĠAlready": 6751,
      "mittent": 6752,
      "Encountering": 6753,
      "Ġcategories": 6754,
      "),": 6755,
      "Currently": 6756,
      "ED": 6757,
      "Ġwales": 6758,
      "Ġbb": 6759,
      "ecured": 6760,
      "Ġappoint": 6761,
      "Ġsuite": 6762,
      "irection": 6763,
      "ivered": 6764,
      "Ġwhite": 6765,
      "akes": 6766,
      "Ġbranding": 6767,
      "ĠConf": 6768,
      "Ġglass": 6769,
      "Ġstrengthened": 6770,
      "ĠCentral": 6771,
      "Ġultimately": 6772,
      "Ġreverting": 6773,
      "Ġdemographics": 6774,
      "Ġwelcome": 6775,
      "500": 6776,
      "Secure": 6777,
      "commerce": 6778,
      "yond": 6779,
      "lements": 6780,
      "Ġreve": 6781,
      "ardware": 6782,
      "ĠPrestaShop": 6783,
      "Ġbreached": 6784,
      "ĠStorage": 6785,
      "Ġvulnerable": 6786,
      "Ġacknowledged": 6787,
      "Ġcomputers": 6788,
      "Ġdesigner": 6789,
      "Ġdeployments": 6790,
      "Healthcare": 6791,
      "Ġnomination": 6792,
      "leaner": 6793,
      "Ġdissemination": 6794,
      "eration": 6795,
      "Ġparent": 6796,
      "Ġgives": 6797,
      "ĠAg": 6798,
      "Ġamended": 6799,
      "Ġworkload": 6800,
      "ĠMod": 6801,
      "lude": 6802,
      "Ġdiscount": 6803,
      "ubase": 6804,
      "Ġfactors": 6805,
      "Ġprivileges": 6806,
      "chool": 6807,
      "spective": 6808,
      "Ġfeasibility": 6809,
      "ĠSubscription": 6810,
      "14": 6811,
      "VM": 6812,
      "Ġtine": 6813,
      "Ġbeyond": 6814,
      "ĠCode": 6815,
      "ĠCubase": 6816,
      "Ġvary": 6817,
      "Ġquant": 6818,
      "Ġclone": 6819,
      "ĠNew": 6820,
      "Ġlaw": 6821,
      "Ġsense": 6822,
      "Customers": 6823,
      "Ġmembership": 6824,
      "ĠDebian": 6825,
      "Ġrequisitions": 6826,
      "Ġfatal": 6827,
      "ĠPDFfiller": 6828,
      "biqu": 6829,
      "Ġschool": 6830,
      "licated": 6831,
      "ĠUbiqu": 6832,
      "Ġtransit": 6833,
      "Ġrecording": 6834,
      "Ġreinstallation": 6835,
      "Ġreducing": 6836,
      "Ġexpires": 6837,
      "Ġvalidating": 6838,
      "ĠCCleaner": 6839,
      "Ġtunnel": 6840,
      "ĠUbiquiti": 6841,
      "itating": 6842,
      "Ġfost": 6843,
      "ĠTP": 6844,
      "ĠTrel": 6845,
      "Ġexcess": 6846,
      "ĠRet": 6847,
      "Ġprices": 6848,
      "Ġinterim": 6849,
      "Ġminor": 6850,
      "Ġappearing": 6851,
      "ĠJava": 6852,
      "Ġrevise": 6853,
      "ĠDocument": 6854,
      "Ġsimultaneously": 6855,
      "ĠTrello": 6856,
      "GB": 6857,
      "onent": 6858,
      "Ġore": 6859,
      "Ġdeactivate": 6860,
      "ĠAud": 6861,
      "Ġaltern": 6862,
      "Ġroad": 6863,
      "Ġparties": 6864,
      "ĠGaming": 6865,
      "Ġlicence": 6866,
      "Ġtutorial": 6867,
      "2016": 6868,
      "periencing": 6869,
      "Ġreferral": 6870,
      "itter": 6871,
      "Ġresearch": 6872,
      "Ġrelies": 6873,
      "agers": 6874,
      "obile": 6875,
      "ĠAtt": 6876,
      "Ġweakness": 6877,
      "2015": 6878,
      "maternity": 6879,
      "Ġcandidates": 6880,
      "ĠProvider": 6881,
      "Ġignore": 6882,
      "Ġrebuild": 6883,
      "Ġ&": 6884,
      "Ġhttp": 6885,
      "ĠIll": 6886,
      "itely": 6887,
      "Ġengineers": 6888,
      "Ġdepending": 6889,
      "ĠAttempted": 6890,
      "Ġinitiative": 6891,
      "ĠReporting": 6892,
      "Ġstock": 6893,
      "Ġstronger": 6894,
      "Ġdeleting": 6895,
      "ustrator": 6896,
      "ĠIllustrator": 6897,
      "Opt": 6898,
      "ufact": 6899,
      "Ġfresh": 6900,
      "allet": 6901,
      "Ġnode": 6902,
      "ayed": 6903,
      "ĠPart": 6904,
      "Ġsept": 6905,
      "Ġstrategic": 6906,
      "uthorised": 6907,
      "Ġoverloaded": 6908,
      "ĠInvestigating": 6909,
      "Ġfacilities": 6910,
      "Ġnoticeable": 6911,
      "Ġrenewals": 6912,
      "Ġinspection": 6913,
      "ĠDelays": 6914,
      "Per": 6915,
      "off": 6916,
      "Ġ@": 6917,
      "eria": 6918,
      "Ġgaming": 6919,
      "ĠDream": 6920,
      "Ġrib": 6921,
      "Ġlia": 6922,
      "device": 6923,
      "Ġmismat": 6924,
      "Ġreplacing": 6925,
      "ĠInvestments": 6926,
      "eadset": 6927,
      "ĠDetailed": 6928,
      "Ġscores": 6929,
      "Ġdepartments": 6930,
      "Ġinstruction": 6931,
      "Ġdegradation": 6932,
      "Ġpinpointing": 6933,
      "Ġribbon": 6934,
      "right": 6935,
      "Ġaf": 6936,
      "ĠTS": 6937,
      "ĠTechnical": 6938,
      "ĠSlow": 6939,
      "ĠMint": 6940,
      "Ġforwarding": 6941,
      "ĠNOD": 6942,
      "Ġvariation": 6943,
      "guarding": 6944,
      "Ġcourt": 6945,
      "Ġstrengthening": 6946,
      "Ġpattern": 6947,
      "client": 6948,
      "ĠShopware": 6949,
      "ĠCenter": 6950,
      "Ġabruptly": 6951,
      "Kind": 6952,
      "MR": 6953,
      "Ġale": 6954,
      "Ġspent": 6955,
      "Ġbutt": 6956,
      "Ġencomp": 6957,
      "Ġ--": 6958,
      "Ġnotebook": 6959,
      "Ġremoval": 6960,
      "services": 6961,
      "ĠNotification": 6962,
      "Ġposting": 6963,
      "Ġsecondary": 6964,
      "Ġvisiting": 6965,
      "Ġindeed": 6966,
      "requent": 6967,
      "velopment": 6968,
      "Ġinaccessible": 6969,
      "Ġslot": 6970,
      "60": 6971,
      "Multiple": 6972,
      "ze": 6973,
      "heless": 6974,
      "Ġmr": 6975,
      "Ġhence": 6976,
      "olution": 6977,
      "acme": 6978,
      "ademy": 6979,
      "ĠAffect": 6980,
      "Ġapproving": 6981,
      "Ġkept": 6982,
      "Ġgoes": 6983,
      "Ġaccepts": 6984,
      "raffic": 6985,
      "Recently": 6986,
      "ĠPreliminary": 6987,
      "Ġsprint": 6988,
      "Ġoccasionally": 6989,
      "zen": 6990,
      "roy": 6991,
      "ational": 6992,
      "ĠSwitch": 6993,
      "Ġdisp": 6994,
      "Ġleaves": 6995,
      "orec": 6996,
      "gging": 6997,
      "Ġsuspic": 6998,
      "Ġsuggests": 6999,
      "Revise": 7000,
      "Ġhopeful": 7001,
      "Ġworkshop": 7002,
      "Ġswitching": 7003,
      "Ġhinder": 7004,
      "Ġvisitors": 7005,
      "ĠSecure": 7006,
      "Ġapproximate": 7007,
      "Ġdropped": 7008,
      "Controller": 7009,
      "Ġaffiliates": 7010,
      "Ġbuttons": 7011,
      "Al": 7012,
      "org": 7013,
      "bleton": 7014,
      "Ġsuff": 7015,
      "Ġprojector": 7016,
      "odation": 7017,
      "ĠEmail": 7018,
      "ĠForec": 7019,
      "Ġdecide": 7020,
      "ube": 7021,
      "Ġinsight": 7022,
      "Ġdownloaded": 7023,
      "ĠComponent": 7024,
      "Ġmistakes": 7025,
      "Ġaccommodation": 7026,
      "Ġdestroy": 7027,
      "Ġmiddle": 7028,
      "ĠSDK": 7029,
      "Ġjourn": 7030,
      "Ġreconcili": 7031,
      "Ġliaise": 7032,
      "fo": 7033,
      "file": 7034,
      "Ġbes": 7035,
      "ĠTried": 7036,
      "ĠConsider": 7037,
      "Ġmanufact": 7038,
      "Ġground": 7039,
      "Ġdelivered": 7040,
      "Ġsuspended": 7041,
      "Ġclosure": 7042,
      "Ġlicens": 7043,
      "Ġindirect": 7044,
      "Ġhindered": 7045,
      "Ġshowed": 7046,
      "phony": 7047,
      "Charm": 7048,
      "write": 7049,
      "ĠAuto": 7050,
      "Ġreinstalled": 7051,
      "Ġscreenshots": 7052,
      "Ġbranch": 7053,
      "ĠAgile": 7054,
      "aled": 7055,
      "hol": 7056,
      "len": 7057,
      "lies": 7058,
      "loring": 7059,
      "Ġpropri": 7060,
      "olve": 7061,
      "ĠCap": 7062,
      "ĠAbleton": 7063,
      "Ġconfident": 7064,
      "Ġfee": 7065,
      "Ġinterval": 7066,
      "Ġpersisted": 7067,
      "valu": 7068,
      "Ġdisplays": 7069,
      "Ġobst": 7070,
      "Ġoriginated": 7071,
      "Reporting": 7072,
      "Ġprioritizing": 7073,
      "ĠTrack": 7074,
      "Ġintroduce": 7075,
      "Ġyielding": 7076,
      "ĠPortfol": 7077,
      "ĠLoading": 7078,
      "Integration": 7079,
      "Ġlovely": 7080,
      "Ġskills": 7081,
      "Ġmapp": 7082,
      "vered": 7083,
      "agrant": 7084,
      "ĠCl": 7085,
      "Ġjeop": 7086,
      "Ġassignments": 7087,
      "ĠLately": 7088,
      "Ġcarefully": 7089,
      "raid": 7090,
      "Ġtravel": 7091,
      "Ġrejection": 7092,
      "________": 7093,
      "Ġsegmentation": 7094,
      "ĠPasswords": 7095,
      "papers": 7096,
      "Ġalias": 7097,
      "timecard": 7098,
      "ĠAudition": 7099,
      "Performance": 7100,
      "Ġreconciliation": 7101,
      "Ġjeopard": 7102,
      "bin": 7103,
      "has": 7104,
      "taining": 7105,
      "Ġwater": 7106,
      "rose": 7107,
      "etch": 7108,
      "stable": 7109,
      "ury": 7110,
      "ĠBig": 7111,
      "Ġorders": 7112,
      "ularly": 7113,
      "Ġcontroll": 7114,
      "bucket": 7115,
      "Ġlaunching": 7116,
      "Experienced": 7117,
      "Ġtrigger": 7118,
      "Ġreflected": 7119,
      "scape": 7120,
      "Ġicons": 7121,
      "ĠSSL": 7122,
      "Ġcondition": 7123,
      "Ġoverlapping": 7124,
      "Ġpropriet": 7125,
      "47": 7126,
      "Help": 7127,
      "PR": 7128,
      "ops": 7129,
      "Ġarose": 7130,
      "Ġwallet": 7131,
      "Ġboun": 7132,
      "Ġever": 7133,
      "ĠTim": 7134,
      "ĠSudden": 7135,
      "Ġcovered": 7136,
      "ĠMay": 7137,
      "Ġformer": 7138,
      "upgrade": 7139,
      "ĠUl": 7140,
      "Ġphotos": 7141,
      "Ġdescriptions": 7142,
      "Ġloaded": 7143,
      "Unapproved": 7144,
      "import": 7145,
      "defined": 7146,
      "expense": 7147,
      "Ġafraid": 7148,
      "Sa": 7149,
      "med": 7150,
      "}.": 7151,
      "arant": 7152,
      "ĠAss": 7153,
      "ults": 7154,
      "Ġcanary": 7155,
      "ĠDep": 7156,
      "Ġmedium": 7157,
      "nameacc": 7158,
      "Ġsomewhere": 7159,
      "Ġdocumented": 7160,
      "Ġguideline": 7161,
      "Ġowing": 7162,
      "Ġfloors": 7163,
      "Ġincomplete": 7164,
      "Ġarchived": 7165,
      "Ġattaching": 7166,
      "Ġelse": 7167,
      "ĠSafeguarding": 7168,
      "453": 7169,
      "Ġworkarounds": 7170,
      "Ġanomaly": 7171,
      "Ġadherence": 7172,
      "ĠTransl": 7173,
      "Ġpeer": 7174,
      "Ġcorrespondence": 7175,
      ":\\": 7176,
      "Need": 7177,
      "bur": 7178,
      "vanced": 7179,
      "Ġwall": 7180,
      "icularly": 7181,
      "Ġassured": 7182,
      "Ġcook": 7183,
      "Ġexposing": 7184,
      "Ġattract": 7185,
      "ĠHR": 7186,
      "Ġquarter": 7187,
      "ĠFile": 7188,
      "Ġsupplement": 7189,
      "Ġacknowledging": 7190,
      "Concerning": 7191,
      "Ġuploads": 7192,
      "ameras": 7193,
      "choology": 7194,
      "ĠPyCharm": 7195,
      "friendly": 7196,
      "oodle": 7197,
      "Ġleadership": 7198,
      "Ġdefinitely": 7199,
      "Ġhrs": 7200,
      "TION": 7201,
      "Ġindependent": 7202,
      "ĠParticularly": 7203,
      "Account": 7204,
      "Ġslight": 7205,
      "Ġusability": 7206,
      "ĠSchoology": 7207,
      "Ġseller": 7208,
      "ĠLeak": 7209,
      "Ġsignificance": 7210,
      "Spec": 7211,
      "Ġdisclose": 7212,
      "Ġcancelled": 7213,
      "ĠBitbucket": 7214,
      "Ġredirected": 7215,
      "ĠSkype": 7216,
      "Ġ=": 7217,
      "ening": 7218,
      "Ġflu": 7219,
      "Ġbind": 7220,
      "Ġimm": 7221,
      "Ġinvitation": 7222,
      "Ġhasn": 7223,
      "oney": 7224,
      "Ġgraph": 7225,
      "Ġinfect": 7226,
      "Ġinsert": 7227,
      "Ġwarm": 7228,
      "Ġunpatched": 7229,
      "ametel": 7230,
      "Ġdamaged": 7231,
      "Ġadequate": 7232,
      "Ġinnovative": 7233,
      "Ġquantity": 7234,
      "Ġproprietary": 7235,
      "Ġcaching": 7236,
      "Ġreim": 7237,
      "Ġgen": 7238,
      "Ġgame": 7239,
      "Ġtiming": 7240,
      "ĠMoodle": 7241,
      "Ġrare": 7242,
      "Ġinstruct": 7243,
      "ensely": 7244,
      "Ġinitiating": 7245,
      "Ġvacations": 7246,
      "Ġrequisitioning": 7247,
      "letter": 7248,
      "trans": 7249,
      "Ġflag": 7250,
      "Ġunsecured": 7251,
      "Ġappointment": 7252,
      "CR": 7253,
      "DM": 7254,
      "US": 7255,
      "cable": 7256,
      "Ġmoney": 7257,
      "mploy": 7258,
      "Ġassure": 7259,
      "ĠCore": 7260,
      "ĠWarm": 7261,
      "ĠResp": 7262,
      "Ġrapid": 7263,
      "Ġattribute": 7264,
      "Ġscheme": 7265,
      "Ġbecame": 7266,
      "Ġinternally": 7267,
      "place": 7268,
      "Ġvideos": 7269,
      "Ġmaterial": 7270,
      "Ġlocate": 7271,
      "Ġmigrating": 7272,
      "ĠOutdated": 7273,
      "4567": 7274,
      "ĠProvide": 7275,
      "Ġdrops": 7276,
      "Ġfigure": 7277,
      "ĠRebooting": 7278,
      "ĠCapabilities": 7279,
      "IN": 7280,
      "king": 7281,
      "Ġmus": 7282,
      "Ġbilled": 7283,
      "Ġstagn": 7284,
      "ommun": 7285,
      "ĠEvent": 7286,
      "liable": 7287,
      "Ġsale": 7288,
      "Ġremained": 7289,
      "Ġassessing": 7290,
      "Ġnotifying": 7291,
      "Ġrecognition": 7292,
      "Ġestimate": 7293,
      "Enhancement": 7294,
      "Ġdrafting": 7295,
      "Ġcorrupted": 7296,
      "CAD": 7297,
      "Ġnewsletter": 7298,
      "rated": 7299,
      "tor": 7300,
      "Ġtre": 7301,
      "Ġrevenue": 7302,
      "itech": 7303,
      "Ġinch": 7304,
      "Ġok": 7305,
      "temporary": 7306,
      "lder": 7307,
      "ĠDB": 7308,
      "Ġspending": 7309,
      "oding": 7310,
      "ĠHaving": 7311,
      "ĠHeadset": 7312,
      "Ġoperate": 7313,
      "ĠHelloSign": 7314,
      "Ġpreser": 7315,
      "Ġobvious": 7316,
      "Ġtrainings": 7317,
      "Ġrecognized": 7318,
      "Ġindividuals": 7319,
      "Ġtelephony": 7320,
      "Ġcorruption": 7321,
      "Additional": 7322,
      "posal": 7323,
      "Ġimmensely": 7324,
      "fect": 7325,
      "onar": 7326,
      "Ġfire": 7327,
      "arf": 7328,
      "sses": 7329,
      "establ": 7330,
      "ĠTaken": 7331,
      "Ġoutstanding": 7332,
      "Ġmea": 7333,
      "Ġreprodu": 7334,
      "pson": 7335,
      "Ġshipment": 7336,
      "Ġfolks": 7337,
      "Ġovercome": 7338,
      "mming": 7339,
      "Ġsuggesting": 7340,
      "Ġcollaborative": 7341,
      "Ġcontainers": 7342,
      "nson": 7343,
      "Ġbehind": 7344,
      "ĠSubject": 7345,
      "Ġmicroservices": 7346,
      "Ġadvantage": 7347,
      "Ġapparently": 7348,
      "Ġfluct": 7349,
      "IT": 7350,
      "nThe": 7351,
      "Ġwest": 7352,
      "Ġscroll": 7353,
      "Ġstemming": 7354,
      "ĠHTT": 7355,
      "ĠNon": 7356,
      "ĠBased": 7357,
      "Ġnecessity": 7358,
      "Prote": 7359,
      "Ġslowly": 7360,
      "Ġended": 7361,
      "Ġclarifications": 7362,
      "Ġlegacy": 7363,
      "Ġfreezing": 7364,
      "ĠHere": 7365,
      "Ġleaks": 7366,
      "ĠLogitech": 7367,
      "Ġtypically": 7368,
      "Ġfootprint": 7369,
      "Ġencompass": 7370,
      "Ġlicensing": 7371,
      "ĠAutoCAD": 7372,
      "ĠBigCommerce": 7373,
      "ĠTimel": 7374,
      "Specifically": 7375,
      "Additionally": 7376,
      "jek": 7377,
      "java": 7378,
      "nametel": 7379,
      "vide": 7380,
      "Ġsip": 7381,
      "Ġcine": 7382,
      "itivity": 7383,
      "Ġdig": 7384,
      "Ġnet": 7385,
      "version": 7386,
      "Ġperfect": 7387,
      "Ġvi": 7388,
      "Ġwharf": 7389,
      "Ġrecommendation": 7390,
      "ĠProjek": 7391,
      "Ġchallenging": 7392,
      "Ġobtaining": 7393,
      "Ġbrowse": 7394,
      "Ġgladly": 7395,
      "Ġcancell": 7396,
      "Ġblacklist": 7397,
      "ĠSync": 7398,
      "Ġshipped": 7399,
      "ĠProjektor": 7400,
      "23": 7401,
      "89": 7402,
      "Ġcameras": 7403,
      "Ġrelocated": 7404,
      "anwhile": 7405,
      "Ġdual": 7406,
      "Ġbun": 7407,
      "Ġbod": 7408,
      "Ġgave": 7409,
      "Ġunless": 7410,
      "ĠVagrant": 7411,
      "ĠAdmin": 7412,
      "Ġassigning": 7413,
      "Ġallowance": 7414,
      "Ġtracked": 7415,
      "Ġcomputing": 7416,
      "ĠInconsist": 7417,
      "Ġpromotional": 7418,
      "Ġmaine": 7419,
      "2014": 7420,
      "Ġreferred": 7421,
      "Ġkickoff": 7422,
      "Ġadopting": 7423,
      "Ġsupplementary": 7424,
      "test": 7425,
      "ticket": 7426,
      "Ġer": 7427,
      "Ġmut": 7428,
      "stations": 7429,
      "ided": 7430,
      "Ġworkstations": 7431,
      "Ġengagers": 7432,
      "ĠKVM": 7433,
      "Ġsensitivity": 7434,
      "Ġmanagers": 7435,
      "Ġutilizes": 7436,
      "Ġholder": 7437,
      "Ġrealloc": 7438,
      "Ġproduced": 7439,
      "Ġpaths": 7440,
      "Ġtriggers": 7441,
      "IMP": 7442,
      "Ġsuspicion": 7443,
      "49": 7444,
      "cat": 7445,
      "lusive": 7446,
      "Ġsl": 7447,
      "itates": 7448,
      "otal": 7449,
      "ĠSorry": 7450,
      "ĠChe": 7451,
      "Ġsoft": 7452,
      "Ġregardless": 7453,
      "Ġcoding": 7454,
      "ival": 7455,
      "ĠEpson": 7456,
      "ĠAdvanced": 7457,
      "ĠFaced": 7458,
      "Ġmetric": 7459,
      "Ġtwitter": 7460,
      "Ġ2023": 7461,
      "ĠMeanwhile": 7462,
      "Ġsuppliers": 7463,
      "Ġamendments": 7464,
      "ĠDisruption": 7465,
      "Ġcircu": 7466,
      "Ġsimplify": 7467,
      "ĠImprove": 7468,
      "Ġfoster": 7469,
      "Ġexcessive": 7470,
      "Ġmany": 7471,
      "ĠInaccur": 7472,
      "ĠHelp": 7473,
      "ĠEMR": 7474,
      "ĠBoost": 7475,
      "Ġbacklog": 7476,
      "urns": 7477,
      "Ġarrang": 7478,
      "Ġcollection": 7479,
      "allenge": 7480,
      "Required": 7481,
      "Ġclearly": 7482,
      "Ġshowc": 7483,
      "ĠReported": 7484,
      "printer": 7485,
      "ĠEncountering": 7486,
      "Ġmisaligned": 7487,
      "ĠInterruption": 7488,
      "Recent": 7489,
      "ĠEnhancement": 7490,
      "\":": 7491,
      "?\\": 7492,
      "evalu": 7493,
      "ipped": 7494,
      "Ġsan": 7495,
      "Ġreferen": 7496,
      "lysses": 7497,
      "ĠAgent": 7498,
      "Ġletter": 7499,
      "Ġencoding": 7500,
      "Ġadditionally": 7501,
      "Ġpatched": 7502,
      "Ġpartial": 7503,
      "ĠGIMP": 7504,
      "Ġkeyw": 7505,
      "ĠDevelopment": 7506,
      "Ġfulfill": 7507,
      "Ġcertification": 7508,
      "Ġsurge": 7509,
      "Ġestablishing": 7510,
      "Ġputting": 7511,
      "Ġfocused": 7512,
      "Ġleakage": 7513,
      "checked": 7514,
      "Ġfeasible": 7515,
      "ĠScalability": 7516,
      "Ġbottlen": 7517,
      "Ġfederation": 7518,
      "Ġwithdrawn": 7519,
      "Ġfluctuations": 7520,
      "Ġbottlenec": 7521,
      "XT": 7522,
      "vation": 7523,
      "Ġsquare": 7524,
      "Ġfaster": 7525,
      "ilt": 7526,
      "ĠIOS": 7527,
      "ifier": 7528,
      "rum": 7529,
      "Ġrh": 7530,
      "Ġunderway": 7531,
      "ĠUtil": 7532,
      "ĠUlysses": 7533,
      "Ġsynchronizing": 7534,
      "Ġsafeguards": 7535,
      "Ġdeployed": 7536,
      "Unanticipated": 7537,
      "ĠContent": 7538,
      "Ġbecoming": 7539,
      "Ġfrustrating": 7540,
      "Ġheightened": 7541,
      "Ġwhitepapers": 7542,
      "Ġweaknesses": 7543,
      "Ġmusic": 7544,
      "Ġcs": 7545,
      "iger": 7546,
      "ĠTraffic": 7547,
      "Ġyours": 7548,
      "Ġprepar": 7549,
      "Ġactionable": 7550,
      "itors": 7551,
      "Ġhands": 7552,
      "ĠOptimizing": 7553,
      "Ġcertainly": 7554,
      "ĠAvid": 7555,
      "Ġtermination": 7556,
      "Ġcontributed": 7557,
      "ml": 7558,
      "Ġsou": 7559,
      "Ġfun": 7560,
      "Ġthrow": 7561,
      "Ġnat": 7562,
      "ĠiMac": 7563,
      "Ġbeg": 7564,
      "ĠWhere": 7565,
      "ĠPredict": 7566,
      "Ġchief": 7567,
      "Ġselection": 7568,
      "ĠMX": 7569,
      "under": 7570,
      "ension": 7571,
      "Ġmodem": 7572,
      "Ġadjustable": 7573,
      "Ġproperty": 7574,
      "laim": 7575,
      "ocument": 7576,
      "grading": 7577,
      "Ġcomplaints": 7578,
      "ACS": 7579,
      "Ġcriteria": 7580,
      "ĠDocumentation": 7581,
      "Ġmanufacture": 7582,
      "Hospital": 7583,
      "Immediate": 7584,
      "dam": 7585,
      "iation": 7586,
      "occ": 7587,
      "Ġdirection": 7588,
      "etheless": 7589,
      "Ġge": 7590,
      "Ġstated": 7591,
      "Ġproven": 7592,
      "Ġimplications": 7593,
      "Ġreplicate": 7594,
      "Ġmanages": 7595,
      "Ġcaller": 7596,
      "Ġbrought": 7597,
      "espan": 7598,
      "ĠBase": 7599,
      "Ġloads": 7600,
      "Ġblocker": 7601,
      "Ġlifespan": 7602,
      "Ġpatching": 7603,
      "Ġduplex": 7604,
      "ĠLoad": 7605,
      "Ġpopulated": 7606,
      "Ġbundle": 7607,
      "ĠChef": 7608,
      "bt": 7609,
      "eg": 7610,
      "ike": 7611,
      "ernel": 7612,
      "anian": 7613,
      "Ġworth": 7614,
      "ĠCrucial": 7615,
      "Ġextern": 7616,
      "Ġconfusing": 7617,
      "Ġtries": 7618,
      "Ġneeding": 7619,
      "Ġmargin": 7620,
      "Ġletting": 7621,
      "ĠHyper": 7622,
      "Ġrelation": 7623,
      "Ġmodification": 7624,
      "Ġretain": 7625,
      "Ġruns": 7626,
      "hering": 7627,
      "ĠStand": 7628,
      "Ġeverybody": 7629,
      "play": 7630,
      "avor": 7631,
      "ĠConcerning": 7632,
      "Inter": 7633,
      "Ġhosts": 7634,
      "ologies": 7635,
      "Ġcalculated": 7636,
      "Ġcovering": 7637,
      "Ġhalt": 7638,
      "Server": 7639,
      "increase": 7640,
      "Ġpowered": 7641,
      "Exploring": 7642,
      "Ġhampers": 7643,
      "ĠJohnson": 7644,
      "Ġcatalog": 7645,
      "Ġcontrollers": 7646,
      "25": 7647,
      "Faced": 7648,
      "Imp": 7649,
      "Seek": 7650,
      "mobile": 7651,
      "Ġpie": 7652,
      "Ġct": 7653,
      "esign": 7654,
      "oming": 7655,
      "arer": 7656,
      "Ġexe": 7657,
      "Ġdeactiv": 7658,
      "thly": 7659,
      "Ġdisposal": 7660,
      "permissions": 7661,
      "enda": 7662,
      "ĠInf": 7663,
      "Ġagenda": 7664,
      "ĠFree": 7665,
      "Ġgrand": 7666,
      "Ġclarity": 7667,
      "Ġunreliable": 7668,
      "Ġadvertise": 7669,
      "Ġconsistency": 7670,
      "Ġprecision": 7671,
      "external": 7672,
      "Ġdistrib": 7673,
      "Ġreassess": 7674,
      "Ġreinforcing": 7675,
      "40": 7676,
      "AV": 7677,
      "Guide": 7678,
      "Hi": 7679,
      "db": 7680,
      "Ġdie": 7681,
      "arly": 7682,
      "ilst": 7683,
      "Ġnap": 7684,
      "Ġende": 7685,
      "ĠAM": 7686,
      "Ġunstable": 7687,
      "Ġoutlines": 7688,
      "Ġwhilst": 7689,
      "ĠThink": 7690,
      "oneous": 7691,
      "Ġretina": 7692,
      "Ġintra": 7693,
      "Ġdrives": 7694,
      "Ġinconveniences": 7695,
      "Ġstateless": 7696,
      "greg": 7697,
      "Ġchoice": 7698,
      "Ġflash": 7699,
      "Ġencrypted": 7700,
      "ĠSolution": 7701,
      "Service": 7702,
      "Ġbillable": 7703,
      "ESCR": 7704,
      "Ġromanian": 7705,
      "Ġmobiles": 7706,
      "ĠThinkPad": 7707,
      "ref": 7708,
      "enable": 7709,
      "Ġelements": 7710,
      "oto": 7711,
      "Ġregion": 7712,
      "Ġsets": 7713,
      "Ġconnector": 7714,
      "Ġsamp": 7715,
      "Ġdocumenting": 7716,
      "ĠRecorder": 7717,
      "Ġperiodic": 7718,
      "Ġlimits": 7719,
      "Ġexamination": 7720,
      "ĠPlans": 7721,
      "Ġlocally": 7722,
      "Ġpacket": 7723,
      "Ġbasically": 7724,
      "Ġpublish": 7725,
      "Ġmanufacturer": 7726,
      "abs": 7727,
      "Ġawards": 7728,
      "Ġtip": 7729,
      "att": 7730,
      "Ġsci": 7731,
      "isions": 7732,
      "Ġreocc": 7733,
      "imedia": 7734,
      "ĠAR": 7735,
      "Ġshift": 7736,
      "Ġdecided": 7737,
      "Ġconsol": 7738,
      "Ġcustomize": 7739,
      "meeting": 7740,
      "Ġcoordination": 7741,
      "Ġthoughts": 7742,
      "Ġfreeze": 7743,
      "Ġconferences": 7744,
      "Ġresume": 7745,
      "Ġrender": 7746,
      "ĠInvoice": 7747,
      "burse": 7748,
      "Ġreimburse": 7749,
      "transfer": 7750,
      "Comp": 7751,
      "hy": 7752,
      "idence": 7753,
      "ĠSee": 7754,
      "Ġlie": 7755,
      "Ġanywhere": 7756,
      "Ġinvestors": 7757,
      "Ġspot": 7758,
      "anges": 7759,
      "spec": 7760,
      "Ġswitches": 7761,
      "Ġenhances": 7762,
      "Ġcareers": 7763,
      "Ġorganize": 7764,
      "Connect": 7765,
      "Ġarchiving": 7766,
      "Ġposts": 7767,
      "Ġmeanwhile": 7768,
      "Ġmethodologies": 7769,
      "Ġtalking": 7770,
      "Ġretrieving": 7771,
      "Ġisolate": 7772,
      "contract": 7773,
      "####": 7774,
      "ĠOffer": 7775,
      "Ġrecurrence": 7776,
      "Ġmismatches": 7777,
      "Ġcookies": 7778,
      "Ġpiece": 7779,
      "doc": 7780,
      "junction": 7781,
      "Ġbatch": 7782,
      "Ġgrey": 7783,
      "ĠWave": 7784,
      "Ġprovision": 7785,
      "Ġoutcome": 7786,
      "Ġchild": 7787,
      "Ġphoto": 7788,
      "Ġcopier": 7789,
      "ĠCharg": 7790,
      "Ġevaluations": 7791,
      "Ġannouncements": 7792,
      "ĠUnderstanding": 7793,
      "rypto": 7794,
      "Ġdeeply": 7795,
      "chestration": 7796,
      "Ġbegun": 7797,
      "During": 7798,
      "Power": 7799,
      "ZXT": 7800,
      "Ġdou": 7801,
      "Ġthree": 7802,
      "Ġconjunction": 7803,
      "ĠTask": 7804,
      "ĠTime": 7805,
      "ĠCI": 7806,
      "ĠAS": 7807,
      "Ġkernel": 7808,
      "Ġdisaster": 7809,
      "ĠDESCR": 7810,
      "performance": 7811,
      "Ġdoors": 7812,
      "ĠAlert": 7813,
      "Ġslower": 7814,
      "Ġcontractors": 7815,
      "Ġobi": 7816,
      "IPTION": 7817,
      "Ġmeaning": 7818,
      "Ġaligning": 7819,
      "Ġsorted": 7820,
      "company": 7821,
      "ĠDecline": 7822,
      "Ġmirr": 7823,
      "16": 7824,
      "PACS": 7825,
      "nd": 7826,
      "inate": 7827,
      "erc": 7828,
      "ĠII": 7829,
      "Ġgreetings": 7830,
      "Ġenables": 7831,
      "Ġadverse": 7832,
      "Ġoutlining": 7833,
      "Ġcomposing": 7834,
      "ensitive": 7835,
      "ĠFL": 7836,
      "Ġbeta": 7837,
      "ephy": 7838,
      "Ġapologizes": 7839,
      "Ġemphas": 7840,
      "Ġalongside": 7841,
      "Ġlarger": 7842,
      "Ġcalculations": 7843,
      "Ġenclosure": 7844,
      "ĠSuite": 7845,
      "Ġrandomly": 7846,
      "ĠTempor": 7847,
      "ĠEnvironmental": 7848,
      "Ġdetermining": 7849,
      "Ġelevate": 7850,
      "Alert": 7851,
      "ĠPortfolio": 7852,
      "Ġbottlenecks": 7853,
      "Ġexempt": 7854,
      "Ġconsolid": 7855,
      "ephyr": 7856,
      "How": 7857,
      "Pal": 7858,
      "onse": 7859,
      "Ġpull": 7860,
      "escription": 7861,
      "Ġrele": 7862,
      "allocation": 7863,
      "icketing": 7864,
      "ille": 7865,
      "Ġheard": 7866,
      "ĠSe": 7867,
      "ĠSony": 7868,
      "ĠDrop": 7869,
      "Ġspaces": 7870,
      "ĠVeg": 7871,
      "delete": 7872,
      "ructures": 7873,
      "Ġurge": 7874,
      "Ġeffects": 7875,
      "Ġmultimedia": 7876,
      "career": 7877,
      "Ġheaders": 7878,
      "Ġviewing": 7879,
      "Ġexpecting": 7880,
      "Ġhighlighting": 7881,
      "Ġescalation": 7882,
      "Ġcarry": 7883,
      "Challenge": 7884,
      "ĠPayPal": 7885,
      "Ġremedy": 7886,
      "Ġbottom": 7887,
      "Ã¼r": 7888,
      "ĠConfiguration": 7889,
      "Ġbinding": 7890,
      "ĠVegas": 7891,
      "Br": 7892,
      "aut": 7893,
      "cure": 7894,
      "direct": 7895,
      "Ġsir": 7896,
      "Ġcrypto": 7897,
      "lel": 7898,
      "Ġfan": 7899,
      "Ġfund": 7900,
      "allel": 7901,
      "asts": 7902,
      "Ġopp": 7903,
      "ector": 7904,
      "Ġunits": 7905,
      "Ġalter": 7906,
      "Ġran": 7907,
      "ĠOper": 7908,
      "rgently": 7909,
      "Ġclearer": 7910,
      "Ġsignal": 7911,
      "Ġinfra": 7912,
      "Ġpayroll": 7913,
      "ĠInvestigate": 7914,
      "Ġthinking": 7915,
      "Ġhinders": 7916,
      "Ġpublicly": 7917,
      "Ġtouchscreen": 7918,
      "Ġindustries": 7919,
      "Ġpreca": 7920,
      "Ġcontinuing": 7921,
      "Ġdisappo": 7922,
      "ĠDiscrepancy": 7923,
      "Ġtoner": 7924,
      "Ther": 7925,
      "lled": 7926,
      "uable": 7927,
      "reeting": 7928,
      "Ġops": 7929,
      "Ġobl": 7930,
      "quality": 7931,
      "Ġorchestration": 7932,
      "Ġsequ": 7933,
      "Ġpool": 7934,
      "unk": 7935,
      "Ġcheckout": 7936,
      "ĠBel": 7937,
      "ĠDataPower": 7938,
      "ĠGl": 7939,
      "ĠGener": 7940,
      "Ġsituations": 7941,
      "Ġarrive": 7942,
      "ĠExperiencing": 7943,
      "Ġresponded": 7944,
      "Ġagreements": 7945,
      "Ġgateways": 7946,
      "Improving": 7947,
      "Ġdecommissioning": 7948,
      "Ġinvaluable": 7949,
      "Ġevidence": 7950,
      "Ġcomplexity": 7951,
      "Ġimproperly": 7952,
      "====": 7953,
      "Ġscenario": 7954,
      "ĠAttention": 7955,
      "ĠNonetheless": 7956,
      "Ġnatural": 7957,
      "ĠInfrastructure": 7958,
      "ĠDESCRIPTION": 7959,
      "TC": 7960,
      "UI": 7961,
      "disable": 7962,
      "nSincerely": 7963,
      "sights": 7964,
      "type": 7965,
      "Ġtx": 7966,
      "rett": 7967,
      "rix": 7968,
      "key": 7969,
      "Ġquarant": 7970,
      "Ġfriend": 7971,
      "ĠNZXT": 7972,
      "points": 7973,
      "osen": 7974,
      "Ġopens": 7975,
      "Ġsitting": 7976,
      "ĠStream": 7977,
      "Ġemploying": 7978,
      "Ġeditor": 7979,
      "ĠScanner": 7980,
      "Ġproduce": 7981,
      "Ġtrend": 7982,
      "aphic": 7983,
      "Ġaligned": 7984,
      "Ġheavy": 7985,
      "Ġamendment": 7986,
      "Ġflexibility": 7987,
      "Ġinspecting": 7988,
      "ĠSetup": 7989,
      "ĠScalable": 7990,
      "Ġerroneous": 7991,
      "Ġcancellation": 7992,
      "Billing": 7993,
      "cent": 7994,
      "Ġaster": 7995,
      "Ġticketing": 7996,
      "Ġfall": 7997,
      "Ġbol": 7998,
      "urb": 7999,
      "Ġey": 8000,
      "ĠTimes": 8001,
      "ĠCause": 8002,
      "Ġatl": 8003,
      "ĠAE": 8004,
      "Ġtrading": 8005,
      "Ġscanned": 8006,
      "ĠMult": 8007,
      "Ġrelate": 8008,
      "rencing": 8009,
      "Ġprotections": 8010,
      "Ġintr": 8011,
      "Ġthemselves": 8012,
      "Ġdeveloped": 8013,
      "Ġdefinitions": 8014,
      "Ġendpoints": 8015,
      "Ġedited": 8016,
      "Ġ2022": 8017,
      "Ġcourses": 8018,
      "Ġattacker": 8019,
      "Ġconferencing": 8020,
      "Ġreassigned": 8021,
      "changed": 8022,
      "Why": 8023,
      "Here": 8024,
      "Ġcurious": 8025,
      "Ġexceeded": 8026,
      "Ġcounsel": 8027,
      "ĠAffecting": 8028,
      "Ġstagnant": 8029,
      "Ġsouth": 8030,
      "Ġasterisk": 8031,
      "*:": 8032,
      "80": 8033,
      "CD": 8034,
      "NU": 8035,
      "Ġmil": 8036,
      "atever": 8037,
      "Ġgift": 8038,
      "Ġstick": 8039,
      "Ġimpossible": 8040,
      "Ġwhatever": 8041,
      "anta": 8042,
      "ĠVector": 8043,
      "ĠGr": 8044,
      "Ġdisrupts": 8045,
      "Ġpresident": 8046,
      "avity": 8047,
      "Ġacceptance": 8048,
      "ĠUndefined": 8049,
      "Ġcollaborations": 8050,
      "Ġmatrix": 8051,
      "ĠWhy": 8052,
      "Ġelig": 8053,
      "ĠCVEID": 8054,
      "Ġrepeat": 8055,
      "Ġadheres": 8056,
      "Ġlabels": 8057,
      "Ġmodern": 8058,
      "Ġexcellence": 8059,
      "Ġpreparation": 8060,
      "ĠASUS": 8061,
      "ĠTemporal": 8062,
      "commun": 8063,
      "hips": 8064,
      "mes": 8065,
      "Ġdan": 8066,
      "ĠTable": 8067,
      "ĠCy": 8068,
      "Ġuptime": 8069,
      "ĠAim": 8070,
      "emory": 8071,
      "Ġperspective": 8072,
      "ĠDu": 8073,
      "Ġchosen": 8074,
      "Ġreput": 8075,
      "Ġstatistics": 8076,
      "Ġcorrections": 8077,
      "Ġautomating": 8078,
      "Ġreader": 8079,
      "Ġplayer": 8080,
      "ĠXonar": 8081,
      "ĠSyncing": 8082,
      "ĠReinstalling": 8083,
      "Ġdestination": 8084,
      "ĠImplementing": 8085,
      "Ġjournal": 8086,
      "SaaS": 8087,
      "Ġadvertisements": 8088,
      "rettably": 8089,
      "As": 8090,
      "OR": 8091,
      "cve": 8092,
      "cven": 8093,
      "oh": 8094,
      "Ġcam": 8095,
      "Ġwire": 8096,
      "Ġfellow": 8097,
      "ason": 8098,
      "etration": 8099,
      "Ġassum": 8100,
      "ĠWix": 8101,
      "ĠDif": 8102,
      "Ġrepublic": 8103,
      "ainten": 8104,
      "number": 8105,
      "icht": 8106,
      "ĠBen": 8107,
      "mitre": 8108,
      "Ġbreaching": 8109,
      "Ġgravity": 8110,
      "Ġinser": 8111,
      "ĠServers": 8112,
      "repl": 8113,
      "laboration": 8114,
      "Ġholds": 8115,
      "Ġauthentic": 8116,
      "Ensuring": 8117,
      "Ġclicked": 8118,
      "Ġseparately": 8119,
      "Ġlargest": 8120,
      "Ġanswers": 8121,
      "optimal": 8122,
      "Ġconcise": 8123,
      "Ġ\\\"": 8124,
      "ĠReviewing": 8125,
      "ĠWorkspace": 8126,
      "Ġpenetration": 8127,
      "wrong": 8128,
      "Ġscenarios": 8129,
      "ĠModel": 8130,
      "cvename": 8131,
      "aintenance": 8132,
      "63": 8133,
      "dress": 8134,
      "ker": 8135,
      "mon": 8136,
      "vision": 8137,
      "inn": 8138,
      "Ġfa": 8139,
      "Ġfing": 8140,
      "Ġfour": 8141,
      "Ġmount": 8142,
      "olen": 8143,
      "ccur": 8144,
      "ĠPeak": 8145,
      "Ġrequestor": 8146,
      "Ġjava": 8147,
      "Ġmisuse": 8148,
      "Ġdisks": 8149,
      "Ġvalidated": 8150,
      "Ġtomcat": 8151,
      "Ġconversations": 8152,
      "Ġdistribute": 8153,
      "Ġ2530": 8154,
      "What": 8155,
      "Ġtags": 8156,
      "Ġreinforced": 8157,
      "Ġbesides": 8158,
      "Ġbounce": 8159,
      "Kamera": 8160,
      "TB": 8161,
      "vas": 8162,
      "Ġtick": 8163,
      "Ġpi": 8164,
      "Ġpred": 8165,
      "Ġmad": 8166,
      "Ġmix": 8167,
      "Ġforget": 8168,
      "igence": 8169,
      "Ġeast": 8170,
      "Ġelim": 8171,
      "Ġtrials": 8172,
      "mption": 8173,
      "Ġsuboptimal": 8174,
      "ĠHand": 8175,
      "Ġschema": 8176,
      "Ġaggreg": 8177,
      "ĠLa": 8178,
      "ĠGNU": 8179,
      "Ġsynced": 8180,
      "Ġarrangements": 8181,
      "Ġsuppose": 8182,
      "Ġsupplied": 8183,
      "Ġworksho": 8184,
      "ĠNoticing": 8185,
      "Ġzephyr": 8186,
      "Ġparallel": 8187,
      "Unauthorized": 8188,
      "Troubleshooting": 8189,
      "Ġdeparture": 8190,
      "ĠProtecting": 8191,
      "ĠâĢĶ": 8192,
      "Ġrepeatedly": 8193,
      "Ġrecruiter": 8194,
      "Ġcharacter": 8195,
      "Ġmirroring": 8196,
      "Ġadversely": 8197,
      "Ġatlanta": 8198,
      "Ġworkshops": 8199,
      "Ġpit": 8200,
      "Ġlately": 8201,
      "ĠPinn": 8202,
      "ipe": 8203,
      "ĠBe": 8204,
      "Ġdeclined": 8205,
      "ĠUrgently": 8206,
      "Ġidentifier": 8207,
      "Ġaudiences": 8208,
      "erme": 8209,
      "Ġemployer": 8210,
      "backs": 8211,
      "Ġmanuals": 8212,
      "Ġmarketplace": 8213,
      "Ġdownloading": 8214,
      "Ġrepresents": 8215,
      "Ġeditable": 8216,
      "Ġevaluating": 8217,
      "Ġtalked": 8218,
      "Ġultima": 8219,
      "Ġovercharged": 8220,
      "recover": 8221,
      "Ġfrozen": 8222,
      "visor": 8223,
      "ĠConfirm": 8224,
      "ĠResponse": 8225,
      "ĠPredictions": 8226,
      "Intermittent": 8227,
      "Ġsample": 8228,
      "ĠPinnacle": 8229,
      "\".": 8230,
      "850": 8231,
      "Financial": 8232,
      "Frequent": 8233,
      "PA": 8234,
      "document": 8235,
      "hooks": 8236,
      "rance": 8237,
      "tra": 8238,
      "Ġill": 8239,
      "Ġwinning": 8240,
      "Ġfu": 8241,
      "Ġhot": 8242,
      "team": 8243,
      "Ġbear": 8244,
      "ĠSamsung": 8245,
      "quately": 8246,
      "Ġstra": 8247,
      "dates": 8248,
      "ung": 8249,
      "Ġinstant": 8250,
      "Ġadvances": 8251,
      "ĠLat": 8252,
      "Ġanti": 8253,
      "Ġraiser": 8254,
      "Ġorganizational": 8255,
      "Ġcopies": 8256,
      "Ġdesignated": 8257,
      "Ġpresented": 8258,
      "Ġwebhooks": 8259,
      "Ġflows": 8260,
      "Ġencounters": 8261,
      "Ġhistor": 8262,
      "ĠResolve": 8263,
      "Ġexporting": 8264,
      "regard": 8265,
      "ikes": 8266,
      "Ġmapped": 8267,
      "Ġlieu": 8268,
      "Ġdoubt": 8269,
      "ĠOperations": 8270,
      "Ġsequence": 8271,
      "Net": 8272,
      "fast": 8273,
      "falls": 8274,
      "git": 8275,
      "whel": 8276,
      "Ġq": 8277,
      "Ġaver": 8278,
      "Ġcatch": 8279,
      "Ġproof": 8280,
      "Ġconform": 8281,
      "ĠTK": 8282,
      "Ġheld": 8283,
      "agram": 8284,
      "Ġsoph": 8285,
      "Ġdeals": 8286,
      "ĠAI": 8287,
      "usi": 8288,
      "Ġdiscovery": 8289,
      "Ġprotective": 8290,
      "ĠAlgorithm": 8291,
      "brid": 8292,
      "Ġcollaborating": 8293,
      "Ġsimul": 8294,
      "Ġapproaching": 8295,
      "Ġequipped": 8296,
      "ĠosCommerce": 8297,
      "Ġspeeds": 8298,
      "Exception": 8299,
      "ĠSubversion": 8300,
      "Ġpermanently": 8301,
      "Ġpushed": 8302,
      "Ġcharts": 8303,
      "ĠSDKs": 8304,
      "ĠBenQ": 8305,
      "Ġpitfalls": 8306,
      "Critical": 8307,
      "Drafting": 8308,
      "mod": 8309,
      "Ġten": 8310,
      "rer": 8311,
      "terior": 8312,
      "ĠDa": 8313,
      "ders": 8314,
      "Ġcompiling": 8315,
      "Ġoptim": 8316,
      "ĠVal": 8317,
      "uthentication": 8318,
      "built": 8319,
      "Ġpreferably": 8320,
      "Ġfacilitating": 8321,
      "asserme": 8322,
      "Ġreduction": 8323,
      "Ġdemos": 8324,
      "Ġallocations": 8325,
      "ĠHospitals": 8326,
      "Ġduplicated": 8327,
      "Ġsubsequently": 8328,
      "Ġdelegation": 8329,
      "Ġstatistic": 8330,
      "Ġkeywords": 8331,
      "ĠStandard": 8332,
      "Ġreoccurring": 8333,
      "Ġdisappointing": 8334,
      "Ġstraight": 8335,
      "assermelder": 8336,
      "03": 8337,
      "18": 8338,
      "29": 8339,
      "Wassermelder": 8340,
      "authorised": 8341,
      "task": 8342,
      "Ã¶": 8343,
      "leas": 8344,
      "asting": 8345,
      "iler": 8346,
      "Ġapplies": 8347,
      "Ġlad": 8348,
      "emed": 8349,
      "Ġcant": 8350,
      "Ġincoming": 8351,
      "Ġcompare": 8352,
      "ĠMedia": 8353,
      "ĠET": 8354,
      "Ġreceives": 8355,
      "ync": 8356,
      "Ġtransmit": 8357,
      "Ġcapability": 8358,
      "ĠApplications": 8359,
      "Ġdiverse": 8360,
      "provide": 8361,
      "Ġrouters": 8362,
      "Ġdevelopments": 8363,
      "Ġvisualizations": 8364,
      "Ġoriginally": 8365,
      "Ġredund": 8366,
      "****": 8367,
      "Ġmaven": 8368,
      "Ġexpressing": 8369,
      "Ġrestriction": 8370,
      "Ġtitles": 8371,
      "Ġcontinuously": 8372,
      "Ġcirc": 8373,
      "Ġfigures": 8374,
      "Ġpublished": 8375,
      "ĠCollaboration": 8376,
      "Ġcircuit": 8377,
      "Ġreimbursement": 8378,
      "curement": 8379,
      "ĠLaunch": 8380,
      "harp": 8381,
      "hardware": 8382,
      "nIn": 8383,
      "pe": 8384,
      "Ġ?": 8385,
      "Ġrelocation": 8386,
      "Ġnar": 8387,
      "Ġisn": 8388,
      "Ġep": 8389,
      "isticated": 8390,
      "Ġlunch": 8391,
      "Ġregist": 8392,
      "ĠAvailable": 8393,
      "Ġalternatively": 8394,
      "Ġmoments": 8395,
      "Ġspikes": 8396,
      "ĠMis": 8397,
      "ĠBet": 8398,
      "ĠFirewall": 8399,
      "ĠPrompt": 8400,
      "Ġasks": 8401,
      "Ġexploited": 8402,
      "Ġcontractual": 8403,
      "ĠTherefore": 8404,
      "Ġstreaming": 8405,
      "Ġcontainer": 8406,
      "Ġideal": 8407,
      "ĠIncomp": 8408,
      "Ġchoosing": 8409,
      "Ġsounds": 8410,
      "Ġsimply": 8411,
      "Ġrouting": 8412,
      "ĠSignal": 8413,
      "Ġelectric": 8414,
      "Ġcorner": 8415,
      "Ġreferenced": 8416,
      "Del": 8417,
      "IBM": 8418,
      "Potential": 8419,
      "Sec": 8420,
      "data": 8421,
      "geting": 8422,
      "oned": 8423,
      "Ġbanner": 8424,
      "Ġod": 8425,
      "Ġending": 8426,
      "quiries": 8427,
      "additional": 8428,
      "ĠPract": 8429,
      "Ġposes": 8430,
      "Ġspoke": 8431,
      "aSharp": 8432,
      "Ġrolled": 8433,
      "Ġdisclaim": 8434,
      "Ġboards": 8435,
      "Ġretry": 8436,
      "Ġproceeding": 8437,
      "Ġprobation": 8438,
      "Ġaligns": 8439,
      "traSharp": 8440,
      "Ġrecalibrated": 8441,
      "Ġgrades": 8442,
      "ĠUltraSharp": 8443,
      "establishing": 8444,
      "Ġsophisticated": 8445,
      "ĠPractices": 8446,
      "100": 8447,
      "DRA": 8448,
      "lDRA": 8449,
      "Ġreactivate": 8450,
      "Ġdp": 8451,
      "asic": 8452,
      "ĠTLS": 8453,
      "ĠTotal": 8454,
      "Ġadhering": 8455,
      "ĠWireless": 8456,
      "ptops": 8457,
      "Ġtrio": 8458,
      "cking": 8459,
      "Ġengines": 8460,
      "ĠVis": 8461,
      "Ġensures": 8462,
      "Ġlaptops": 8463,
      "Ġmailboxes": 8464,
      "ĠConsole": 8465,
      "Ġfactor": 8466,
      "Ġnonrecover": 8467,
      "Challenges": 8468,
      "Ġadequately": 8469,
      "Ġstringent": 8470,
      "ĠEditor": 8471,
      "Ġviol": 8472,
      "ĠInaccurate": 8473,
      "Ġladies": 8474,
      "Ġdisclaimer": 8475,
      "lDRAW": 8476,
      "Ġnonrecoverable": 8477,
      "Cl": 8478,
      "cam": 8479,
      "iber": 8480,
      "oT": 8481,
      "ath": 8482,
      "Ġpain": 8483,
      "Ġole": 8484,
      "Ġdisregard": 8485,
      "Ġamster": 8486,
      "Ġnoticing": 8487,
      "Ġpreference": 8488,
      "Ġproud": 8489,
      "Ġtesters": 8490,
      "ĠReact": 8491,
      "Ġcoll": 8492,
      "ĠKey": 8493,
      "ĠGD": 8494,
      "Ġproperties": 8495,
      "itchen": 8496,
      "Ġitemized": 8497,
      "ĠConduct": 8498,
      "Reg": 8499,
      "Ġfulf": 8500,
      "ĠRegrettably": 8501,
      "ometer": 8502,
      "Ġbroch": 8503,
      "Ġcopyright": 8504,
      "ĠCanvas": 8505,
      "Ġideally": 8506,
      "Ġalignment": 8507,
      "Ġstrongly": 8508,
      "ĠCompiler": 8509,
      "Notification": 8510,
      "Roboter": 8511,
      "ĠDisruptions": 8512,
      "Ġovercharge": 8513,
      "Ġstatistical": 8514,
      "Kindly": 8515,
      "ĠTimelines": 8516,
      "Ġscience": 8517,
      "ĠCharges": 8518,
      "Ġreleases": 8519,
      "Ġfinger": 8520,
      "Ġbanners": 8521,
      "Ġamsterdam": 8522,
      "02": 8523,
      "Further": 8524,
      "iment": 8525,
      "Ġsil": 8526,
      "oration": 8527,
      "Ġmask": 8528,
      "alancing": 8529,
      "Ġharm": 8530,
      "cell": 8531,
      "ailure": 8532,
      "ĠCod": 8533,
      "Ġreplic": 8534,
      "Ġpointing": 8535,
      "Ġplate": 8536,
      "licates": 8537,
      "Ġsetups": 8538,
      "Ġexpose": 8539,
      "Ġsignatures": 8540,
      "ĠGo": 8541,
      "Ġtransl": 8542,
      "Ġswit": 8543,
      "Ġplanner": 8544,
      "Ġannoy": 8545,
      "Ġminimizing": 8546,
      "Ġtracker": 8547,
      "Ġedu": 8548,
      "ĠAccessing": 8549,
      "ĠCompliance": 8550,
      "ĠCompany": 8551,
      "Ġdealing": 8552,
      "Ġparticipants": 8553,
      "Ġfrustration": 8554,
      "ĠTracking": 8555,
      "4760": 8556,
      "mployee": 8557,
      "Ġtreated": 8558,
      "Ġobviously": 8559,
      "ĠHTTP": 8560,
      "ĠTableau": 8561,
      "My": 8562,
      "Tank": 8563,
      "click": 8564,
      "husi": 8565,
      "ipp": 8566,
      "nam": 8567,
      "Ġreq": 8568,
      "Ġbody": 8569,
      "iliar": 8570,
      "submit": 8571,
      "Ġstructures": 8572,
      "Ġasset": 8573,
      "Ġexchanges": 8574,
      "Ġresolves": 8575,
      "Ġinvites": 8576,
      "Ġproblematic": 8577,
      "Ġsharp": 8578,
      "ources": 8579,
      "Ġram": 8580,
      "Ġpresu": 8581,
      "ĠInv": 8582,
      "Ġaccounting": 8583,
      "ĠEco": 8584,
      "ĠBuster": 8585,
      "itory": 8586,
      "ĠUse": 8587,
      "Ġenthusi": 8588,
      "Ġoperates": 8589,
      "Ġvariance": 8590,
      "fering": 8591,
      "ĠSpecific": 8592,
      "ĠSocial": 8593,
      "001": 8594,
      "Ġrejecting": 8595,
      "Ġimag": 8596,
      "Ġseemed": 8597,
      "Ġcompetition": 8598,
      "Ġdisturb": 8599,
      "Ġ:)": 8600,
      "Ġparticipant": 8601,
      "2720": 8602,
      "Ġheadsets": 8603,
      "Brille": 8604,
      "ĠEcoTank": 8605,
      "Cam": 8606,
      "Ste": 8607,
      "TÃ¼r": 8608,
      "osis": 8609,
      "Ġtend": 8610,
      "info": 8611,
      "Ġreload": 8612,
      "arbon": 8613,
      "ĠCarbon": 8614,
      "owner": 8615,
      "ours": 8616,
      "Ġqual": 8617,
      "ĠBasic": 8618,
      "ĠProced": 8619,
      "Ġdifferences": 8620,
      "Ġdirected": 8621,
      "Ġdrag": 8622,
      "Ġtweak": 8623,
      "backpack": 8624,
      "ĠUpgrading": 8625,
      "Ġreasonable": 8626,
      "Ġstabil": 8627,
      "ĠWhich": 8628,
      "Ġunpredict": 8629,
      "Ġauthorize": 8630,
      "ĠComprom": 8631,
      "....": 8632,
      "Noticing": 8633,
      "Ġdenial": 8634,
      "ĠInterruptions": 8635,
      "ĠSuggest": 8636,
      "ĠChromebook": 8637,
      "Ġdefective": 8638,
      "Ġalternatives": 8639,
      "ĠClient": 8640,
      "Ġflagged": 8641,
      "DMI": 8642,
      "Ġshowcase": 8643,
      "ĠHyperX": 8644,
      "Ġdeactivated": 8645,
      "Ġdistribution": 8646,
      "Ġoblig": 8647,
      "ĠStreamCam": 8648,
      "07": 8649,
      "09": 8650,
      "ER": 8651,
      "event": 8652,
      "land": 8653,
      "rights": 8654,
      "sec": 8655,
      "sight": 8656,
      "snow": 8657,
      "upp": 8658,
      "hedule": 8659,
      "Ġdark": 8660,
      "susp": 8661,
      "ecademy": 8662,
      "Ġstating": 8663,
      "Ġstolen": 8664,
      "ĠCa": 8665,
      "Ġkitchen": 8666,
      "Ġcovers": 8667,
      "ĠDate": 8668,
      "Ġtrace": 8669,
      "oken": 8670,
      "Ġrising": 8671,
      "Ġteamwork": 8672,
      "odes": 8673,
      "ĠHDMI": 8674,
      "full": 8675,
      "ĠFunction": 8676,
      "Information": 8677,
      "Ġsuspects": 8678,
      "Ġspecialized": 8679,
      "ĠDoe": 8680,
      "Ġpromoted": 8681,
      "Ġbudgeting": 8682,
      "Ġopinion": 8683,
      "Ġinterrupting": 8684,
      "vailability": 8685,
      "Ġprima": 8686,
      "ĠInterface": 8687,
      "Ġdebugging": 8688,
      "Advice": 8689,
      "Ġjams": 8690,
      "Ġadvantageous": 8691,
      "Protecting": 8692,
      "Ġmutually": 8693,
      "Furthermore": 8694,
      "ĠCodecademy": 8695,
      "Error": 8696,
      "Log": 8697,
      "do": 8698,
      "ler": 8699,
      "system": 8700,
      "uendo": 8701,
      "Ġtack": 8702,
      "ancy": 8703,
      "Ġment": 8704,
      "iding": 8705,
      "olic": 8706,
      "omla": 8707,
      "ĠPres": 8708,
      "Ġcontrib": 8709,
      "erring": 8710,
      "ckets": 8711,
      "Ġsho": 8712,
      "Ġencour": 8713,
      "ĠInsights": 8714,
      "Ġinterfe": 8715,
      "ĠNuendo": 8716,
      "Ġacquired": 8717,
      "Ġnewer": 8718,
      "Ġids": 8719,
      "ĠProjector": 8720,
      "Ġdefects": 8721,
      "Ġobjects": 8722,
      "Ġsporadically": 8723,
      "ĠSuspected": 8724,
      "running": 8725,
      "Ġirregularities": 8726,
      "ĠWorkflow": 8727,
      "ĠJoomla": 8728,
      "ĠEnhancements": 8729,
      "Ġboxes": 8730,
      "Ġlandscape": 8731,
      "Ġreveal": 8732,
      "Ġeditorial": 8733,
      "Ġreplica": 8734,
      "dis": 8735,
      "kling": 8736,
      "nOur": 8737,
      "unt": 8738,
      "enc": 8739,
      "ingway": 8740,
      "Ġdated": 8741,
      "Ġduck": 8742,
      "Ġbinary": 8743,
      "Ġgaining": 8744,
      "Ġgaps": 8745,
      "Ġweird": 8746,
      "adding": 8747,
      "emingway": 8748,
      "Ġrepro": 8749,
      "redential": 8750,
      "ĠHemingway": 8751,
      "Ġadvisable": 8752,
      "Ġnamely": 8753,
      "Ġcolt": 8754,
      "ersist": 8755,
      "Ġdescribe": 8756,
      "Ġtoolkit": 8757,
      "Ġstatic": 8758,
      "brbr": 8759,
      "Ġdiagnosis": 8760,
      "shared": 8761,
      "ĠIniti": 8762,
      "Ġbooks": 8763,
      "Ġpromotion": 8764,
      "Ġrevising": 8765,
      "Ġfinalize": 8766,
      "Ġdependency": 8767,
      "Ġrespectfully": 8768,
      "Ġdistribut": 8769,
      "Ġcommands": 8770,
      "Ġtransferring": 8771,
      "Ġinstitutions": 8772,
      "extension": 8773,
      "----------------": 8774,
      "Ġcharacters": 8775,
      "Ġalternate": 8776,
      "ĠDeploy": 8777,
      "Ġaverage": 8778,
      "Ġswitched": 8779,
      "Ġannoying": 8780,
      "ĠInvolving": 8781,
      "TÃ¼rkling": 8782,
      "TÃ¼rklingel": 8783,
      "19": 8784,
      "Cras": 8785,
      "Vin": 8786,
      "mo": 8787,
      "Ġpleas": 8788,
      "item": 8789,
      "Ġinsp": 8790,
      "aser": 8791,
      "Ġthresh": 8792,
      "ĠApolog": 8793,
      "Ġunblock": 8794,
      "Ġvc": 8795,
      "Ġpose": 8796,
      "Ġstems": 8797,
      "ĠGuide": 8798,
      "Ġsubscribed": 8799,
      "Ġcomprehend": 8800,
      "Ġreplies": 8801,
      "Ġorganized": 8802,
      "Ġdiagram": 8803,
      "Ġprivate": 8804,
      "Ġdelegate": 8805,
      "Ġinfection": 8806,
      "ĠCorelDRAW": 8807,
      "Ġarranged": 8808,
      "Ġeye": 8809,
      "replace": 8810,
      "monthly": 8811,
      "ĠDaVin": 8812,
      "ĠDaVinci": 8813,
      ".-": 8814,
      "De": 8815,
      "Disc": 8816,
      "bound": 8817,
      "eet": 8818,
      "Ġtier": 8819,
      "Ġwipe": 8820,
      "Ġmd": 8821,
      "lorer": 8822,
      "Ġenvision": 8823,
      "Ġassu": 8824,
      "ĠCustom": 8825,
      "Ġintell": 8826,
      "Ġconting": 8827,
      "due": 8828,
      "usable": 8829,
      "Ġsooner": 8830,
      "ĠFailed": 8831,
      "Ġadvis": 8832,
      "oph": 8833,
      "Ġaccel": 8834,
      "Ġnecessitates": 8835,
      "Ġconsultants": 8836,
      "Ġlimiting": 8837,
      "Ġappropriately": 8838,
      "ĠWhom": 8839,
      "Ġparking": 8840,
      "rrors": 8841,
      "Ġannounced": 8842,
      "Ġexclude": 8843,
      "Ġwonderful": 8844,
      "ĠAdjustments": 8845,
      "Ġpublishers": 8846,
      "Ġbolster": 8847,
      "Ġeliminate": 8848,
      "Ġhistorical": 8849,
      "whelming": 8850,
      "Ġplateau": 8851,
      "35": 8852,
      "Network": 8853,
      "TLS": 8854,
      "inber": 8855,
      "ĠTechn": 8856,
      "ĠSoph": 8857,
      "quis": 8858,
      "ĠWAS": 8859,
      "Ġexit": 8860,
      "Ġunchanged": 8861,
      "oother": 8862,
      "Ġpurge": 8863,
      "ĠUI": 8864,
      "eping": 8865,
      "Ġinsecure": 8866,
      "Ġmainly": 8867,
      "Ġheader": 8868,
      "ĠAppro": 8869,
      "Ġgenerally": 8870,
      "Ġtrave": 8871,
      "Ġsmoother": 8872,
      "ĠUpgrade": 8873,
      "Ġbuilds": 8874,
      "elling": 8875,
      "otherboard": 8876,
      "Ġprofessionals": 8877,
      "Ġentirely": 8878,
      "Ġcombining": 8879,
      "elivery": 8880,
      "Recurring": 8881,
      "Ġvendors": 8882,
      "pository": 8883,
      "Ġquota": 8884,
      "::::": 8885,
      "Ġrevealed": 8886,
      "Ġsuffix": 8887,
[...]
